memory_initialization_radix=16;
memory_initialization_vector=
ff040404d8dcedab040209f005c40b12d52ffec508e837f3f71c26e4f4f318e3e9ff06ffec10ef01bc11fcfe042c2efc09211bddf1f73af20ee502f4020529f8edfef3e7e7ee2d0f30e5f1f81feb19e4e305edda05c3d01ffe101ad2d9eafe2df70ae3e5d62133ec1e0f1cf6ecef12ecc0f8fed2efeb2428210112f7f5fbf708,
ff2ad3fdb8181f0d05fe0834fff2fe07df26ed440ee9f9db4e432123ff04ef04fb37f1f5efedec3af2111d16f6150f01f6080a0eefe2e00b0a2a09e9da360cd2b3f311fc17cc13f7fef529dc21ee1cb4d5e0e903272f16c9391bf808f7010afb18121240f31c08e40f18d5f0ff13e10fe0011506ccfcfbf5f5cef10d3134efdd,
19fcfec204081817f3141bc3e532e7f7f416f0f20103f82fa10ffae8df141108bc28290a142a11cead06fa13172df63efd08161107fccc0f2ed410133dd2f72ffae21f1319c0d5fc0bdfef0b171438bff438e9e8e8df14e6041d0310f6ec3df1e814ecf403e8c7f326daebd9001131f6121f18ec04fedbf00a22f1e908271ee7,
0ff507f02a05fb0622430201e1e1d9e6080020ff100609030403bbf9ffe427fad2b5f9d3e8e85934fbdb050407300003fb2af706f1ec020f23fa1f30d2fbf2e5fa1ffc252f20d6daf5faf60b03de2be1f5f7220c29eefbf7de2b261bc9f10115101a08f82e11f836df17e2f20d111709f318fde8d7f4340227f5ef06c6feece4,
040ffc5c0c312c06142f0034ead5e013f804ebe911fce5d6dadff2e905ee09d7e115feefbef4f1fbe9f6ed1a30f0ead50b0822282cff2107feecea29d30a0bfafa0d26c423fbff2e29f7e117e201eff9f33b0921ea07c0ebf2da1600dd1ae1fecb340d083108ef02daf0ff0d17eef13e32f22b1cd91118f5afe1ec16f2c1fe2c,
ffdfff0af9d90103e5eef1d117e9ed1ff32a0bed21f1b8d521e3d60bc40118dd12dcf608bfdb02dd1219131ff00df0d0fe30f6e3ecec15011331eaf3ea2708fb1712faf618ecf427d821041f13340d08cddfd52023002413dbde003318d62415fb0909040101e1fbf0e323141107ea18e6c5183c1819b131160e361024d52e22,
1b0d0ce2f428fd19d8e61ddff70507fdfaf30709faf3020231f2cb1afc030b0e09faf8e90bf72120cd0d19090bdafcee0ded271d0f0b09f906410831c9f93936102e0e0b2009f727f9e1ee1524e114ee1b1b26361a0120e6feb8fef829ea0c0ff2ea1a09fe19e8f6efbef71d12ccf7ebf9f207301108f12b1646cf1dff091bfb,
ead2fc09e71412dbf70d22e505e3f40af8d3ea10fce6f8ee401b39f8e6e6fce0f4152564181910f41526d5f1d2f3ebf9e5ed27f504c412d3f3e1d72ce8fb02fe1f061a30d4d110def232da1926cd060a012a1ffaf0173a10e8c71a0d102ef31708f819200f2afaeb24131f031f22f3ef29f3ebd3d910070aef15f0f81110f2de,
052010ef1306f005012610d1e3e712ce290311cceafd040a0c0223fa2b1610e4eef9d4d42208ead1fd0708fbfa03161b140d3d16f7e7d0f9e200e5103a01f6ef480c08d10c1ad32fd5fefffcfaed0a02eb1ecdf6f604f5d622fabb0813f40a360d33fde4241ff215feed09e4f3f418ecb428e8112e0c264a16f41a16ff0c100f,
480ff9261fcfffeec60a20cf10cfd300d513fa22faf0f62111200ff9ccf70d142cee141704f0fc0be3fee102fdfeea2725dfdd1cff0318d712e6181e26c8edf01d13a80ec22212fdfab900f4d6f306d9ea50080223d9eef8fedaeaeb2304e512d82b031117d1df2808d01307000eeb1e0bfd2d16fd1a0fff2c0a42fe0decf307,
10010232fbe9eb08cfebdddbc9f2fd0f3507122d06051b49ea0509c601ea171de4fdf7e31507f11e14f53f1ffbc7052f29f2193bfbf833e000f10d07e6011c0514f3320ee7e4e902010be500d0defa06f91f23ed050dd93302ee00eee6f0ea1bed0a18f1ea0dbcf40817f8ee23ff3ceee72f262804f008e8f72d10f91336f2da,
01f0ce2df00ce90707fc01050ed1211df4f61d17f5d10906e6efe3e5fb1507c9ff1a0432b4f4f308c4ee11eb210617cc1515dae1ee07ccfed2f1fcec1627fd0a01d618fbf9f71641f9f71dfb2ed315f602c717f801150ae0f10fe430eb280e110700f933fbdd140c4c141412ee17d525221af4ebd2f90dfa0b09010a0cf6d4ee,
eb10f0d5f4cbda2912be0ae23113f2f4170a2bedee1e001f01f2f8db0415fe0e072d13f604220ad4f20fe5f40f1915ee1e0cfad0e30603e71b10f0bc27f1f30eeb182905d8d9eee0d917001744e50edd061702e50513faf808210e0801f4f32010f80c08f30320f6094214dfe21efcfa15fafc10bfc62000cff820fc1eda390a,
fe120c351ce3f726ee1b0cdefa0612f1160a1b1c3dde062943fc240137c62426eed5ea1623eae4fadbff05eae3251d0b1035d7fc0be512141d30ecf7d9fb004a1108e9fb19edf51f1f1d28e9efee10fbd7231df60208e3f20f01f31a0cfefa06eb32ba14f7fe0a03e612f21f08f7e20cf8eef80103fb320407eefc1703f2f303,
ed00bbd3d5fc3fe3d11c081101d3f9c71dfd0d120b0a2de0d3fc1e090e030915ffd83ee20ee20c46fff609e929043df4c828f8efeeda0c27f0f0d9e61a0ef11cebf019230e3c080ee4df06ead61f291a03d92bfd0810eb2df5faf8ee0cf8f3fac5e7d7e0f9ece2f0ce0ddf0df8f5efb314f104d6e0feea130ff71fe6c0f3dfef,
ece80be4ff2d0d1f120a3141e1fdebf2f632ccf1d50703e317fbf41317de085016e829f6de1ff2fdf71303dafa213923e205033fece90df1dbdb17d6ed3e0b42d0f5e2f8de091fe3cb14540a20ce04f5f3d7f818162a1dc614edf3dbe71712dc013fded7ed31fd0adc17c20b1b0a1e2402f304e5ebfd05e12eb31c0afcf6eb28,
21eefe2fdef6f817b12bea14195a241eeae7e642f403240d12f701040bed1410f802efefe2d115f21eff0a3cd0030c0402fd03ef20060ee5e0f0074bd91221fd280e120822ecf90d14044dfd1e0fdee6dc06110811fff52c262015120e1ef41ef8bae4ce05d5f4fde3f9ee41d7f5d20cfb0001f403e7d4ea0c0304f11e0339ec,
00fbfbe7022707fd2f161ef2000eeb1a0612e4fd20c5ff2cf0d8e0f22cfffd0814fcd716e5eee119080f0c3cf8ff321207eb1008c826e2e7e51bfe15fa03fcfb1afbdf14e30712fafef0d308c1d82be900f104e614cffa39daea3434ff1911ff1aee0300fe19dde7f7fe27d0e3d113061f17ff2ee40df40bf6ff211d2bfe10e2,
df251cd507fefdea0bfaeb2320fd07e6ffeaf01a30ff15d90ff4061bd9c4eee8ca03090105083ae9f8d012f207f3040aebdff0e4e7e30216d7c0f6f5d11cf1f60601f9f80a040be80b4328023a32cc0811fe26e4ec22f5f3f54009f2f619caf3ba0cf6c6e61e5212ef00eb15b80e4613d222a8f7050d0fd2e00e1d13ddf9ba09,
f233e5cff6e61a03e0d72616f8dd16f8e522512d19e913e3fa0fde04d421f4061e020bea19d917f003e406b9f1e0fee2fd0028f920f904d8eff4c6f8f52723ff35f9e8d823e2f110df0d1a0d2d0af10bf6fe12e5dcb9ecdd05f4fb081209f0013e2a13020d1efe06d91f0e1ffb09eaed101321ff0dbd07efe8fb05fafaefe718,
1d15eb3f01f9f01c050d02110017a917f82105141a3ae802e8021806000c1e25e2f440c901f2fdeeaf24f90fc904f1ff0f111330f0f4e40b00e01d13dae8d81cdbfd132df9f91fde12f3ded2dd19d5ddf54a1bf42de6eb23e003683bf9fefb271700ce0d09de0ff7fa1df7e6f4070a03ee111c1d0afee804261dfaf409242e12,
f5e9dc011120c8f4111809f119e0e2e7fadad6f036d70c31fdf6def0c73004eacf11e503f5ae38f0faeb13c8eae8e4deed42e4fc09fef044ec03f30ef9101a0f121c070ab63ce233fd002a1b2512fc1508fb08441e07191dd21f0b0adc0af50418da0df4382020c6ea170f1ffd0be31dcb27effd021dc628161be60d03ef0d42,
fa08f2dff504041b2f0d19edf71fd4ecf610e90c3e0c18f41dfd350c09d915ece501e609d5fb0027e50a2628d8ff2c0c07e3e92c09f100eeebe4feeecbf20af9f4eded02d70be4e9ee1406d105edeb1123f928da1cfc0e0e0f2711103eeae116f8f2d6c60ee7f5ea0e01ef1af61804c82200fe21c406fd132046f9e4e2f6050d,
18dd0fc9f1f43806cb1dd9e8fcfc3705f4beef070a03eee0d1cb19f7ddee14e1eefff5fcfc2b25e601f4ea0a01bdfa0709e6e10ae1e3dfd6f801fc1716da08340c020404edf81405ea15c607eadf3dd00118f822d1df03110e14eef901f7e3021ff1030b44fce406beeaea0a2438e0e709201d1be110c6e7222adb21e8d7ffe0,
f6ec2a0ff324e9061e1ae1eb2422f70019180e0dfb29f2ba10b403fe0ae7c6f5d52bd326fcf6502df704f7da171dd9d0f2e9eb0c27d1fdf62af80c050e07fc01ec29d6fb06e511e316f10009f8ca1e3f04f206f80aeafcffff0f1bb323ef1600281a10ff1fd80df6f1001e08f70e05e627f4c60b0e04e7fe0617e3f1e5dd1d1a,
11fff1e1f40debf5e4cf01d1ed010d0823fc2d0a3000e90606d1171d093311f633f21ce6091e1df40ae60904defb3606ff07f9e8f20510341301ddda0401fcc4ffe4fb0a06cd27fd0e13baf6200bf30d2901faf2130c16d5ec0de30e0af21d16fccd0ce2f9baff32eef4eb21021dda01c9f9efd503f00b08fd06d5fd1411bf03,
14defdf3f7fbfe20d7f6e9f6f72d09bb02001127087927fd2afa17cdd606bcfe0806d7b5c0f3f70d04d922d1040ff112f12430db0ef50ae30b2cf9f3da05f7082405c42d0a1b11e8193a13c1fff7f2cc2cec07df1b3d1f13d1e7d2ed16042df6c613d9f0fe2af938beec07fa11152705f70ac9f734effd03ebf32af715fa26be,
f918051bf6db34eaffe714181a19faf62609e809dbdde223510908200326ea15eec400ed03d9e6edfe49021ded27270feace180d0d160eec021c062900fff3e5e6e60f0c38121ac9eefc0c16250804001a0d17e3cd3d22f6022309f43bee19e0d7f0f3ffdf05db10400be42121b0d905efe73ae1b9fefb03eed5ef21defaf500,
2501020d121e14fef5f20cc4fe13cff9eff144f0c90afbc9e4dd1c0b170f0515e7070efe16f70c24ee19e20122d00ad3f1cd160ffefef7f5fe1518f3ff1b26fcdd2718050b23fd0ec6060df8da0eaf1300ebca3afff71235071103d6eb07f5f519f237f401110ff3012eef253c30fd0916f7efd8110bffe8feebf1eddfd0e10a,
bbf30709f8e3d0f91d2cf311eceeec0d2028faf5c811e0030f39f63e183de6fcea08f6f2fff2ea221f2101fe07f105fe11e427f0ea0903ff0ed7f622034c09e20f2923e2f6f9f9c23aff14f100ea190627f021051cf3dc2ec5f1d825dc1af0fff60df0cefc27fabff70af8f3eb1335f9ee0f072b0820e322d0bedb2efbe42cf5,
15eb0fdaf8d409081a04f70622e206f8023dec05ecefe715effaf0ee2322de03ef07130d0ed4f4f902cb02f7ecf8f0e2cfcd3ef5f6f40e210943060318e71324391a2f1b180fd2c8fa162507f4e3f831d9be0f0b26f3e0c6f40e13edf12100f10504fd0b27db2305f40ff806e6e8f63f1309eee7d5fa29dbc201d918fbf7cb19,
2114fef5f0e3082ffb3b1508fcd3e40118fd0020f2141df5ec15fff0fafaeb22d0feeb01240df611e607f9e537ede1d4be1d3221fdfaff1aea003025f40c3303ffbef32be1fc0fe3eed81d1ce5211152ef30bb0fdc440ef9f12719f0f3b533ea251710042e010018173fe80ee218f51bebf0ff2f1aec230813140de4edfafd19,
1913f3f4ee01f113e7d31bb819fefb0e10f9f0f52a12082030e315cb1ee8fb14ffe0eee9d9fb0ed422f44ceb1014f5ddf009fa14ffeb0a0a2bd21b25f9f5fce5eefef3f625200f0d1504e5f71a0eedcd0a0d03f64f0818ca21ddf5060f01f1d60a1de2db12201e1b1116f0291d190d09f8e11efcf505f0031ae50430011f130e,
d9ec02113417b41720c5daf31b080c0cfad30217140e04f31e07d82327d1f3ff02ef09d9d916e013d70002eecbd3f9fd1600f4332501e90b111cf70520d60e020c2429ff1d0a03fe2904dfe62323fbdde039e6e526f9061e0ab9f115efe5ebf228e1faf722e7fbd32b03010c072212f3d608010a02c9050a270bf4080af118e0,
0410efdcffeff3e320e4e70ec1f22ae0f6f806fdef27f5080efbe01df4eec9e4021b12e61ac5ea05ebf3281cf60208f3fbf3dd0f28190921f10ccffc390d08e2351b17e4f8ce0bf90ce71e1809defefc04ec0608271cf6160f060801e714f1ea27f8e5eaf60a3021eaf9ed390ad3f5f836dfcd07f22615271513e7e5fc0d3413,
211f21e814282d03010cfef726fe000e082c1cd619010c1cee12e9181b1bdf060536e2131a50edea0af805e216ed20e9ee1401ffae2f1d3816f811f7fbdc15170424ff12181d17d0f63114121cec18e3f7ff0bfadcf101ffdbe813e7def1d7f1c9f7021607fa081900030020030c07e306120806f90ff522e91dfb07c5f21e03,
08f92cea2df7ec15df213b361ef7dedc04f62023dae7f305f81810f0c7e247ed03e51115f2060729ef35f5fd0c28b8f6f0fbe92cfefeec0cd0e8c8c932c503ebe6191610e7ec0fe4f91add1936f80700d607ef06ff1904320c27fef406e7cce100d5f8e719fff301e505e0e71efbef00e9fdfc0822e6211d21d807f4ea0301fe,
daf6e2c628061934210b1a1f1907e1f80ffd0ce3f21203f903e7fa22fb061106e11821ef21210ff2e200cdf61ae7d9f52beae5effed44514d8f70318d40114feddf7001bfbf0e2f8e8df48f3df03e000e9ecf808f5da0220f819f6121006ea0300da06eb0acb25e231d9130e02e7eb2616fe00f9fbd7f909fcfe1edfba25defa,
d00dffe4c81e0efde11cf914dee63bd71be8fefefaedfd232225e4ff1aeb17f40b3bf1171b2d0124eb1ee422ef17102414f7f2e4e2fe10f301f006fb03ec0be2f7cde8dbfdc603df10e520f7e9d2fc020b1921f2de00b5f6dfff1af428dd10f9ea2715c9dcfd01edeb15282f0721171020030a06f8e9dcf001fa18fbe005f20a,
ede823f2040f26eb042ce5f60e18181f26f3f9eafe1bf300b1e3161118001c0118da0933e1fc01df000f16c9030f0608e60bc9e2ff16ea03f9ff0009efef1cd80124c8f20f020a1fe617e0043a0a0cffd8fb0be2e3dae8e2f3140ae0f6df11f40ff618fde7cc38f5d6451d16e6fef4f327300e051d0201e21548f5f7f1fdef00,
ee20fd1e070b181ae33211051015082003eeeb26def209da07f903162304e30528df0e0521e3fc0a1de5c60febf6e9cbe4d12b2b01fed5071ef7011d1300ca0413182002f8eb14e9ffd5cae1b357e1eae30a2d011618c10304f0ecd016e8fbfc2fd20b04e2f9d441ebedd3f531100ccbd90b27fee9f6311515ec4bf2f3edf000,
ff23cb08f607f71a0ffce8dbf2fbfc05f3f4e9321cd6f918150401152618ce18e6301a2e3d1209f2e3d90100eed93910f2f4efdfdf2efcebd41032f707042001211bed000cdf2421fbf803edf9f011cf0dc510f3c0122ee71b0ccdd921ef1718ea2005f2f816fa00f5ec03f812f913ecd515df291c24fcebe60711ec000d1be4,
2a04e9e0e70614230dd3fb21d6123ef2e13df103feebc0cbcd09e3190bfe2a03faf8e1dbefe511dd2613f3d211f7ec111f03fdf5101b18ef35f0d5fc1237d40ae4f1001e340420eeffeff3f216c72103d7dffe15e0ddc5d9fbf508ffd802c0fb27f110ffd30800ecc714d611e907e51d0c19e8080ce0c6effb1000fa03d1dffb,
16f80b14fa22f911de1621d722f82000e0f12117cdfaf4d4fcf625f80228fa06f339220a08c12afc07141ff72b1010fd02fb1542d6141ceee1032adb1f0ddd1acf15110cee10f6fde0fbdf111d08fdde03e61106e11b072dd9e63bf818bc180738fe2a29e817e5f4f806cfe2e7ecd9f51af2f52526d7dbea1530ea2f0118fef4,
0203f40dfefaf2020028030bf8f6f41adbf420fce5000ef2ccfeeef4e11ed9e92a3221dcf9fe21ede230f00c3ffa0e2ef1071a0d1700cf050a08e41bc5c2f6310bf9000a23e5112de7f9e5e3e81f27f7f7181a192d2605fe24e943f92510012d21b609120903f7ec1aedfc2a13ffd412c5190bbb0b070def02e10ae8d2f4f738,
da16fee905e721e8301b2ef7fe0fe3f9e90b03c01518e901ecee0a1eedcefcdfe21bf80819fb10051629080a080ffa03f6db01f308f6e306ec00e5e31afff5eaf33f07f003db04173531100ddcdd0bf439ef08fc36310609f41e130b1ce5ed0d1aee0ed12aff112fe602df151ad1e30efb29fc060f160cf10305e7dbf611ea1e,
13e5ed22f8dd3253f7e1e60f3be80b0801121a33190007e7e8e8f901e3060a0fefe30f28322909e80635f9f51839e9edfc06160ccd2b130218f9f4df1bf924f4ef07fee310091afc0ff5d1d2fcd616f0f7034418f7fb0cea00f309c601eb0bdfe7fd16edfb32d8e9270823070cfb0fff0335163d0b1cebfa0e2401cc040b01e8,
0dfd0fe51d0f240f0bf0061100ddbde9df01ff1dfb24e7da1009d6e3f807de09efef0eff1c3703eced0e1e0bd516e40cdd1808f1daf8071e11e926091e0303290102ede41106fe1bece51513ebdadee6ed110feecccc2ce72f0b051a020a110efbf8e5fe12040b15fceee008e9f6e304e8e427e2f9d4dda4d81afa05e50bf91b,
100b2f03f312eaf70f1d24eed71516f7dbf700eeed0e38eb06051d260c1d3af6f1e0d7e3affff9f4fae1fbeb2334f500e6efdefa1f11d404fe2b1911f9eaebe013f019d0fd04f5f51619f8d1ca0be6fb1408d217110f04f305e4f6dafbf1fe020ffbfce5f610010a33ef18fc1a11faedf0261b0c1ce608cff5c71c3604e9011d,
1f1d2bf8ede6ee0b0af71c23f3d5f7ebf50e310d0b0accefe03005fe06d9f51aee2af6f110c9f407f7d7eefe160cec22371d33ebedf2f307140bf41dfb1123dae6f2f7fdffdd25f3eefd03cee61d003c00e606e8d9f72b020b0e09ff4cecdbc2fee82443fe001b200516e221e5f8281c0bfa1a1a23bc0be5052e27e81404d0f1,
1aece3f1f419f91fe3db0f1f160119f814dfe406e807e52bf8f108f708e73f03f3271e05e7f7fc281f33e2c5fa0f08d7062bfae2f8fdf132080fbeb7fbf6d8ffe508fef1f0ce12f4d85a0b0c0ffe5ad8dce7122a090200fe0bf3010cfaeffa1ce4f1e3faf2f72404111c290207fafadef71b18eef3eb0dfa01f1dcf1311f0910,
e1ff34e611fce2160fd80feae9ece711f9eae3e2e3de1de836e6f9e5eec5d51de40e120f1eec00f6d90c07150cf010010a1e3613e5f72526e412eef6ecf726f7fffee00d16db060920ff09fe041034d3182df1e725fbe6bc2728f4df28301bfa012724d0113e101ee3e209092bec14132ef726d8e41504041e0af5ad0a22daff,
54f7f4defaed070f003e0e0bfeffd1f4130b0537fd0c27042bf6e3180019f8f6001602ba26e7e113f7d0f2e0281ee3200815e5f4f405b7e723e7f61adbeb17d6e4eb160d17e9c10ccc0518090ef9c7c2f624e6ecda120a041dc7f3f3edf5fa0523f02f221a57fbbbe3fcf4e504d40cd200e7e4ea2f1f01e60c00f510c317f3fe,
09b4060d3210ecd90a15f1edf91020f51209daf40a131b1cc1d21e14090ddcfdc3ddf1f4e803f4f3f009f4e92105df14381300fa043011d907f1f0d91a0113ed1ffb15eaeeea12d502cc2903fafe0bbdc9fe04faee062907011b0e14e913e75b06e10df60f00423113fc26140109e0d613ed08012c0dfd19dc2206da0d000cda,
f012104819f7dfff0b17f4eaf6f7ee23e20e0a09eceb48d8121bef12d50c1d000ee718144c0ef725fb25eed21c10faef06f3db12f6e5fed7dc051d151a03ed1903ede21c260ffbeffa09fc14cd3dffe1f70320e4de1d3312fbfd05e6efdc0cfc073ddf141622f024ea1f2112e50e35d9bd21da00f5b213f5c108fd0d3af0e930,
4d0d0825ff0af1e32afbed2af741f0d7f5482707c71ff90e0e2323b9f4f916f50709fe1112042ffcd91b2bd8e800272e2eebdd02f40f192c012bf4b517d704c4eacaed1a1ff60e1bf0eeebe620d21cdc1af6133b0122e900f1e84a05cb18c8db33f028011016f5f9f9eaf6d4ef05f301f1d30bffee0efaf9eff92a271fccf818,
2f3019f90be9e312f2ec1705e115fd0bf31203ec2021fd0019f502e6010414e9f1d71312efe627fd2b1903193cee021ef719140d2f1bd1f4e3f505fcf4f02a051af3f0e8192224f4c7c2f300b9fb1d08e21c07ee14e041f6fe2e1affc0fb27ff2bc2ac400106160a082dc7fce1f5fe062ef9f003f9f2d9f6f7d0f5e1e0e80b21,
11f435e1f90aee1c1ef006fddff6dc12250f063019f6f80d19ff0b382733f311f3f30febfa00e3301211061acfd7b4f4041e1bf4fae83f17efd6c844ecf8f70b0a27372efc0e462e031f2ae510f41506e0090d081303e13305ff1e2c17ec2b0bf4fced1f1ff01f01151eeb132ee635300eeffc0bffe0ded021f014f0d71afbf6,
07fd05e81319ec03ea29070e14bc183dd9efeefbf3dffa24e1e310d1e310ebf8f513020e0ae80c0e25edeff8202006c0f905faf1fa26e1d1011604f3e3f8b811efeffa34102106fd0905e802f50bf0f0ea12e430051adf0c19001205fa100ff5cc0911d9fa08ec28ecdbead000080f040a030a311eecebf212211300dcf1d804,
e2fcfff9d52c14e8f309f10be2cf0efd11f933d90526030f26ef0d0dfa07e40704ddfae90c01e0e8fb07ff2ae2eaff1d2a07faec1519dc0f01e82111320a0f14e9ec1b1619040c0c30e2f23af3113d331d14040530afe6d1f3faf500fb00e3ea1eeeeaf91928ef072adef206defad7f4e207d6fa1ae621e8040dcd1c2d1505cd,
31fcd725ddf41dce21f2e8180949e7e7dbddf90815dd130409203504d9f6dd0516061b130314f81708f6101136fc38e1f309140bcbf2dcebf21308ee13d2f6dd171f1cb9fa1cfd1004ee152125e22330fb0f2f0103c90cf726f6d516edff251e21101afc1af0e9cedaf6e206e213e71b0ee5e7de0000d6e3eefd22c52421c314,
cf14e7f6facb13031d65091106ff00f7e8de0be41beef10c0b2afff0f20021f5250937f2fffb4127ff13e6181d13d11feb15fdbcd606fbf5dfef21efec3f1027f1f0effffd02fc10fa2d1112dff401fffe2c2122dd1ae31b0ee8e4eae30bf5f81cd83ee200e0f3dd2617e4ed233a1811e10a0bf3f2fa1d1ccff7ffd2f7e730f3,
f3f51329040207f40622d9f21518101516f503d204da23cd0dfb240e340eeb111bfe09ef1a04eb1ee10319f40b18e6de08fd41f24433f800ee1017ff0b01f2e6e5162c0dd8f1f600e21f140d11ebf4f41df11f1817ff19dd47e706fdf9f1160500f300e022d1f7fd30ea0f06eaff0b03dffcbe1422eafaf3edfd0bc828e3001c,
fb30fd033417fc0af3dc08fa00f30d07130c28f721d9fa140d2ffb0210000f40e2c0d80a0318f71a27fd09d55005f6012904d124ede4d11808db08ede1fbf3d3d82e1411f4f400223d0e160fdf0805ecdaffdedc10ded7b6c01d26ca022b25e5ce06eb0d054017f3093aefe602fc1dec27ce09f3e8d71c52fcf50ce327e7c407,
44fd17080d2e21281020cffe151ef10f29fa151addf0ae0e1316fb0101ecc6d33dc30d0ae60906e6061feec53aba25eb31d704f806ecef0e3a29eff3bcfbe617dc0e02f3170b0921f814ed230d01ebddfae00bffc708ecf103e8ec2ce132041d31ed00fbdbf1e20cc226ff1223e4f303f1e5dbda02fdde0d0504200334f3fa14,
fde82204f5121afefbfcfef2001ada3340df2dc81009e1f512da0902153b06050d0bd8f7062ad5e21919170716ed2d0522ef1adfe8e411191642e9232b0152e31eedf402e8fb180ffdf6f008d7e9e5de080e22151619c41c0531f8fdf9dcf8fee00a212b2c21dc41f012e226fa0afb16f2de23f4dd021f1f03e3f4e7191916e1,
2509281ef21dd5f801fff0f41714fde4f00c051202fcf61048e513fe1dea0ae92b2000ecca15ff2de5e1e0fae9fd1dcbeddd0802dff90efcee1613f412ff05221ef0e406ff071417f50f060342ec2ae0f9df11020ae9e0cf08f0070412f7bdf2f70c340602064e26fcfed732f6f641fa48150505d308151610fceeded5fd4720,
0b35fc05ea090cf6f932e4fa01fa09eee7050f0f140703fd1c220e021add071ff6080212eedceb0f22f70bbc18d60232250725021aeae7cde3fdfc0de6022de0f5e8f7c5e6091f05dcfdf706ed13d3df08faf6d6be082c1f0e0b3e040d0b05e70101381809d9ebcce51be4f7df22e50b1bdb011e082c3621122b24fbf70307ff,
f84119e910f4e1e6fd0b010300f9fae94213e406fa123410efdf04231ff2f818df1cf3dcf61f21f1f01e0bd8211bddf91b10f326e734f023f2f908041c061fee32f6e8c4ff20f0ffe51e39f2e408f316160dff012b10ebbfdbe4f702ee16122b47fed00bcaecffe4c4eae8d8da2a022302fa210cf9181a0ffa1bf70d0fe10ddc,
d70eea33df15f6f517eb16e62becf7d40a1c12c313d2f7f10325ece821d401140ff5bc000af4d6fb2fdef4efd317fae311f6e8ed0c26faeaf00af2ccff04f21fd40b3af233f7f9eff5dd1e1a0909d202041112221ff014db0afeeee13ef9fffc0e49082d041fe50f3b29e7f608e6df0df8fdd636cc170e0a0cde2627caf611f0,
f6fd0d07ba032c151e24020ef5fdfdf2281ef61f281714e607ceb728f12ff8f81402fefaf713e8222d21f5ee1a1ac112e3161a0bf116171022fb0c1fe8f2f0f0080edfe614de19f0edf7190e0ef70311d229eb08181fe23022fe2216fdd107d7e22bed2decff0117001212ed072ed41c27c8d901faf1071222fbf9f0ca08f71a,
e405e7fe0b17e5fab1f4e3fbfed3f6f71bdce2fe160213dc04f0de16120418dcf5e8f5101e0d29db3024e7fe16152109e5f9000814eb301c1703ffed08ffecf71fe7e9061f2a12f95206ecfd0d1309dcefedeffe07f507cff51a1210f023ead8edfa2112fbe0e5ec0cd8dff1ecfbc8f51bf0db130d17f6f905023f22c2cb1a1b,
da180c031c01fe0e3beff631de3a12f0c8f504d10af829d2c0d1f71bf8dffae1d916f73bd9fdd719f7390f031d06ede7f7441700fdfdeb03180606dc12161103db16c3462001ed390a291416e4ec233214d2f7040aefe4d3d0f103fa012b15ede4282cba03fabf31c41938f155d3f5ce37d2f4f40504033ff5d5fd3004e91a3b,
2dd80b0807d90eadfde3e9fc160b0be1181f193f0dfdf5f5110e07f6e42cf6251fe038ed0ce51e091b2013dbf6c7ff080d09e606d30dfef1fa3ee603d908e5f9ec0cd635281ef6f4cd0d2201de0a0e0fe502fbf40cf53119081509d21313380500eafbf100d3ef260eed09ec0e28280702fefcfb0cef343e10ffdaf5e91bf6ff,
cffd07291218bfe4db0d3209131216000719e2f42017140716f6f71df7f8e30bd0f9511404290617251009d509fa0c37f82d13202bbbe70d16210ff60d06e7153ddf03f22ef303dcea29ba02df031cf5e8f5020a0718f60af7f2cdadf1f7b426120dcdece516fc1e140d090fb3f2d0ecfa01000142fd2fffe6f9eee6e2e6e6e7,
fbfafde5dbf6fff80bee080dd904def4fd202a00090615c0fa08cd05f61510100fdf19ecff3bf7ed00e4271427260b48e3f8e90b18f23503f9fb0bfdd8e3e506fd02cf14f4e808160f070107fde3dccbeaf8da1cfbbe0c2f0404ebe917e30724f9faf1eee6fbedd6ee4b29faeb0f0eede7e2fa18bfe9f9e33206161016f6f6b8,
160a19cc02e31cfdd81119ebfee1c9f6eeed1bff18d00413f101fbde230cd903262bfa07ee020d12f805dcc8e50df20d250fcde0f235ec0101eb2b2a19efe2f417f7f1f10fe5f9171f0d08010de525edfb0d10eef32fcbebfa191100cd08dae51bd619f4e31e12fded01c0faf7e50f200ae3faede3321ff8f8f91906e8e306db,
0c02f700dcf6e1f8de0bef050ed30006f3251ee9fb09e0b8ed0e2f11ec1af204f0f61402fb0300e808ede2e012f624fdefd90ef1fc21dff9d60befae1422f7e0072e0e223c0c32f5f62021ecf13d08021cd6e6d0bffe1b08190813fae708e9f1efe7f0f12321241bedfb27fec61a00170d07d6ee130f20edf3f9222d1fe81d0d,
f5c210ca2c14eff4ffdcfef5d60414da063bce41f507081b170deae71b003cf621dffde9c7fcf61206d8faf20426eae3270e1528ceecc7f6222efd2ce8e3e30c07efe5fcfff316e907b8eb18f225fbea220f210fe8e50c08ef0a1a272c1dd5bc0fd7cedf281e00c70207cb0c38d8fefdf81129f10d3510170507282310360809,
150924130d0be6ff08dd0e01e40de02202140d06ebc31905171034ed121e041e031337ef1e0004fada0e08eeea08650bf926c924e131f3f2d9fa15d5dc15dfebfeef131defe9fcdcf1fe07dcd805000b19f2f0ea0719e80ef8f7fa00d7e80a190926e60808f40c0408ec29390afb02e7e712fdf62a22ebf8eafa0f09e904defd,
ed0726ef0b00e9043deeef0ce625d7c3e5b9142c060215f1dce53118ebfffa09ffee00feb802ed01f9fd320a1000ecfbf00a031c02f1e002f4ea2ae612ed1b0ae40af7d800f3c2eaddce26021c0ed928e8ece1fffd1921fce4fbf4eb12fde1fee7112321f14129d9df2feefbc010030303130f0e21ee2e291c0922d30819f5fa,
2d20d5022402e81102fb0309ffdce0f1f60fdfe50eeafe0217230cf3dccb06ca0af504b9e8cd2111f000fcd9172e3ffc08ff191004271e06e105dae7eb001701080905eaf51af8f5ef0bf219f0e8dc1dfe2c152f07f2ea07ff1eec0c19290afce401e0ece9ecf30af005eefc0b07f8d116f3f5fdfbc63eedfb034319c30dcfef,
e1272ef9db03ef11faeb0c4cfc02e7f61931ef04071e0ec7f305febed7fd2c200d0fdd3af408323df5c9d8fbfccef62e0e2c0d03f0b51bea1af71900f208e9eaee0c04efd2ebe42222fa04e5e1d42a0d090d2c091418b81602e3b2c7eee4fef61deee50cda23f5f8d7f925e6fef2fa0a021bd00d0a042406440041fbeafafe0d,
05041109eecde608e211061305dafe0432ed1818f405051f2511c91a010aeb1bf831da1108f7edf3050322f5eedd24331dd9f118d0221d062416021cd91ae414caf5eeef11f9fa09fbe7000f02f8f6edec15f01b0e2a1318371906d10b0c0218310af81d1105bd262707fae90603f5f80ee917dcddeb1ed1f5fdfafcdefffe2c,
1ad101f131f105202507c1dc3d0513130407e211fbf813f04ae5472de0fffd0aeb340907d3d0da0d0b15f7defd310febcde3deff16ffe2102be6f4f40f3003140500fce61ce0e1f234dff3f63a0aede8e9daf6eb264efae5efc3f3fe9ff9ec00170130d70d2b060506ec3322e7fcf9fbebd63cd1da36f1d1d1dc0718f1c8f5f4,
29d8d1eef7eff5f4fcdb10ec1132f11df60f43faf4f300054014acde2cf63e11f4eb050715d60e06ef22d80f1af0e3e2d6d62527dc27cc03cfc1060804ecee13d4f0e6120f040f262bf100e60829c4fefb13cbdfe4e224ddf80e3d19e72907f3161904f0f3a41be30eedf7eb1a0af5e310fdfe1e21f42afbc4e225d7fbf91903,
11fcbb02f8f402e225c9fc00ff0135ed0cfcff110202120a1a2ff6f7f73d0a11e7f329e81d1e1717c8182ee427d2fae7e5e9f9f4f31418f2f13e281ff307ec00e8082f17f9e7d6f2fe19f6182af813c921f415dd2e191f1719fbed1707f928fa07faf2e70400ddfdf6f504360336060dfb0742ef4de6eaf6e90a3af00cef10fa,
0d43e611eb08f11218f4eb0714f230e81f12dcef0ae6e60619edd71f0a1505e21df8fc08e6cbc3e30d20faec0508f00ff52ef4101c083aff38eb1204fde415260ee5fd00fef3ecfbfaf3cf27feebcf07fd02df0ff71dfd0ce31216f7d81d1af8e80cc9c2ecfdd5f9d918f1e8071100e8f0f5fdefeff9cb16fafa2e281b22eb09,
c6f4e51ee2e1ebdafe0324fbfae12de636e8f63a06142bfcf446ed2bebf704e818cdf515edf5ed12caf013e80413e010ee01d3d238ecdc1b0701f7d9fee4e3ef18f520eb191ae0fafcf2131404cdedefed18101522f238daeafffee02fcbe60716e401fac6fc1bfb051c25f93603002f0c0d0aea0bf0c9f4f1e4fa0d170df726,
17f3d323f005eabde92bcafc051614230af3eef20405c4f3dd3d0e230bdcfb131af20bca15c3e9030c0ba0df18ff130e0a11ec07ff1ef6113f031ae7f20304fdc8e50f1832182af0ffd5f0f9d0e6ea15ffd4dd26f4c4eefbfaf419162c0bef2f0bd7eb01e8fe043d092923dd2511160a1f1afbd1f020c8e8eb0d3c02ef0e2930,
fef311e432c2fdeee11ed90724ef0e041b430beb9a12d80e4105fb27e2eff0f5310a22fcfcf1ec300fd7ff170ad4e224fddefd0b140b0beff408eae3d4d8f6ead83ef00bc5ebf706f127040800feea1308b5c604e8e8d81dd1181408c8f60207e3030fcff2dc0323fd0703ed0cf5e20d2df4e10fd8e1fbf611f21e06fc03f021,
07e6f4150b1dd4e2fde2f7eaf6e22f00eee7fbf40b13f8e1e7fd3318ef020c0f11bd2222ecfaffe3300000f020ebe104f21116f9eabffd0af424df0a1a030108f2262117f6de05efe00c080ee92bcbffd7201816e8e90c20dfe811ed4fdbffee25e6edfffc0eee331af9210ae32605123b16fb01dbe5fff8fb020c001341ffd9,
dbc90dcc0d23fcff111513d715f61ad1ee14edd5f0192edfdffdeeee22f3fbfb050812e1e324e00dfb0b250ae3e8f11902e4f4051af113f1eca51e12e30c5519e908220bc1dafa1402d8210bfc0d0234d9f612d3eff8ecde000e00f80bfff505e614ff0e1fd639f31a081dcf3627fd48f7ee12d50253cbf201f128eceb11f003,
0efdc8f101e51c1b0515e708f6e6f3fdd9c807fa082c2adfe5e6f6f614cc0606cbfee1c7eee8b8ce1af405020cedf3f425eaffe6da0dfff924f0c71615ff111113f3e6e90d252cf3e7dc01f1ac26d7eceb122e1fefd806ecede3cd31e0230f0de2d70603f118d8093bd601d6ebcf2dfc2025141d39eee10f030114eaea00021b,
fce7001fe9f4d8130407d7e1ea2a17f512e11fc229090f29062123de0616e542dff90735030839e4fe1efde7dc27270d0302ffef0106e8f908e5e2e302e01804cdfcd53040e405f72115e2ecfd040be80fd8d20de3fcfec20bcde4232cd3ec0321ef0b1419ef0be92aedf1fed835dc01fbeec102f6ff400723f9f50e06e5e3ca,
e5f7f8fa23d637e8d3ef063335f8db050beeeadb0307210bc710f3f31f1cda04c53cee2d3819c338f9de21e217fb150c160defe3fc1107f7e401fae921fbed04f0ef26f016ceee0aefe5eb1a4f2a06eefa35160c08fdf5e8eb35cae0d3fd053c02021e111305cfed04d8d9c63524cfdae7e807c83eeaf70501d02518fe0fe8de,
fbfbf20816e30a021f101707bcf2ec0a07ffb9fcffffd818e3fe0df4260d0bdb1921ebfa0a0dfeeafc152cb7f014060712fd19ef040018ffe62acef711ecf0fed30fc6072523112e2a0e5610122eef27420fc50d180bece80d39ea04f60e12f6eee50de62c0e310edf05eef9b1d301fd51e3bfeae907fd12010e00d1f00a0125,
11f3051a0318f301f4dbe9cb0d0618eb06edf52717f100f8f9eadc121601d1111edd36fc0a02e4ff15f0e12108fecf1cdad8c24f1532f50b0711ede5010ed2ebf92511200f1de6da0c0c1ae5ee4415fdf90de9f1132917f9231d0db42cf2072af40add201de4f8fce900f5090a660ae61317fb1402f607d22c2741111ce921f4,
1e11f51309eefd08140addf14ce8f7fb0405ffef0ddf2a2226fee11afd34fb0a3303fde55bfbeae21ae02afae9fe0ce30afc11fed8121eeee3e8fdf019cd2a17e8e7fdf209f9d925faef15051210e4e3e713f9f511c0d8e506240df519d2f01527ef10df420afa11191b06d51d2eee0f15f1f3ec17f2e001eae5300808c8051e,
16f917161907ebf5efff050e33e702dfe718d907fffbe5110bccfc1d1c253727f30817fe0f11edf426e2fece03f0def7340b01ede806fc15fbf1f0e8d9f40628f3da00ff10f80418d82ef5011df10a1e28f9dcef1ced2ee818f1fef22105292627fbff05ede1de1705f53230d01a23e61cdf182e05fb11edff05070310e8f6df,
b90bd1390f1d02f40ed443eabbd20a081ef2091d1905eb1ad4d3d32af805f7f9f412f8070b28c429c90eee08030ee222cc24f3efc4f12418ec001a25f00d0cfdeff3fad62be5de382de600e812d71e10f3f310eafdf52a2c1e47e2e034e51031e7dbe9f32fe9fcf1c80c00c93effebd6f8000c27e3d539fc170cd91ff92ad8fd,
e81f0b02dee7eed20ef6ea00e90eea1aed1bda15fc3ce729e111fae302ec06b127eef1e515fa1f01ee32fb04031c1332cf09f22efb061407ce052025deecc3ed0332eeed1ad5d3fdc602e9cd1410ecf4e7fc03f3d323050903cfe7f2eafc10ea1bf504cbf41515f8350a08ebb9002fe512f31321ed030afeffe856defff8fd02,
f7d41c1a12081e25e4f3dd04f8b50bd7feee350e001f0d18ff3df9e3d70f070ffe25e71fe5a7f6c14c01e90ed1cb2dfaefd30306e4fce701ff1524042efafcefdcfcd43a1e01eb321cdcf604eafdf310e50f06fcf01c1c23de0f19e1061b0af1f8092ed9f412e2d8121b11e1f0000cd80906f311d2d01b2cc51b0707f712f011,
37f8f42919b2e6e70dd50606cecc011e3113e339faf5d2d1de1b2740dc16f2fc1b040e04d812e0f5f51b162a181f13060de113fc0709230e321c0d2cf31bf50f03ff1705f9c007134f00f4040bec35e7f704fae31d00edf3d02e21e2e6120606cdf51c11f4fe10ebec0716e9d626c2eddd06d3f70b134cfbf8f4252e24c5ebc3,
0cedd6352a10f3f136fd0a2216e3c9fdc2fa02eb04ed080cc903dd03d612e2ecebfe0ae5f3f01911ece10507fd1921d71b4224da16fd09251a03c304e4c0f72aef2b0e02e9fef65e1df8f309f8f8e32728f837ee11ce051809eb02543200f1e9d4173d1c0ccd3408e7c1ffd90608eed6dbfdf428170f1f1a092719e6dafe0ecb,
e3f7da0617ebf7332418e6e90101cbbf1effe5ebf70d0e2c05f6eb0815140b263d2c1d090be2fc024b00e5fcb62428f8f5f70e2e13f40a0303f1fdf82bfdfbf7f1161900f91dccd4141cf5fdfb04d8f317f8ef0701e9bcd9fcf5fff9fa190f3748223c0e29ff28fcf101ee15c104f7e9f9fa3d02e40900deffedf9eb141715f4,
fa0d0eec181df6e407441107eb0f40ebc3e4061304dbe227ed1fe3f2100707e40efde6ee1df313e5f8f628cceeff0b20fbe5fbfd08072bd7e508c7d536f9d122e9edb5e701dfedc2f40f12dc1306f2e01ff0090c0410d8cffbee0b27f8e61d0528c4eb020301dddff4043a01f805cdf1b3cf16c4e709130e0a1832030acc1238,
c0060e19cbfffb0004df2016c7e5dec9f944e625f834080604ed04ebf82e0a2a220cfa23f8e3f2e529f8fb0d02050d0d01110613f4080729f7e6dc18d9ceeae4c3fd1ed704dff0fc26d7c3fce6dffce7eee6e9020a1fd30a23e004ff2603f80cff27f0091f010fe6def7f824f20b18c4c505180316b0032ce5ff0be003fe07fe,
1afe21fe331cfef5da261702fd18071bfef40f0b23d32424f5db03a601c1ee2a24cbe61228ee17cffde7e70ce4f13af2f3cbe815fdcdd7ffd60a25d4f02d2fdeec0e1c02fb102629d22afc2905f8e711fa1c0202d80c09e61bcb0c14192df600201a250ed827ac1742071726f908d8f2e50304f4f0060ac605020811cbf726e1,
1c0a04021ef41bfd4100f9322a07f9e2f9f2e8c720e90bebf50b3e0115dc07140ccb05ecdc140c0ed607e5e2f50efa15060bf2f0d9f21428faece0e10642e1e331f6c327cab8210e0c03152c1ad316eb25df0fc416060727ce02fe0d0c05040ff43f061921fd1ecf31fae91d1300fee6fef11dddf0113dd02cf4d9befbe1d3fd,
0424e5ff1f23e2021b3225f80801e9f6111a1b13e9df2efdf925f4ea25fbeadbf925ecf4ec12f538f323f7b31405fbf2f30cef14f6f3fbf00400e1ffedf3e816effa0ce1fcf6d8300312cbf6f722f6fb00f928e110e0de00e714122b0f1ff6112b27e9043609ede003ec06e8e713f7f9def6200e0401f5f0160408db19d82101,
e505dfdaf20b11e8f2fd002104dddaf9cbed04dd1fe71c0908f3dbee1ae0f019d9ccff1722f424f1240fef29e804f110131a1914c9e9b8e9d8faf7d9ecfac73400d2fb2fe8fed6ea0f1040e9d0cd14f51415ed3e23fa0ef8130819e9e219e70c01f8e3ef1de7041bfc31faded8e8160fda39cede0417fb3b1b26282437f0fa11,
183bff312607fad431f10d100f062cc4fafcf8cdb817170323f502152c0fdc0dd81b021519fef8ec1b03fce1141205072de73b3d0001f5f7e82801e50ffd15200112d60febe8ce2f16d2f5dfe1c92cf624e400db18f7e0440124fbff2524eef216521b1d001be90e0fd8fc341ff613f3e6f310fb1b18f008260e16e8e8e02010,
e0320ff100ee1cf8e3d40dd6f122030ddf0fdd09edf8e1fef434014a3ad20e171bf104d2faf20deef21dc51ac6aff6dcf3e3f80a0b03fcfdf022f91b0f18f420f8d3fcec132114adf5fa0cf204e908e7050600ec16dcd2f9171e0a080e10e7f9110008ff3be8fe2215dbf9f71b1debd30af32c0121090ee7dcbf29133a11db0c,
0dfce4d5f5fa48eef806e6d912c40ac52b081e1507e6ddf92213b9fceb001afff8f21131f92300e6edfaedb2fb09e40721180cf3d5fb250312f91114200515a11bfa11b30bf0e40a09cfed12dbff1d191e0adf070f1210f035fdedc6f4fa0401d1d2061cfe1f14d7ffed02d8ee2505bcf8e80ef0f1f01af22508d40fffe414d0,
0c00e8d6ebdc1a07ee0d1bd9fcfd49103dd82ded0f16f937f9304a11212f17051c16fa2ffdeedada25f1ff13e7060dfa071cf736e3d8f92ae2ecdcd6fa190ff6f2ffe10b082df708f5e4f4d712fafd1bfa10f21de2daf6e21104340121c6fb1c19d320d3010f1ff3e91aec0807dcfbee00f8e8d20aedcedd17defdd610e217e0,
04fde5f9f4e00223cc21f21c0220f1f2f9e5ad2e20dde3f6de3bf5d60a3018d81001f71f1a1fde0c25fdf7000e020616f1e2ce2a22f3eb08e0e4181ff609272715f228070b211d1ff6240c0ee6eedf1feee40c0c0e0508e7dfdc0814f0c40d032ff2040f01dee50b240cf908020809fcedf725fc0af9fd003d17d719161325e2,
cc11e307d914dbcbd8e1fd07f118fa00fb2af9eef103ebeef9e6d0e8f41012f011cde0c728e6ed28f2f60d19d61c33f3de1a09f70a284a0c111df1f204190606e4e61725e40009340c06000b12e9e0fefb2c16e2e40cd9e81b0af5f30603ef07fcd8f533f605141d1cf0fdeae10b3b30004d31f9e9011a18e3dd2208f5de0c08,
19cff2f334042ffa491cc0140ef113e8f418032a09c5f1011f9427c4ddf52532f146d81103fcf71a071ff32fff33f50ce238f10a150c001515fe01e6252d04ddeefcf202a912071deec71ff6ff1c16f421fc12d5f4c6e8e609f5ff0111dd4c1e110f0a09ecfdde0ce61aee34f1e1ec0a0e00e9f5ef2804f4f3eedc0909ff18df,
ea0bea1c00e4dffd22eeef382d0dee1707cee5fa1cd31ff6fb1fef04fd0f30e8cd360b0910dfe33506cd0b4123ef01d0e518bcf1f013ff05fe2deafce012231be62023f9e5f913d108d1e2df02f319ecccf309102631dce0d107def6ee070712e1f914f0a90a0801c623e0f6fc100d00fff00cf0f40eee15fa0c14061217d8f3,
0101d50bfc0f032ddce3daf0dbe5f7f20a05f5f80bf001262648f6f70709f4dffd0c08fd1feb121e4121e4f61b1bece2da0c2deae2f0eafa0d2830122fe9290cd40615e20d2033fd04eb0a35ced505d231311df406fb4917f800ff0f24d7190708da17ebe30cebec0904ff170c2317f21acf0402eed93f0dabf0f72dc301df1c,
2e09d7223ada05e91f1dfafeebe4e8f14837c6e6f8f406dff0e0fee622f10fff2b07fef8dd1bef1ad0ef2103dfff2ce9c50f29ceee31d2f0f1de11e0061403fcfdd9f12af107f136f6e3e11d0121e225d2e335220f21d426f9f7f20fe8f4f7e4e7dd0df9ff11ff25d206f4ebe8e7db19d7f111defbfef517e4c71523f6e21bfc,
d704d4233d0301c91bf520f40e03f8d10e01df26fff508f706dbd90c110920e80f25bdc4ee03102a08d3effe0501f8fd130e0ee20715f00c04db2d00f3253517081f3df3f53ce5030b2b19d0ddd405f5e3fc1dcae4f2ff21e8fc121506edf9ec08da0709fa0313ba28ee312921d601f70ced08e01eeeeb39fef522eb18fb00d7,
10e4253a14f5f735cb0f0edadf03ff194601f4cb1721d504fa01eedfff0507cf070c06df08f419ae1b16e4f52beae8e9d42a230b1b06d70db6ece1e8ee114413de030cd5020820e2f8d044deec29041af22ce4fef915f31f2cf008d909ec18e9e7040b2cd016370ee9fe2d950a060324f6f3f8f825df1effe8da04e8f1f1f6ee,
fdf0fef8f1f7ee25161309f2001325dce8031f1d04fa18f9e907e6170f04f6e5c4f90a01ef15c8ea0c1024f1f4f4e4e4f81ee9e0032113f339071b14f309e0f5f909120f35f21a0a322b21e81fd2220c15f416d6cbfd09f3de1221f8fd26ddfd03d316f1080e010c0bf5b4ec1b21f7eb1edc33f60502200c01fc16e5f0d005f2,
0f17080dffd418f91d31edf7f93100050ae715d7fff907ea1318ed0329f1fecdebeb430bfeede1dd0af5f70df8da0f2705f621f91bfbf0db20f5f015fefef91508e028c220fd0d31fcfaf00bfae41beeef10dae6d9f725bef1ef09cdf9fe2e1118160de503faeff0bd12dbef2fe2cdf81ef4012815d0ebf1e017ef09ef3711e8,
e0fa000aa52ec703f8e03920f629f4efdb0d0018f10017edeae2181d1509e1dac8c0021e030bcb0319fbe4e5d7101c1ff6060edb0a0f0cf0ff2305c9192fd7f4041120ea08112cd303ddebfae311d30de82c00f41bd3c2fd3c0cf1f03df1d4f3022f1e0e080ff9e5de02f30fef3f0e372ce7f841feeee0f0f92ce1df2300eb0f,
e903ed24f3eafc4bf3081c0718dad6dd1de72412d0b83503e40113eb06fefc112109fef0f629e7dfee19f002e418e1f32c04f7ff00011cfce806011f28051404ddd43a0ee9240134f604fd2022100fd5e7150d0113edda021edcdc1d0ff4070de9ef11d81d0ff405faf61901dcf9311401ea0efbda4133e504070418f90c07ea,
0c10e4f9eefd0006d9e2eccde7f7f321fbf829e5dcf6e4211502f32528ece8c4f85315e407e30fd1d5e1e6180511dddae927050bfad7e90afa06060bdc28f80725eb04da0eddf3da0d2816f102dce523f6e925040006f8f93219df15e5efe9e60fedf3e45efa09e6c21ae718fac6ea13d6fa070aed03e3f6f1171111e80ef645,
efffda2eecb3f92f1c241bf005e0340a0be40c43092d10130ef5f3f5cc18fd03eccde4ee0410efa431e1e4fbe41518f02d150c1a271cf40ef21815ecfcf3f41b0dbc15182ef81403dbfbcffbdd0309d1f7edd226f0d7e419cdf90a24e002ef1c00f50ae6d3f2dd042e19230add0e1a09defdeaffdcdefa1bc1eefdfce029e8fa,
dced15ea11fa13d2f20bdcfd16f60fe4fa2001f62c280b050409f622ef11dc09e117f015fd2200041c3deed804e5022d02f821c42b122401ece5e725f305f5ee0cecfdf91d00fee7cee7ec21d7ebc22f06fdd1d6c2e8f41420caf2e4dbc9eee3ec054705f7e2d8f9f1e3ee241b19d6e807e8000930e9120bf30810d5deda1b07,
1618fef50dcd14e52eea1411f0e925d6f803f607cd2ef4dbf9e6f626f8fcbdf2fb09f9f2f6e2ea03f609fe1326e3012220fa240bf911e8f9140845d9eeb7f51cd90cf5ebf6ec150b1ecceaf70e12041ee81e06dec6f9061ce62016bb0f2cfb0f0a152add22e9fa080012eff6da03eeeee90122d7141d0c2b230130eb1e06f0e8,
1d0bfcf310d028d70cd213d3f6f2e41e3027d12a0cf8e7fb00f71ffedfd7d403fdcbe5f9edfd18d4ff1a1f03f5fd010fef3d1d0706111af8eef2f9fac028020ce2e831df310504e50e183027bf12e804d705d905f50bf01af5f0161ceeeee1f01209d419e12516fb2c2d151c0308e5dace062d3b2bfdcd14c5bf00260d1621dd,
08fd0318ecf2f818f5d206e0f2ed131114f328f1110e22fffe40e71de72bf60b060306e61f1d2fd9bb2be836121cfa06cce0072145140405eff6d018c4dbbce5da10fa321a0be91ef5edf7fce1d0dcf2fffe16f80407e406eefb2bfbe51614012501cf03ec0debebf4140724f90f16f8f8e62b30f8d90903da34200c0f15f5f5,
e8fe0eee0eb10d05113bf51508fcfaeff7b61af3f7e6e305ffcedd0b02231fd6d00ad8ff1d18f101e9f230160cbf050b13f1f0fd2d14d7dc16302e08eff80416e3fd00d1f6fb39e912f2fc1e02e7f514d7f3effdd928e2e80efbce04e6fe1be744f918202121db12c23910d45b35fe07ee2b0cdbef1afa0f07f5dcffe2ffefef,
eee9f6f81a23bf0e21310820fce0e00314f3da1907ef02e743d61b5d10f5f009e120f5fe1712e602b7230aec10fa0d17d230ff0a321afbe8f6e9c5d9dcfd1e231ff22851f9d8fcf703eb41001f28fb092cf54008fb2013d2dcf9314e28daea290c27c82404200314df00d1ed04bf48ee2cececcb35f5f13109e6ff2dfb231513,
06f9f9db0929ff10eaf306eb162b2336340bc033e7db0dd1ecf4f22011352837f8dc04f90cf11d1840d3e9deeafed514ed0a281412040c080128e1e4e8152e0cf603fbb4f0f6320cd311bef3c4dd05fa0ff0ffdbf1df0b17c209f92113113744f602d9041ef22fdf0ef2eceae732e8ffe420ba030b23132edafb3e00f8ffc020,
ceefed14f2f008111307fbdb11e1ffc8040c0c030de8fbee3c0a040c080aecf2052905d128e4da00e0f31f0d0cdbe3d40004f4161bf7ec13fc1402fc25f336ebefd11ce3f218d4f42603d4f7f30b3d1bf02efbf9fccbd511f3d0e80bfef707e11404ea3b06051ad4caede836d9d4d213eafff8181343e50a2023f20cc108eae5,
152eefee2004e2e123fe15f4140c20fcf8fa0fe7231ee1f60a13dcf8e4d521f6e71219e609ebc1dcec28f20f46d603ecf618fdeb0a0bc7283b2603432fe20527f900fbe8e80c3bf71ce012f328e610e819f809030aff0316eeedea064b43d42705f2021a07f5d31c0cf8ca23d6f2243700041a0c150cef1e1ef425f00312eefb,
46252afe010b05f4f60005fbf6ee0127dbfa112ff425fb0b2717071215c742d3ce050100f9fdf3072cfac9e61b0fecdd15ec0cd7c3e7e6cef903fe100be71a273eddee271e0af1180b06371d1f3812f8fbe6e90713f9dd0c01f5f40619f503ff0c23cc23162cf609df0ef9fc0ce7fe31e707290a14ffc623e00ce6cbe10d1903,
05141833e7f8ee3b2d291f043cca0afdf3fd1b151ce4f2f011f710e812181a07f5eb16ca22c91c1110ef16141f130d38151c1eec380fb826fc0612efd4dd2bf5012509061cf70c29f50204122601dd0de6d821281026e6dddd1a1102ddf70811fed50803d0bbed191711fd00f7fbc9eee1ee17e8c9f3f3c5f5160445d61502f1,
0d1a0cee23f3d5ca0e32142f0b2301f92ce741f6e82af423411ed2d009fec3d4e60219d7d2fcf3faf4fb231d03f82c21f0fdf3e335e6eeeffc2ae4ef07dac916dbf5ff060206fb1ef04526ae09e5ee040901c2f6f0f5f21624d9faf1e404f7e415e80514260105230eee07dd01e3d307e3eded110207f1d9d7092e1fe7f4eed9,
fd1c012d252830f81cedf6240a3d1afd1dfadcecf0120f2b22eb0af2eb40103d2af9320d07c4f60dd1140117effc02f6e234b3f90700bb362120c7e903ee1dd6e90b152031edfdf3d43a11f805f11afef00f0f0019fb2c0ced0514f8f7f4d5e0d2e11608e601d9fd155006eb22d1e8f70019fc0f18ee08fb2df508eeeae92034,
13dfdafee60bfbecfc0c15eefc0ce1d2fdd7d32b0d0101e90ae901d322d5033bd431d0edf0eef900e0d617e6ec0b29df35fd2a01f3fd04d7150be708d505f33cfe1320efe5d0eefb40e7082b090213ecc131001608ffffea1b1ae4100d12f5fefb0f20e6f031dafcfc10f3fefcf01d01e30cfe06ba26e400190cffd213ecf7ec,
08271311fdf7e417d51d431819f1041c1709f9eddaf9ef1cfcecfcf009f3d9e6ec0b21cdfe660d0121f5581b07ebd154cbe02618e4e3fee5ecdd0a050ef047f6ff10e10704c5ece8dd021a13ec0f2115e5ced3f9f1fb0c13dde3fcebfac4f4f0f122074d0cf3d6e5f11eff1b0e14f4141bdf1b19f7eac407fa04f60ff3db0a0f,
e816df2018ca280fe9ef1bfa19e917ead614220cebe007fdecf91e1c2800feebdf1bcf2aef1b1fabefce07201deb164a16160706170a01f6140501fefb01f2eafbea3a02e12b05be251be2d13dfef710dff614150add25effcf2f2eae5f316ee040f1f0aed08fd16f9ccdfb42acdeb152500fb1cd502f801f6eb04dee010ed01,
294523f912fc08d9f829ffe10efaead324e624def306e906e810c2261714fec5f21ee5fd1108230b1c25fc00e2152225d3e3e4f9c308f10af21b2b0ec325d212e9f0df2e13fc3400fa0916150936e90a10e516baed2fd30e043f0ceff5ca11eb2bfdffdad5e210ef01f8280dd638e2f30ce31e12aff0f6edff10e700e10e0629,
cb1e0f052008061a0605f9e01ae415d902e018e201dc23f7eb1aecdec5f205010b2ceee827df142437f228eed801fd07f3b5fdde0d0dfaddf000faef2932ef2519ed20fb172a0e0bb6ea0cf1ebf1f4fff1def3efcef8ddc831f4e40e222c33f318f70c2aee051aee250bee1bf4d5f9f7271508cf26ed12ded91d12080640e90e,
2311e91fd2e41e0b1233360af6efcff50434d7f92343050700eff0021c17e3f2eb08f9f90d0ee8f305f71304e8f709f21a02cffce62e0dec00fef3fecfdc1f0ce1ec040f1401db091bf4fb35db0cfbd0ec05dd0e08efb4fae80f04f80c09e9f5dce71dea140f090fffb804f3e206bb09fcf902d40bccf41ce3b41802feeaede7,
d202ea0ee30c16bddc160e3b10f6e5d1e1e927ef0d28e4e3fb06ddf20011be0dec10e414060b02e416f905b9d7050419f1fa02d615d60f10d5bedf360c0edcec05fae111190723ec0bd7ff0ee71119f22303eae00cf613d2fce30eb704f3f308100d1f06f5ea1418030df5ffea12e10f19fdffd41d29daf416e7edef1613d7ec,
1ae19d09ec460ac23af5e22505f50e2532dddcfefa1bf8dc30f6c8da3ee5c9f903b402e4f509b405300027d70ff5e5f0faea220a21ece5f6062615210ce7253a0de63e000ff4101f0ccecb14fec70e18ec38dc0900f3fad3e7fbf9c903fbee1a0b140f09e70105f60e301b0bd6ef2403d01620f149e200eef2eaf6f3181a061a,
1ef30501fc331f01ea0211b30348c913faf2f3fa17fe042901d910f5e62de33d1aff1329b6dc1fffd816c9da12e5f5f6051a0f152ff420ff1bfd0ef4d009180fff0013f8eff118f5091b13fd10ee28cefc3ff7fbf5d60533e2effbf2f41ec6f719221de50bc0dabde60b010fdde1c60828f9111b0316f6f309e8edeef506bae6,
fe2c07180e034428c7404023dafa22f54feb01f00afc09ebf4d1fa21071ce91617f1ec11ebccede815ee00f7d3f5f710dbd4f7f914d02ad1da01bb180ceb1717d80034f202e62e1cf3fdd6051f2110fdf0f31f40e50006de0e2ed3fdff11ede50826eeefe9f504ff09f2e7b110eb01e7ffdbdfe9e208071d3138f5c7d81af5b8,
01dee8280a17eef1f233ffc0e805bf2928d0e9f9f3fddd01dfc1daff00d306e204f40304fb14ecf5083de6fe030d251a362517ede0230aeed703b1c5f80afb0220fd06c90b1dd808200905fde220131ce81f12e4ddf0e735f8fe2b0ee62b00e2f4fffdd909f708e0ffceec0deee505150924eaf8f1e0d3f6eb110cec19dffdf3,
fb34f810140fe3f3fe14bcf70310fe130908cb30e9e00211da0e1e22320d23ffdafdfa3e270417d228f2f209faf321e9152cee2d1807fedc23b2dbdcf213f146f9fe01091bdade1afff8def807fad32a2e1de3d3c2081929e5121629fe192dfa1a0cdae1f0110014f1e6f9121dfedd1df2e4f82502ee03041ff7ded2e3e91621,
cce40535f7fbedbb2ef0f921f30e02e804fedbf506feedd616fbf443090608df2313e8defae3db0d2f300d0ced1af4fe0a1910f3161b09ffd9e8dbfa0a30d5fd1d3d3228e4f005f1210bf5e71fdd12ea1fff111a0104f80a0717bbdd0b12d9fb1bf720d5e9f6fd29f1f83fea02f2dbe4f91402f7df16020501002aebc12607cd,
ed1be90b16da14de03e9d8ee05f215f1fe13e116233b0101ecd202f43bf200f00c261411f6d8daff1c14ee38f50f260c0200faed13083ce2ffe1f2e6df291c37f115ecd2e52bfdf104ffeefb100b0020ea131fd2f6fd21f20d121b513a0afcccedfedcfe1ef0c705c3fd05dc1adf26043804d8cc15ff2b35fb0fe9eac80e222a,
ec26db0424f61b37e10428fa0b01dc0151f504dfe4f9fbedeeef1dff1d0612d83cde21f7eef6ee0c23ebe61d26efe60d022fe4dc17d50a0107cff10e1e25eefbe21a51fff90409f62515d2df220efbfaf41e02e6f8f4f50df9f2e125d9fd0fdcdaf002e825ff01c014ec1ce613071ceee5ef0a00d1c5fb1b0fe103e016e2fcdb,
e4f6132630265fe4f2d8540aef061fcfdee70223dced26ebf2f50f041002df190320ec1cd7f6151005021ee02025e818f61e2f1fdb10f3fbea14cae1ede72b162dfc150824f11ce8ef1817dc211ef7ea090c2d20c8fcf70604fe1c41d027110015da2b1bc8e9d42101ef27d3dacef807f4fcc50817f9fd0e17f8fbe40c13d9e7,
26db0e0ae8e80f1bf505e6fbf3134fdb0b27f9011616f130d91410102405f2dcf9242a0318dfddf0de10f601033cf001ec1aee1103ff36f302d628d3e1fa2b39dfe907dcd72ef71bed0bebb210191fedfd07e624110518ece1e9ef241600e8ebebf2e2e535f61afa2f29060016da0104f81e11cee7f2d0d1131ee8de1303fdf9,
eae4e6eafb29f91e160ce8f6ffc3e3c008f3eb06e31de304eceb1917f4e7f007cce3f6bb00f6e8ec0322e7edf9eb0a09db22da150cebf609f0ed14dd3a03e0520116f80502e8fc11deef16f711f8d51e02e511f20300ffe402c7fd1bd900fbd30cef0113c2e7fe082120100518ef10eb2d20f1f81cc9ec0b0b12e2f1e1f1f6da,
0afd4bed13b62403251cf7ee30ec1716cb4b0204f6e8f811dec912f3d40a0113d7f1083611e6090b1b041f051dfa2625fb07ea0edfccd2f5fc10e9e4f50a150a1f1ae109e10fee261c20e20c06f7edfd3515e1eb0f04f80aea1e07f7f922fd0405d8f3ec1df4e4dae8ff070501f51e00090cf5f3f5252cfd0f2b17f8eb15e80e,
0515f70cf6dc02061fc323ed03f5f601d911ecd6d9ddd50df4050a11f6f4343d35e31c11fff30c26042a16031cf33018f1dbf1d2311b23010f0d32e6be04f71109f30508ffff010625f9f5e52917e508290718ff04041e29f6ffe3fc000bfd0f2af2d9e511de222f092100f9fbec31c9f31e0705de02f30a0315d51ffa0c08ef,
e8fe060a3f0414f5053226040604fccb1d150bef04152aeae3080528e5dbfc1c0d14eff80f08e6d4d1ebedd1dceb0700f2dd09f91207e90f22f8ce07cc26dcc9d6f81810e6ff010dfa15131dde09fbfe09ffe410c0eef1e507fd19cee410e91ae4e51f08f8ede3d1170e1219d3fb060cf923f6f5154714f0f13f1202eb06ecee,
fd4b41ec04e4f0fcdc0e0d2bd5050e22ebd3300a0113fef72b1dfc13dc32e1f4ef271ede21ebe0da1e3323f6e5fee10914f2f4f6f516041df113d72334112518f8ccfbcdddf11c1112ef0df1e4f3cef71cf64e10f721ffcae24931200f0ce8d715f5def215f9dfe9fef3ff2203fc0c01e22e2213121ef724030c21f9edd42817,
ee56fb180cefe01317f11b3a25f7d7cfe1ede02be0d62bf3e7f017f6030e19ff09d2e22cfb1ee9fbf103111538d5dcf216dacbfe11191c2a0707eb28c2d207b2f50dea13fbff10ee29f5e31105daf50f11e71bfcca1c06f414f408d42027d5060c01c2d8f001ffd815ccecdc04e714c23ef5f6eb04cce3090ef923fcdd0d0e3a,
daf72b06f7090aeee4ec04250a0d0fcd04dff1f8f31c0428eb05e8d9efed00defafb5deb190b13f402f20ffaebe3fd110d38d6aae90c130cecffeee51b1012c51d0428bde70d33f0e00d060d0eb01814f4dee7ef0ddee9e31c02f0e9e722dbee230008f6181506fa08e90dec090c21eceefc08c806f9dfff05160fe9ecfdf9fc,
04421cee0d0a1422021315e4e4e9d50d120724f82119f4fcce0d10312938eb031ee8f11305fc002607f6f3dcdfdbfff3f10ee43817d4ef31ef12e70b0120031f0c13c214ea13cd1d04e31215f3ef14f6f512dd003af409090cdc07d21608dfdb03381729e3e215f7ccf11f1521eefd02e9fddf0ae205160444f71838cbf80630,
1105e8f923faf9b5e1ff342211fc35f013dada0ff727f3f50efbed181dfe02200ff010f400d5c7eafcdb231ee60240e2f90200d8f00cf9f5fadf260113e328fb2af1f2142141f4e70c100d1e00eb051d080805eec1f0ec0a00e3f204ee0a00f3d01ee2f4ed1e3de105e8f1103c1923f8141fd504290200c00426ea290ce8c2e8,
fff901e1ef1df7fdf0ec240fd4c5bdf6fc07fa322728f7062024eae2e8dd1c4ad7eee406e8f7242b1af8f6fdf2b351e8ff1808d60e00ef2912fe340efd12171f10ef16060605f0c8ffff030cfef9ea05f2e3f12df81fdddc18d002d2080fe4efef01d1ee01fdf9cffaeb13df2915e815db2229f00519f7f7fefe17fc17fbf5fb,
e0ece81821b9ce28eaf50b141ae5e62710e113fe0eefcfdd05e608f3ea1a04f3e3ecf2f8e4f4fc0bd101041a271907ecccfc14c6fe1526e8ecf0ff07f430d913e5f0fb3b1d04f00e0301fbeef4190af2ce2d19f9e1ecf3140632d30001fb0b2af211eacd0ee50df8e52af63a061ed60be0dfe2030101fe22d51ddee6e3fbe510,
2006140121e5ee03fae2c438111be9faaf01c551fe30b901eb21edcde70416142640daf1eedaec1622dffbd8d4e2dade05e819fcfc1225d61603c5204ffcdf262100f614eceffd2909d4e6f22a0d200affe9f519ef05f01a051411e1e5fe0d25d11313150febfe02f21f0cf8fec1e60200f50cf3481e2ef30b20f6f0faf3e615,
30ef12c71707e2eb1010d1f9d52df9fbfe060ee81610f00bf111e40aecff03d715d06a02d30c060df0fbce0939fefc1ef0f2f611eefd19e11812f41003f51acf1a1edb1cd625b425f60fd41f021a050a400d1d0311f7d027df26e62312f417f419191aff03edc0fe03d9b8d10d0a19fc04ef1bed06d513002108f50708fadae6,
dbfae6d51427d62eea1d17c21512fbd503251f41f4de24ee121bdff7e8db0501f2ea0910f10b25f72d2c2912f3def3ead725220a05dbfbebfc3108e0db2d0f28fcc716ef03172c0241f5111812f53df1e71423dcffee0c03bef5ea1e3213ed3c2ed81a1b09fbca0915c2f745f11f180cf8f8e6d7f0c20e2b0ff8e10b26dc2205,
1ef20becf61925efefe0e01cf5d511f5411f0bf60e0914dcf1143a26dff514ee503f1a041dd7e91e10eb13e30deec31edd1e1829e610f4fdef2e163314d4cce6020a30ff0c04fe1d1c0c0beb0618e71b030b04f51fc704ff1304ede60c02db05f20c2b0811f8fadd31f4f40a2cd2fbb1eafe281829ed05fdfee436e81df9fd04,
441d0efff3fc0701d9ff39e83e101512e5f7eb17edf7c03fc6de00100e1ddc071cfffbef0cdc1a01262821e1d519a61c0623f6fcf618f4111f14e706f70b2109e3dfdf05dcb91700101dc3302d0f22e0e511edd4c81bf0e218e3ef3ceae7f2cc1b12e3ff17fdd7f4f9f701032cba1d1918df0e05f7f304252016f6f53ce9f546,
0511f61adecedaeae3e5d1ea15ed1601ed3206e0e7f80520fe22ae16e20bf6f2f127ffe9191dcfe11803f637e2d907b1d102c2f60112211f0cfc45e8f0d60ed4eafa09ffd304f5fafaf9e8f5fbd5d51be7dcfef6ebdc0424eed30ec0f0f0eb380619d2f8f6fa05e6ea2bfe022014f6fd082afaf425f418dd1ed6d41d0aec010a,
1b98ea10d7f20bfbef0ede37e927e00a02e52be21911e2e00aeaddd1f8271aff05d70f2de7fe04f228c70c0f35000f00f1ffdd08f8d21ce0ebdeb0e8d82a223d08fb2801dfece91d1ae118e8d8f8e409d7db0afd19f54eefe0d1fc1f2ff8e7fafee9cdead71243130de7c4ece51eed081ee211e314dbded1e4d8f70608feebe7,
ffdf1fe53d0700141a0108c5f31837ea0438182af00e21fef5010a0b134fe722fcde0ff009d30509dedffad128c2ffe5051c1d2518e0dafd3bfce6fbe6291ff609da09fd1b0ef7ff11ebf903181622f200e0d7f7ddd53212ef2de5ed2701fd151c0d13e5f1efef2104fd1f0b131e0b1a1c0ff30ff1d5eddb34d00fed270cec15,
d405f719df1cd406d9e8de0a1515021620cb16352fecfc0aed00e90af0deebe5f30ced060cf916fb21f8eaf1e1dfcaf61addeafcf11d42d709dff9fbe2e0fe09f10f28fcfec608d4c9e1310bb81ef219f6df14d6fdeb1ef1fa111fdfff04f20a15d80b1724f423ed0f20141ff4bfd71be22fcefbf104d23309eb27290bf3080e,
d2f825ff10e1f13004e0e6041cdde912e11ecb2700e20614e4fa0ff11628fafcbc07f3ec10e9f0e4060800e706fd1601d6fe21ff0c031df711f401c614f9f406f80705f1f5f740fb2805e60a1417e9000c2ebedbf60af10c15f22102daf5cd0b16e7fe0711c6eff6002b0932ff1be50e2d31ddfd15020e00ed0145fcfc1933e4,
d60b0fdd1e08b5fc0241100aebfa010bd7070213eaf00df4faebfbf7121639e632df0e1b081028f9141c22ec0bfc06150bddfaf7f2dc1d062ed3f0fdf3fb3708dc111f19e1ce0b0c301dce220feee901190f26081920fbc3210f093405dadd12482831ec3105d918eeee08151f03102e39d6070d2dea2a42e011f402f1f22a17,
e2f2f8112a0de01b01030ad8371f2721ca01fbee063b051023cc2a2c2d080fef1ff5300a07f4dacc0c0208fe02f0d0e306eae71401e60e20f9e5f4e104e9fb150cf8191c07fc10f7e5121bfac62302040f131cf71324fce50cfcfb231c16e40703fe011006f7f417eff9ecdaeff325310a00280512ecf0eed7f804f12917bf22,
d1ff0c00e40906fcfe0ecd1c18060e19f9d8fddd13190efa1d0e22f8f9fe19110ce0e5f5fb2df10030f0e3fb08f8f900cc0944fafc0212e3f01fccfb0fe3d801e9e80ceaf8e601f31c0b20f74bfee407ffe0de1a0106fdf9ffead219f6e119ea3c0ad622c9fd03f01d12e0f83b19eddadcdc09ffe81e2ffe1be8e630be11df34,
edebe410040ae8f4fb27301324d6cc101c000d04ff31f4ccf0d2ce08f3b92321e0032b1612001adff5ec3c064412fcbf3511eeee01f613d1df2a0614d10cfbe9eb200a0b0342e1040d0ce60903c421ebea081acafc1de9030a03fff31b271ef8141ae414fefb182404f9e7f731160536f7f9f21a4f1cf31015d505bb13ee1008,
09df1c36dcf9fbfdd9da02f2f7dbe3f602f526f5100d3001eedd0efb47efe3f915e7bcdf0de6f5e912a700000c0e0de7041a1700fd100c271735d20145230aeef60af626ec1ffc20380b15f70a01fe1025fdc2240a182be53ae0f101093e12d108c803470be416f5caf7e815e3cd142904d6ddf4060e09f819200fea1816faf1,
160c111900fb1dee1200f9d412111706d71215d5eb35e71c210213ed1e3bf2fff7e3ee2537e809eef0190d1902eff30a12251715dcf0dbeb01e8e7070f2bc43712ec0a18f008ebf6cf1b08e2e3fcfd36cc1009171df909f2000febe9ec05f119f7e3eff903040af8010602061ad9f6fe25eec125fad7cee62ddc0627d9fbe80a,
f516dfed1352fad9dfccf5f3f3edf2099ff0d40ed6f20ffdecfeeef41ff2fefefafd4722e40a28d008faf2fbf90bfc1819eb11e51d05dbd8dc23dcf7f616ccfb06f9dcf80bf2fee92bed34ef3435fa25110bfa0ad6f032e3dce9f315e431d8ea11fa0d1511e8fb18ece213110822d6e3080412cf0c0b081214f20b0207ffc93b,
2f3700f318100ee40bec2af44ade02e012d2f1f1d7eb0e1a25dbfaf51c0d02ef2723010ffbe1fb17f1d413f7f8fbd2ef18fb2100c0eb06020ff6f8101305fd1dfb060615fdf8e7e0f510b02808eed0fcf5030de4e7e2f61c0119001321dcc6d1fcf6d0fd09f00b1f3afada251f1096202de41c310a02fef90222e30501140bf1,
19fce5151404233e111715f5fdce12fa3f25e9fef85ee4efece0eceffce9ee192316dbf2bee40803ed12cc03fe21e6e80610f2ea040146d61e1cda03fecc1406f2151504ce3b1bf10556f9290902f72de710e3f1fb1dfe05fbd808220a2c8ed307f0e2fee0fbfb17300302e9f0ecfcfd0a04e5fd1a0206f216d4fefbed23eee0,
1c140a21cf272809f0edf1de1deefffe0cd7ffcde6fc170dbf3317faf704fcc0fc01edded20ad4e7fbfe1ee02d211ce6f700ce13f0f81afb01e8e61525fe11fef1f115f0dd0ad5d20a0402f80e1b13f812d8f9fc2106e3120321d2fe01140bec11cde91cd936d41dffeddfc8f7c8f616fc46f104e226e0e4de2413f5f3f9d7f2,
cbeddddf4aefd5c813d430acfef32211da0924f9eaeef1162e061de4e8faf10d11f002fc1b0a16270cf2dbe21915fdfffeeaf40d1824e1fcf6ed0e02fd26db0ff407e4050f0c10e3fa0df22c2206d408050ef51c152b0ae10d09fe06e329d12e11e2f52af7fefdf42814fc17fd060bfc24dffe0111051134132df1f4fb0aea17,
f5fd0ef416140ad6f51541ec0b43fdeacffefdf4e60d112e2415f3f31d201107e0ea0ae2fc192338090ef429ecbee9f008f0c40217f1fa2410ff1df40210e80fe6f0f004ecfaf813bc040a021002d4eeffe3f32211e3f901eee3eb220b14b817d40d1219242ff5d81fea2de4ec22f927fd2b1703e6dd1528fe2ef3d8f1e6eb19,
f52211f40cfcebfa02290f351718112a160b0a44fe0a0b13102e081c20cfdf15f6fa05250c0d170af2fdffeebaf90418f30a0ccf0716411bf8fcee33e41319122f0e0b1cfad50ad7e9f1f202112cc602f8ee191511f5f3003ae51798ff250515f9de1c14f112cb23e50514e2efd9ea18e20dead704eb07e1051df6e40812d4d0,
2adb3c0e12fbc31fedb8f8f5c4d5151ded41fefdf3ea04fd06e30a141261f4f6dee3f52f241f3129dadeed27d421f50607f9e6ef21f804f0b5fe1904f12cd9e7e1ddda00e0ddf6060918e5c1ead30802f4ff19052ad90dda01e616cb11d3082805f8ed15c0dc27e4e2eb11fffe29e3e006eb10e3f2f0e8fa19160afb00e600ea,
0602162a16110b10ebeb1e0e0317022d100bd4faf117feebd5fc0a1202fdc9fbdf03fadbd7f51d0dfbda03f8ffec13fa0ef8f5f91ce9fd1102f3fbf1fae9e9fc0347f9fdcae5f905f416f3da01f60b24c82d3919c93d0be8f6fd26c3ff3029e1e7eae90dfdf74508101df8ff343ef7f4b606e6eae0313ffc05f00307d0002d26,
20d615dffbfe06e5e4e62201e9110505dc05061620e7f0c30edc1fee2904d30909b8efedf82e0af31e26f3dfdbfafd012407e724f1dafd0ffa11fa04c2c22f1bfb12f5e2f7ed0ffcf35717dd29f5f5d0faffeb13fcfbf907dce8ff12e509fc19140e232900f3f7120c3205c11efdef1cec16b9ea0aec081dfdece6121aee2309,
26411aede7eb1f0bf30ff2def44ff43bff0717d00026fe023301fb1c011aeafed9f2fd0b0a0a19f5ed2e021a01c6d8d53702db12f2d7f915fa111ad1dd1104100914fcfad6d60cfef42ec0f0e00f09e91f253a27f2fb1513d53ffd0117fe1623150f110514dd23310207fe2bf6f33d28efb4100ef9c91c0830e4e8f6fe1809d9,
1e0f491308f40f1bf4e3f2f9ead6d516db271800160ef00439e20ee2f0ddfc07dad213fb04fef0f60cd6c212180708f6252508e2fcf217d7ee19ccf8e7d4f30c30ceff0502d400e218e6de050208e503d02c10f3fa04b8fb34c507d10bd425f515304331f6da203debfff2f2eedaf2dac8f305180e0cf61b29ed0e0d2e0108fd,
ee060f3af030fe0a0514ffdf13fd3bf2091ffc18f20e121808f5daea1adfe402ed06f9eb1ce6d2081c342d5c08d6f0ede8efe60027dbdff6eb2ff3e9f346d606fb09f015fecd1f192ae6e4de00ee0b08df4112fcda15fd1d2f0a1efa0a23f538fc0fde0cfbe81cfb0adc13d4f903f5e4ec13020400bd131d16dd35e018291003,
fb2508eff80df9f3f60ddf291d1001edf40a25ec05f40926f30b1e1d19f3f50908cce7ecd3e8051ef7102e25ff07fcf93cd0f8f11a0cf401f2011b02d6ea1506f9df2ae2df04f500441c090ce5d8090b12f1d22e0ffc0318f717001813eaf9dbf705f413ee05c10328f0f026d61fe6e810db331fe8eb09f0fc132defd200eafb,
fa21fb32d6e3eb06fc1bdcfaf825f6060ee7f213152e14cd04e4040727ec2d0ff1e2deec20f303c715e0d3ffea003be2f80fe6e720c62b0de6104617040fdeec3b0918d60013fcf6df192d11eaf91016e30dbedd08021d043c2904dbb7e7f3f50f010803cf1705fdfd091e07ff13f5ee25fc05ece1fe45f601fefbf609f60605,
eef0e4eb051aeb00fbf2f3060ef010f70540011811170edae9760def02eb0aeff202d219fae212d4e20bd7d7240616cd04011fe7f3bb1aecc21932f236e9f4d8e427e742eb0ae2062eecdd4b03071fe7d31fe8ebfc0716f104e6ff1713ef1d270bf30fefdb01050ce9c7fae50015d85d13dd02f436f8281d00f735b9171e0a21,
0ce911fefb14ddda1326f0fb0d110ddacee306bce709111918fa19c20901f5fd090019e911fede10f8ce0c1918b8fecdfb26ee0331de14f91f0d120bf70c04300fe2e6f7f1e9faecf91f281dcad8e20bf51a0de1fc12f5fce1dddb310205e92e34f5db10e6df12f0c32f14f20b1f0afbf72ef2e00eb5dfedebe3dcf616240a16,
dcdcf93920f12222fa13e814f0f1ed0ed1052c1304f8161c04ef1e291115f3d9020c17eb051a05fff2f7010c0207fc42dd17ec15241b0500fdfee0bff3e00314dd09f4140207e7e3fa07f21a00f32ffd2f061a0d09da3719f53709e5ecebeef828ff08e210fb0818e4ee11eae70ce91b0c2502faeff4121b09d90decf004f2eb,
e9fde11116dae1e203e509ec1ce5e7f3df25ea1a0f04ca03f91afdf523b8d20316f9ef51fe09e5e8101721d602f1ef0d0bd80d0c0f1ae6fef618f6ff02d20d11f00f1b06e2dcd81409292100180ef31c05e212f7fbf7f7ff0ff3ef04091cc024f4e1fb21f40a32f306cbfa0c23f1151bfb1203dae91fee14bf1ef912d73a1129,
050529001327150b0005e003203d38e40f06eafdd51708eaf708e8080a02fddb1e3d140d2405e9210624e5184ae1cf08fb110e0ae9d7ffe000e900fdc32012ef02f01ee1fa06020912e235d5141dfac836f81fcae9d801302f15ffd1afeee2130cf108050721f405140717e1dbd91ce5fecad516e5f903f2391317dafbdb09fa,
0ddbdbe8291c0d19092c0a574cfadd092713f9001a15011d3bed0aef131ceaef3317d702ce0ee80b060f38def80dcbc604d621e008db21001bfae8d51fe1edf5fbf20afa261033f1def4e210fce4d8d9e8d6f503f04ff7110a0402f61f32f7f135c2d901c5210117f227fb13131f1102e213dde6280e29ef0a00d735f9020029,
2afde3030ceeffd613fdeff0ff0d13212808d9f3fc09ff44e0d2170dfbe90cf2faf90015f9e309042ad109033810f2e3203810fbfd4e17f928f71cfe1024f01710dc0421ddebf1e6db07e2021a2d08eb3707fbc8e617c513fdf81debfee00514f0c6050b0c1018dd0bd5f62716ebf425fee2eef22a0de81ef5f91b06fbda04e1,
d42700fcd1bcd82cfb0b17210322d205efed0bdc08ede41af5b6e3f911fd04ea0edf120406f1edd700f6ec1b0235e6f803e4ff0c0609ebfd2c2634dbcff1eaec27f2081fe936f0150ceff308f0380bfdef0af003f6f5f000f012050c0cf82af21bf5cf15002215ed3cf12a27e50cfa26132eff0330f01aff20f0df0dbfd4fe05,
d3fd1a25e404f2ee161afdd1da0400dde6040e1210ca0eedee100a021f2af4f8df21f91d3c03ecf2f21a49e5fee609f30005c3120e0a1b14f1bfeede05d3f5f61b09ffe1f4ea0d12fe1ee4d2fff0f21b3611dbddf815ec0921edc7f0fa21fbec07e1dc2c01250705ece0fefc02250e2428f11f281f23ed111f0d041b0ce51fdf,
ed0c0ffced2006141b3ad8f0f2e906cfc5dfea1d2707f1dc23ffffdcfaf60743122f36081a3f2be504cc2619e611f706142014efe6141e0203f5ff37e8f4cfead727200c10f0e7d70a18fbd9f41516d11fcef614fc15e9eb17eb161f12f9f2271a0351e10fe7ee00e62dee0ddd0a110e1bc8d20df204fa03f302462f0736cf26,
00e41920fbf2fbddf7f60ed23af3080e0e0bd70ce805eacf00f202fa1610de3e271b0a3655f702e12d2c05ffee0ffc05f7f21f1803fdf1faf032c1e3190fe32108c2efe2f620e7f40a0aedf6effff72dec2df1e92aef15120be3df1806d009d62c0e11fbe0160cf32215080604efd8391cfc0efbf1c2192201f61e31f8e21820,
05d90a36053331b61effea3af9e408fbf60617fb0ff1d207edfcebe6efe7140d10f406deeb19f1e1ccd9ee1aec0dfbea02260402f70a10f8f3f728f5c820c4facbcf15eefd0f062709ff16efdc22010415e8e3ead0f4df031ec9f7def60ce8dd4818dd3d150bece70424f5f00fd00a0b0d34fb17fa04081e1514242703113807,
09e20107fdf104d1f32ae93319f9d9f5fedffe0ad907fd0e25000b07f10c0ff50415f716ede5fde70fed11f4151c0b0707140103e1e3f1b8f0e1daf6eef70f05ce0bf6370d25d30304e6fdfc2deddb2b09d9bc023413d6cdf406d2e1f3f4d4fff7eb01fceeba0bff02d32e2207020f0514f4f93519adffd5281811f11404fd04,
16e8e8131ef3ed22e60ac005dc22ededdefcfcf016eb050e09c5f4111600201615fe2ce118ceeb1b1ffd23ddf8062912fbe3e8cf270810e110fbf404051814fdb2f3e6d0060bf3f2f200db09dc01fa17fbe306f2fbf4d500142104b600ea050cfc2af6f3f3e607f3e71633111df41d19e429eed0df0edc04fc15f93300e10833,
fd35f6d72ae310cc2801d5f9480518371502d028e1ff1a18f228f4ee01ebf802083bf32fc6ff1efaeff40adf1d17291800ec141cd11115e10b01392dc3f8d5ee2aef07ebecdcfabef7f1defa16ecd010b8ec0ecee8dff81f01db1bbe00ecefd817d9170623feeadb1de71e08f4ebfffb0c08e3140801f8f438f701c0e9c92d2d,
ef02f809d7fdffeb150ae62b141158150bfff6bbdc12150ee6eff80f091cfbebbe070af816fafa150d2c011aef112bc815ced83ce60cf64406e8021509f1f5101010eee7f30fecfef4f02406ba2ef2170ae8eee51df8ef2909fa09f5ee01d539e003270c09fcf22003eb1a0acc33da03ee0df21ecc04e4171f15fd0700df2c08,
bb001af9c6ecbdfe030d071aff0c0dd7f9f8fa1e041c0f08cc261127f4ea000309fefb0eebea04f9fdf3150af628233928e40bee01f9e4f422e5ebf71d2219f3d0eef23b0df8e91001491700062014f1cae91a29dbf71df90405251a0c0415fff4ffe900c5f3e508e2d31710f0f1f41510210e25450413f9f5f5daec2b55fe22,
d4c7f5fcddfddd1303f603d206031914c7ead4e30dfcdefbe9fefaf2eecb23e024eded05d4d407eb28e5fc151628041e0f052dfee1150808def90747ecc90d0b0e2bd70cfcf122ee19eef2e60d08f1edf715db11faea2b02d7c4df284017f0ee01f4fefbe8dfeb170bfafe20def5f417170401cc2eddf506ecf916e6fdfee11e,
35d9f11114e1f6ea33f5c20c05ec0721f5dd1c141029eec7f311fbfbddfa3ae0180803defc11fb1711e5a3070304f5fdf6d6f9ebf704dd2ac616ba2fd1f4e935f114e3edf1fa09c9e60d1009c9ecf71edfda2df405fbefe63c222617f5f4f2321cce440614dce7f507ecff11f5f4fe0910f12215e22e28f6fe1d0af90deef6f2,
29080e06e005ff0acbf2f6fc2ee10b0ef3ef0af9de000b0b0b1ed4f0ff0641ede1fc08183ff8d91a0b36d0d60b2ee1171111f71d05f01e29e72af6f725d9dcf0cd32010cdef509f4d33ee81ae8e71dd3f00fff0102f0f81d18b415141614f235f11e0702de3aedf303f6fbc8eefd372cfb2600fbe00ffee8e2d6e90501d9e116,
d905252c2007eee3e60309ef24d629ddebe7fa15ffdcdc300413edfeffe614fd2a081e0732f317f312f1f9e90b112d1e0210ee00fd04fccfe9f7000be30ee6f7e91cf3090007fc0925e1f9f52423de17af0130f7de24f91d0de51302ffff07e3f728f31ed80acd06060afff3ebe8f91409130106dff1140ac5de1d0e141c12f6,
0fd4d620e2c51117cce01914034011eb1a1d1a0c0707ebded501ffb807e5d9170ae012edf8f1e649f620f2f5d5df2309e80bf0f0d5f217e7da1cf44ad33602f2260007fb0e17e54c24243ceaf5f002fae2f102c30107e6ff333af4dbfee51fe61a35e90c30dbed3305f814fc0d29e7d8f02d2c0e0e1741c6e42e0500ecf21c02,
14091efa21fcda09e2de1c1bfdd9dae90c11f5573e0d00f92f02d5dd0208151df3f0ead6ecfc07e30dfb29f113e3051aefe7dfed0bf60d3a1bd931100ce3d5262c36dc2c0236dbc8ee0efae10205eb042dda081708f1e006e6f40602d921f3eddce71df21527f2dadbe005f125e411ebe2111b11faf011daf2f413eced1003eb,
d6e31b0a0ef4dff3d8f80c0e08dd04e8ffe6221e2b16061ef4d4fd1bfaf6d91b172af0000218c203c113fffcd20e36eedadc1a2ff5dafe1b31e13418e816f24c21ff18e8ffeae9b4243c04ece12d01e40f0819efe7072e10c91211af04f1ea1326dff91503dfee0bece5e713f5fcfe1cd90d22e8e7e4f101d6f3231609131719,
1521140dcaec06031c11fffc01f2080cfd18e110f6e20af3ea03f90e3adde6fcf30af8f6e31411011be9fe0ed4f92a1b0a00d71e3424ed0109f70a100eb20ef0c1e214fed2e5eed7f1292e0f1806cbfce52633e9120430d909c8e4d8fe0516160b061afd19f1f10d0c0aea09f8d3f31ef9f823f0d820f72b0b08e604fe032b10,
f6e4d0f62e0f1d0d2e0eca0c0afc073afd21d9eaff142d1abee7000cca0726d9f6ef020b31f328ff0cf8f2ea05c9ebda0120f7ff0425f405f81b35edfddcd717fae10c09ecfbe606d01bd4fe0e0a17c41f141ecf0701f828d4061202fe110627c8fd15f1f3f036f40713ed031e210f46e60ae6fdfbdd1adf1321fb030b1a11f8,
ea1ee8c723f1cadffa0ede13f6052ceed91af0e4d937ea1c0419f1e5eb001603242ce9c91af92b2a2d08b80ae4091be1201b060c00fbdce2eaf708e9011beced121902eb0b1732200c0ce801cc1400082ad70818e32cf900141e232304f9e114f60cfef01b1fede5e617f900f9ce1df501d1270cd127f4edfcfcddf405fb1b07,
16130bcef7d3f7f7dd0511f00521e4b512010c11f016db0bebfcf02ff10c2323e9f3f00d1d1142e70cf22af7e51103f41b02140b1b13e3e707dcd7f20de4fcfbe4ec0206dfebb1d1e6021206fff4251e1d182812e00816c6f6ebda1f35ecf6e41ff5f8070edd18fc12021816f0f908402808d50f01cc15cf0b1bf9e718ccfc17,
ecfe23e0fd2bfaee190a16090aece7f4c8f2fcf110140108300ae7ebf2cc2ef11cf72b2c15ea0cf3dee007ef1a330c01cdd91eea120105defcff0a042cd7022cdfedfbf70bebdad928140ae603f52bfa1f1728080fe3f00d12ce2f291200110518f1e2fddb0ff1cfe538fe1b03e103fbe31cf11aeb04edeff5e5fc0de6f23f25,
0d1918c3f317fcb218fd15ee17fef2e1e4e6f0e5e9f60f35ef22db1204fff7ecfffe1802ee1cf5d3eddaee034afc1fe4000ddedef2f00422e1fafaeb062a1105fb10ee43dad1320af8d1ddfa0cf6fb3bf6130cf706f44005f6071dede31318df52023ef70c2028fb0820fd02f6e8f800f91811fbfff6fa0df915e81feffb1811,
2bf715e1270016111df31be31b190a142cc8f405f1e92117e80ee62c09e8fc14e5d915e805de240c07df13cc0ddffa0b1406ee2204ef020cebe019dafde5e407201eeb0fed14f21027f0ef33fd19fbf32ce126f81b3de51602cbf30c05f70a2a2408190e02020b191ad7fd082d153908c32ae3dafadef7060eeffb290011d2f3,
ddd104d5080010e90e0e120afedefcfaf4e7ec0705f2c7020f1f0cebea103709f3f7f61811f51a21d9f8f5b5e0f0d6f417f2e01ff20409caebdbe53917cc16ee18d1cb02faeefb002724270509d8fbf8dad4fd06e6dcfa1c10cefecf0dde0df61b0656d92ecf16f928ec0919cfe2fc0b0ceb17e6f310131210bf4e03f33917f8,
0d153ce51106fdf6ecf714100c3c2ee7d004eec8e5d5f32b031c2014e1e00147fb0118f30ae2c5eff208dbfc281113e20542e9fe061203fc03120f0cf1d8ef07d2dae412041e0fc0e8ef33f92322c707e4d2fe0ced0e1c2d1cfd02d60c0e2bf7e00b18f0f3f1ecfe220dfad309fe3912e1db13ff02fef2eb12c6f1edde090afd,
f84207252bee12d9f324110c19f72d0a1016f0eaf5fa06fe012407f4251f02170bc52c10082ae3eb1b0317c80e52dbe5f91cfccec20de134060116e5ee233328fc0f020a051aeeca0208faf616d6ec11f3d2f0100ee510f4dbd9ecf4050a530f11fdcee7ff05d2f506f3fbbde2f6f24223f0df26fada2307f7ec03090113180c,
f202fcf4ee06fbba36fedeeff6052f0cfbc9f9f61a3cca0e1b140e0dccfcdefedceb2401011d14f9fcc3b8332cf70fd5d720fb00fcde0206060be00f07ddfd1aff01061b2bf212d018e80a17e4010708ffe605c62bc9d9edf8ecdb23b70703f90b01002f1511ceff120517df1108e1fbca241cfb39d0d6d7f81ffa0bfff5fbfb,
f224ee110b1ab507c02bdf020e2ff8de22ea0dd217e600e51a50e315fa0b1865d70009dfedd1e7221bf9ca1d060123ec14160f06e105e519cee1ebe803f5f900170d1b0d07e7e102beea200ae3e3264b0110021a0428d1fe301dccd8000c12ea0ddaf514060c2b091bf4d925e914ff1ff8ec071c0aece53cf40efaf21a0ee40e,
fba6d3f4f2199df5040af9011b06f707f107f1190f125301fb30fe03fef0d205f628ebd7eb04f8ed1c2912fa10feee2c030de9eefcf731fbff0af5f90d0fe31b03e71ee0dac4050602cc19fefa0efc14f5f4f9f7031cffeeefe8d0ffd7f609e124a3f608fee40ec9f70015fae4e21a2d0023d911d808f40efe080952eb02fef5,
c7e7151dec1318021b24fdf10b0212e2e9ece7f11e1e30fe261211ddf2f1d21efaec0e0f1114ffdbf3232112fefef2fa1101d4fe18ff010827111a08f61ee0fbf9fd17e5eb49fe1bfe321feb1218252f0c1e4c1d2bebf5d7f9e1e2f2eae7faf60bf5041efaf0f3f1ecfd1813ece5fe1e36fc2f1013f40303ebd6000d161f2a0f,
f4fdf6dac60327ee0a0315b6fe1f1b04e50501e90226fac1f2f82607df1ce80aebf1f9f80effc42705d4fa08f5eae814030d0004bc0140c8fae40dc2e5cd13f9db03ea07fde9f5ec1201ea0bedec450c142603eb1712f0e2e90c05c4c5fc2327eac9d8fdf40d0a2b19f2090022ad191dd5dbdbc6d4420be2e5eaf81803183006,
ece612f1ec0131c8272216052306cdef3ab1c604022edb111b0a05b806ec36d80b152ffbff02fbe8e7ed0e0eec0411d40cefeff8efeb05072bffe80d0616f1fcdce211f8f9c80de108090205e7e819f8c70c0c0d03000f0738caed19dff5fa06ee281c1301f7d6dae9fbf91333f92a47ef0a0bdaef06f7cdeaeae102e2080bf7,
03f926ff37e915e8cedce118ed1b2e240d35e81e15e6fff9fcebfd3016faf017e92e0cf50dd61c2ff903e9feedca130a07e0211ab925eb041023ca1005cff6100cf20f15c4f6f22cdc1ef7f4eb0a131416e3fcda10da022acde5f516f02af21005d31dfe28bf26fafff60801f2d40c3d1bed2cb202fcefea00f1dc32d71d004d,
11033136e1fcdc2105e2ec12001922280c0c0fe1cb05f4ceef110cbed0f6fc1b34f3be1bf0030cf6e5cfd2d3dfdc2ccd0011e30c2201f5f70dfcd7071a0c130528dbd5171e0bef09052e1d0b0df2f90a2e2be603f20406fd17f9e1f7de1023440ffa14dce4f702010b0b07e7fde7092316fe06eee31421f63002bac80028d0e7,
06b0fff80c04051c02e62cbef1f205d6bdf32908ca2a1cf6e9fe1009f615ebff0b0d0ed001021bead8e512daf0030dd8fa050ef4d7fbf1c7f5defe03270fd1303637ec330cd522ec04e2f309ddc5c5fdf5d50027e1f0e00fe8e4e1eb0700ef14ee130a14ede5f01b03dfef0713e7d40e1417e7f9ff24a7df37e2de0410f706f3,
ef14200be00bed00f0b53d28de1ef9ece2f7121fe0ece913c5df25ccfafaf3fa1501391a05d729e21007ca0c0e0c14f728e20100def3f41106f4e7ec37131e07000ae7f3f4ee01dcf949060ceaf5cb10c612df02fbaf11cf15e1dedef7f4fce90203e30b1fe0e810e3dc1712eb1ae318ea2eee0d0f1106f03afe000c110be43c,
dae8d0f143d8f314e5ebfde01beee30f1704ff040dfd05fb042b07f41627d7f9e5bbf13b2f02fc07ea020cdcf8f208efee0a27f311d71603e709cff7083404260bcffde9e52910f206200b09efddf01defcdc4e4e3000d02010ecfe10d27cb041c27e017140d0feff51ae224360cdf3edef6f704059dfdeae0ffeeff09ddedcf,
2a2b0c0e09fe04d223e109f311d658e2d80024fb08080911c03d00eb07030fdc1c0505ecd1dfe9e3e415f808e72927f1f0f2d60d09b5e9ed0ce8eaf9f1e7091f230fdc1b21f5e7f3ddeefc1cd319f12333f8e001f5f42317e539f11af405e30d08e30fe9040c1e2900beeccc000933d709edfd21033d1cfb1831f6efc62a12de,
f9cdfe1008d41834d7e104f2d704e2f5f816fe0a01eb0ffed4e4f821dbe0f110d7edd6fabdf3e4dd181cd221fc18f128f2efe1f9c112141cddfcf43dd5e112fcf9230f04dad60c0addfb04d6f6eb102006bef729ed1b081911d4fdd7ec1528d5e9f3f303e60402dcfae30dfe09ebdd0de6170deae84714d50ef4041e0cdcfff7,
121cf8260febd2f4e9f410e52100eced0620c8f00211f4e5e0fe001322f1fcd5ecfecbf91ee0d9ec0ee40535ffff0142dcebd9ebe6e00e32fce1b62524fbf10f36fbc4d1d0e6e4f3e725b3dd0705fe132aefdb0b11f0061efbfee1e602f0120f00fdaff4d805e5e5cb0701e632e006ed05f713123308fdea03f3e71327bcf81c,
2226e0f1ca26faf90cf9f0f10aff0de5abe7f2f904071b23f10f070df12204f4110105ed0f03f409000f1e0ac50117c4c1fcee09e3cc3801fdfc1a2ae3e0f10ae3d8e40ce3fc13fdfa0039e7cc1503f6eb16f002e106120408e50bef0ce9eedfd836eff1ebd734d0d32b0303270d0f390bf8e305f62edd35df02d310fb16d8e8,
d4fee1d9071829f8170b2822f834eef7e910f60004daf4ebf328ecebe5030808ed55d0101ddbccf3c6fae8dee7f21b0a07c0f2240839f0fa2616010808f7dee7e90ee114ee0cfbf2f7ddfdd2d60cfb0e231de9ef1a00fad113e6ec0930f6fafd10061bcc23fdd73a39bffddaebcccc1ef8eaf410d9eb0a000c042beb2e2c1ae1,
e0f60bf2e128f421e60abdc101ed060ef51905e8e7e4f115fd0b141214e6e0f80c3825ef0a2639f9fbde06e13bf0fd01d131e31101e7fa13f031170402d6262408cefb03b61619d6efe4f6d1de22ffe21d100dd0edfaeffff9dadef22e38190af5f80fd30ffce30808eaffefeb1d0c0419e20be1fef02ec2f4260d0f00000a43,
f2e8eee2dc0a09ffe810371ae0e1e7321a2a21191e1810fde9f803ccfad1202a151afa46fbe03900e8e1f7d82d0d1122e106f5def319b4f6dc2bc6fc0702f2f004fd0d0dfbf6feef0cf9081501c9f04441c710e92cc4f12cfb3fcfebf218fac801bc000112daef0a1bf1160315e91116eb04d511f9fcebe305faf5cc2b2508ec,
d1f4fb03d8f0e5fce50f132af7faeb16e31304e2f921311818ef2bf136efe1ff03e8130603ed0e05f91e08e1eb30f9daced30bf8dcfffe2708fb0bf52cf93ad0e5051dee10eaf4e7fd182ee8220aee0fe6080e1ff8140f2026bd2bf2df05f4db4ef826d423f035fbe81801fdfd260914ead5fdeef0e2f6071d10fa181331feeb,
41284a2cecf51306f8d3f0ee1601fbfdc5efe8ef0cf325e3db2c2ae5e7d8000e0b14430eeae91209f60c15f8311d0e20ef0df0e70e1a19c9f7f51be3182403e7e4eb000ff61cfdf1f20835f7f500fe43fe231f0cf718f80ef2f33611311efc1c02280ff10015e2f1ff0f3416fc1533ef0a0c251aded722d3ff39e003df13060c,
1c2e281ff2eaf1f5131b1d08e3f103eb3b03cafa1603054ddef9d9d60120fff828d905011811e602120000230db22c17e00b341204f233f50bf700f8fa1afaf3d9270304fef1f7fe052d26fbde1ffaf9110c071116c20cfd0b1dcc300cf7faf308f2ed0f14f1132ddf240b172eead6f60cfa3be2072c1f1009e9f7ee16cd272a,
d3fbf1eef11a2affd708faeb1cdc12d8eebff3ffc2d71aec04ff10ffecea07eafd24dc0fd1f3f6f30adb0e06f4d5efc8eae91407002adcf514f5cb120cf129dcfce6de18f02508fe15361a1cfaf4c903fe28f3f9fc31faf4ff00cef32239162cf62adafafd19f4f30cd5150ce9da184333e2ccfc14f3fb14cbe8fce3e40fdc28,
ece40bd714c61500d9e8eb232b37031e0612e0080ec9f3fffee833bb091808fcdff9080926d5fc0e0b28f316f6ea15124e2fe3ff2405ece00c13f7e8dcede61f26141caf1b111cf31021e703fe0ecb0127db0ad10cf7f3c5fa270eee3e0a09edff01cbdbf8f005f1ec110fe10c070f041cc806ebe1dc07e806fb08f7e9e0cd08,
f707ff2fda060b22e0b11ae6eef9ff19f7f9f515e0eb00eb02eef1200809f70b1ef3f93504fe36a70dbcfef8d50d12ed03eb05fcdef71238100305ed25d62adae1f807060ee9e7f8e8372e11e10217d9051e16f019f7f50e350dd4010e21a921eeed04e822200ce0f204fe1e2c06e939112cbdfee71df9b20eed15ed112fbe1c,
f91e1cecf731ef220415eb0401f32f0a04ede0e5e3d3d30f21ef132dd15519edf7e1ee0f16e9e8fe4a1411f6e5fce00d1ae3050df2fe20ed35f5fae3e72d05fbdc14012f1210d707181316f5090af6c90cdfdae8f7230dd02d09f0ed12e814e4fae00a1604e9bfeacaf6120bd6fa094f1e1bf9cf08163ce4f73000cffa121ae8,
0c01ef01f72bdfec00230bda0de502effe0926030f290b0910ef20f829dc220a13fbebf9df091dd9dcfa1236e1e910fef8eae5ef140aed19150b1ce41ffa0120e1e9e82bf9fd180b13fddfdb16e225341d24e81a20fa17e61a170204110de83b040417112344230cf2160312e4e8f91f232320cf16e514f401e4d8f1f3eddc11,
1de8e2d62609de00ebe70cec1d3003f7e7f4f609d618c3c913070cf40203d5ed050aecff28f4123809dc071e15d907ed04fb13290720280425fc23ecfb0806cd17f402f7dbf9d314ea00e01a163306fa05e506d7180cfb3ef601dbf6ebf025f115301b160a000de8fe0b2004e6b7c2fc0cca20f5f8e4f4fdf3e309040f2de916,
0e0013e651fee22b2129161713fdc0fa1b030c24e21fc92833e31bf110f72c3a24f9fbd32209f9ce0cec0e2aee06f0c1f9c91a092e19e5d125ddf3e8f4d700cc2021f7241221fae70e1b1538160d09fe12e6f012041be9bf0d15fcf40e2d1d0ffd072de30a00ebe7fce103cfed391c0aff151fccf3f22516d803f30908f40a16,
f334d607d10800032cf5f0f7d4fc03f1111fec152109fa071c0adf10d6070013fd030b0b0dfe0ce1e9022c1315ed0e121e0de62812e21d0fecf2e0f4f200292703d6dcc0010b3814ed31060ff4e407f0f0d6dee02f0106f8eb0adb093ef002eb29d325ca06df0f02e4ecfad4f0ebff1e33e30328080bca2447071403ead92e0d,
f3f6d51bd304e20a07ef0220cbdfea35f3ebed11f0eff0ee2824f8f2e5edff0eeafde9def2fee3e71af90203b40b22242aea0ceb0c1df8e3f3bd15ef090704cefabbf8243a1301f511f7f1013204f31d070dfd04eed834f622fce82127e6271a18f60df62defecf02bf005f32400c5261ffb03d1182bed021edd22feebf40af5,
06e8f80502fcfd11ec12d00b00154d2a2109f3032dd0db2af3e71fedddeed615d2f7e1e6f321e8d5fa31f0fbd9db1afaeb2a20efeb00e3ff1508e1efdbb413fadaecccf7efebd4eb04e127cdf5ebe3ce1d1e1a25d30bf5de1108d13fffe4f01608e32a1aee150f0dd6061be8030916301200d825e8f7fd101dfbe4e711f00fe9,
b9e5f2f0e3bfe9ecf71d0302f6faf6cf0ff5f9e701f821ea01ffe9f9e8f7f8ee19210f103118efe605eaebec0cfcfc04e5001fc3eff638ff00000c3a04f927ffc9052533e4fceee2df222606ef1f2cdfb21df502d2cf2e0ced0e0c29e4c93b0522fb35173204f4cafc07f3faef1700404edce2e601f4052545db09d3ed10381b,
1fed09260402fa02dbd71f11e1ee2625def5f9d0e123f5e92ef1e52912deeafdcf10d314e1fbe1e8f5fafd1d02fb361010fec4cf0efb02211eeaf502f8edee23f30706090109f8dbf009ed1a2aede8f0d90d19192be40000e9f6ebe9f201da1b2bff0a00f708eb33222304f3d9e9f7ecda27e3ee0a02f014e4debf2cf1f52c16,
11c5e8d7ef0dfd11152bcae9d9ddeff8ee0c2113d0def8e6121cfc09d7fbf10a012e0de1c4dc08ff3804e32f1705f5cc082e133824d6f10ba913f3f521fd131adbeb0b0ddc451ff2fa08e3d30ef12326fb2501f028f90eedef06e9f008eb112a0013130417edf613d5084301def0ec21e1f5e6f706d8e5091108e10f013c28fe,
341c2ee5d80af3c817c0e7f5111e0c311c2e08e1111119effd070dd11d2b0d19d92dca0900daece3dde7000beed5fce1e620cae911e314ade8faf0edffe42af9e2e601fd0dfd16e4f9e6f002f3f922fcf4fb31ee1005d834cbdaec03d010ce0806ef1a09021ee7eacfec2a13ebeeee020c2a040124f9ffdae7d5f5d8e9002023,
e6e9e32b1815f2f506df17fafbf7d02d07f0ea1c18072afbedbc11db2200e000fc02f42405081d0711f62fe323f010040ff8fbe8fae7180b0d0aff0a2aeae83010081c28fb021600fb1803ff00b21eecdafa1f21ffeee40dd0fcf0f207dcfa0527fc240d0bdddecde60ef1e7d9d7e52b101ff9f02107f4ea08becd0111f60f03,
10e1ec0c0120250f0513ed0fd80518c0011b54d1c6f9e4112bd715bcfb3be1e3f6c2d80b1ffb0adeef0efbdce5ce000efa1d2aecf1e906ead4ec072aebe5eae20ae5f52ac9e11218f50929d2f9edd240141b3dc8f104f5f1f1ebecb5bdfb05e1250a1b0210f42713f10a020e0af5ec18d5f618cfe921142816f3f1f41af92732,
f90903efdd05c918d0e6fdfa0bd2fe3b34ee670a1bebd8faf2eff8fa0314dcfce011d5f9fae41ef0332a2129ddfa0ce4e302e03ac21c0a1df5f3ce29321439fee82bff23dc1606fb10c40ff20dfb022ff31af025111226fd36fdc9d80c33cc190ee1da0cd00b0eeaf520f359100514050b051c04f6d70606171cdef207ec2500,
08fe12fbfdfdf10206ebf0fcf5e80800d6051a0912150ad81bb223f9d3f8dff1f804cd14e318eef80a11e8eeffe5130d0fd11707d4e248100bf9140cdae8ebe6ebfbcf11cd07f72523ccc304ffe0f3d8daf3d5351b27fc2dfae5ea01c60e0e170ed3231effe71632c9032dfa1c0ef2d209d619e40bf6ec2634eb1dddf1133606,
fc29ff1e1b0f19d411df1218021fbb39f9123322e5dff4f721f5f2f82e1f02030b1bdffb16f8062d0cfffd1d0fcd08f5200302f804dd0eb227eb1628eee3fedd28e4e3f0dff2effdebf029f1ea01f2170e2f0b24fe22f70804f5fdfaf1b8e2ddec01fc290b351d2d0f12211bf0f9d3e6f5dd07b50a1deae426190f34fef90ac8,
f8e9e746f10e07fefc00cc1627152642ff253a0105f5dcdff100da5f0cdc171601e50ef2dfea0bdc211103da10f6d5d52202f20e2318df230a023007fafd1bf5dce8ea241dec00ecc7fe15152bcbfcd8eff533062c29f8f80efc1cee14c2ffdaf62ef009f021d4edfff6def0f5f1fdda08fd4a0dfe04d710e7bb1c0bfcf9cae1,
f30cd50bed06dd29d419f0ed10fafa0715d805fb000ef2ea15210f36fe0ef8e20f0d03eb451506f9052bf3f9d4d0fcf3fbf101fd13ece91bf30b0f25eb2de4cb9cf1c32fecf800df412217060301bc28392d2119ff130701290a0f10eb200012ebeaefda02dfe3f6eed4021d0afbeffd2d0a0237fe2319be16e2f410f23b2b15,
1a07dddee519e4f42ce3f2fafcec142cf1d112ed010cff201927f4e8e8e548bd0235ed0b291dcfea1c1630f8fbe2dcebd7faff06f0052e00eef82f29260ed7efebeff5f009e4031ffd2bdcf51900f1e9d7fd00fad711dde3f2f7b0f144bb1510f1f5e8c9fde611e501dfd3f5fbf90ff8ee0311ec190905efe3171804e61624a9,
0cf518d3e601f6f6f0e623061213c91132d0eb0be8ddf1b431f5ffef2c10deb2fbf2fcfc1109f4ef1dfb270cf4e10304d305e5fff02010e10bdefd04d8fd1420093ff60f4a2a27020df7ea0c12f6ff0c230b0beffa131dede701072fe3e5eaca1beaf2ee48130326c618d21af9f91a23d2d717ddfc1d2b020a07f6f729e3cb08,
e0ddc704e7f3040de216ffdbc6f029fef5fa241208e617fced17ec1805030ffbeb1a0fda0a0915ededd107181f272f0e1408c4191f0010da28001e01ec03ecff2804f8edfef8dbdbffe3f7fe061416fcf919d8f41af707edf6050320e625325417f901f5ed0a031109e91216fb10f2ed1400032bc4ee02fd0a0f1910e0ff0d31,
f8130407ff0dffd9fcf62008f2f9e205e513fbfcca3a0505f9ff2417f0da0d1ceff4f2fb14ef09ecfc020b1125f4c60706de03ed09ff051a10fcf9242c1b0bea28f4ffd7ed012dee00fef4c7f9cb2cfaff16ccfb10fad921f7ffd53f011ef31d0aeaee23fe0324dad4031d2cd537ccf21251f1d92544fce7e934011111d0e6fa,
321925f4220015f1fc04eae80bf6cfff0501dbf8e237f7ed1f1a112d1310fff11402fe2d20ecfeeaeefe2d1514d7161b4327f4c8f51417f5f005f4cee1fefcbdfef8ff2317db10c31805eb322df1dee5fc361dd12e1dffe2d718e10729f7ffec172a3d340912f8f311f43f2cf10e0ff4f3120717f40909e953cc1712f10512e3,
e9240eed0711ebf7daf20c11e41e07fa22fd121316e006162cff000bdfc7e507e540e60e4c1314d5f1ecff09f21516cefc281114e9d92603f513a6f2e5ebfef609cbf0082714fed82ad9ee2cfdd8ecdeebfed110fc09e9ce16ecec2549ec0ff1fbf90dec21fe29fc29eedbd5debf231f1e29f0f8f50b08f822dafe0afdfbe121,
ffdedcffeb11f8fb343c01d6f5d72e35d9c7f11b240cca2bf11ed8feed0ff64dcecfe6fdf819def52926e818eeeafc02e703ee040e20dfff15e411e53aef000de2e82e0df61623eb1a1cf3fb2704fa1bd004f0ee2f27c8fbe82f06f1f5f6d612e508e1e6d9edf808160f1ffd1514ebe72cc930f6f10af201e604120bea12230f,
f5fafbf2f0bd100bfe37190aee19140adeeff6010f2908f2090d0ff3052fedf9e2d1e60609cae4f816fadae3f30120e7fb13fcf6eee60829e50e0704f6f9fe0bd1f7fb391adbf5171006d7e3fcf5fb2aeb04e5f3f1d5540019d80b9edefbfd0e10cbf50df0fed908d5180ed117f6e924f30cfd15ea06f8ebf8fc18ea14f429dd,
0e0921070ff61adb1912fdd4f9010c4931170ec9cde8deed01be2c410417fe01e3191408e6ed24140af4def81c25f20e25f8eafbf707ddd623b401151aeef1d7e008ec00261ed8f3f20bfa130711e1e6f0e6e813fb03efff0fc8112a0810e0120af7f915f4d71c34d031320a2af1bff0f55b10aa11fef7ed1f00f33b1f00bf13,
330313fe060f1c23e9f9f80a45e0e201240d0b081ce1ece10ff5f514080e051bf53e1f1e02d73408f610d5ddcbc2ffe42dd127e622d7f0de00f019e3ff0bfee514012506ba17f9122fd9f60fe1b81feec916eff3d0172601f3e30908d22febb94204eaf505f703f2f7b617021a080a182ed9fcbf02b9fc09f6072207e8e92ff7,
df001039d7042cfeec1021040e012629f0e82a00f0012fe4f70011dc041a150efcf2f1fefcf3dde9fa3c1222f05b27d5eeec0cfadef626e5fddde6fbfdce09e30606b810fafb06c5e3feebf4fe2f020decd707eff9ccce1317060208eee9f6d9ea02b50d07f8c2faee0ef8d9fa0623fd12fc05ffca063ae7111ff1f6dbd8070b,
f707cee415de10fcf4f4d8e61ff70d17df0419f8d201fb0d0bf216c2db1e3c1113d7fb05e9eb2908e60e31e7d6de0b1919dc07ef10f3f607ff01f5eaece4db13f30c0442d600ff2604f01c1a03edeef34bd9edfbdd0ae3ede10223001a06f3e60de62eff1ad5e6312ccaccdc27e6070ee3baf6220303f406dff220040ac753cd,
cdf0ea270727fe2efd0538040f15fd0af9012fde1ce1ecfa0e20f7e40512eb0fd9d1f8e2d84520f8d122c8e516ee12e70bdae71cd7e7e500e9031c2d37ece0d9e105cef20b1cc7fdda0f1b3aedef0df80cf2d1cae53d1af1ebe53a0afe39edfd22e6eefab5da06fd1cdff81de209e3f8fded33ddefe046f813eae6fee5d214f6,
eb01041fc9fa1f20d9d9f7e905c01df82c0920d9130920e51be932eae0080e02ead507f2f8dffeff16f9f11ef908e70f02e8f3022436e7061d4416f50f030afe04141c00f9f4bb11fc07d004fbeaf50cdeb728f9f70a04caf31b1fdc1f13f7091bffdeeef5deced606020c13d0bef3060c20e1edfceef8140a0004fd06e930fb,
e3d916ecf4f6f0cefff0eafb2ffcdaf0fc071b2efa00b1f22e1d34d1d33708eff61e130dd5f22308fa1f17ec1ff9ef0cecb9031312e6cd37381b320defcefbebffd5fe1006f80706d91be5f9ff2c10dc172bc30422b4dae724e70b3bdd02f40207f8fa16fc06d7ed1ef9ff0b0510000702f132fee0e1ef03250619f1f4e6e3f5,
0210f9fdf10bdffd07ede20ae91a1105ff1503e6fafe02fefdfa160f0cf30e4b03f6d5e518aeecdf2de2e90b08cc2d15f82434ed1ffce21827eb1d08ed06fceb11f4f02cbe15c5e6fe19320cfde506cf17fbe9ebf0052e08fb0bf4c3f6061432decc05070e0be8f0f2042209d31234140e21dcfc24d30aecee04fb071621eadc,
01d60aed2004190e07fbe1e903edebfc06d309edf81618ead6d3ca43121d0bfbf00f0319e604efe23f58f0490100f529ca2718ddfbf912f9f2fbe31ef2f6c133e801d2f80ceee9f6dcf301fee6f7cb2515dc1a32e50027d9f0144413e6cf1002faf2fbd12e09cf1d2c0215c20c122ff8e8eceb0523eaffd814ed1f1bebab3c19,
f4021ec61df1f8feeb16f4dbe4db24f6efe0d8c009cd0eeaf41ee80debfbed2014edcd1ce7120303fd321e0dfafd30fd371d0fe840ee0d08fc041f1806113de6c5f7d0de21c9e72cf8cb23040af70305ee17f60c0dd621fe01e7f8f61df4d5141029093afc1d072ffc0523f118ccf314eeff0ee8dbcdf5fbed27ff170713f8f2,
eae23407eafe1109ea0613ee06fb37f800fbf8fddefb2be028cdf3fce6c109e0e11de135b5e501c3060de00dca391cdfaf0bd6f69b0c1112dd050ed0122c0626e7f9e9ffe3fed7e3f24529d5d1fe070c1906fb06d8f4c6191c1417f9fbebf6f4f0edd31c060f01e30709101c3507fb0af01a3e29e407eaeef2f9cffff628100f,
fedceafcdee93b23d8eb0fffe90d19acf408eef507052efdfdf80edcdcebde203b03110208262712f7e608e804010fecfa4c330eeeeb10ef0103efeed227fcf70408dff71c0f08d9fbea2cd509e233afe402302fe408dd0d2d12da09ede4220a12032e0fd8d001160eff3bf3e0ff2002f0fe14f6f1ce0fcfe6dd061b0cd0092a,
12e8fb13e3e4ecee041a340bf20deb22e1f206ce45111d3e100e01dafaf5f1e300ead1dbfaf30a0629f2df1fc0eb09ef00ff08f9e3053cfc0a11f90306050c02ea24f5f201232208cff4ef17f2def6e7d3360bef02220b05f2fcb3cfe4fdc5ffed121ff513d829e6f402130e1bdb07eaeefef9f0f4010331f016d0f718473b1a,
e10cfc0ed216edbdf3f7fdf4f70c19e70ce23cdf0fe6fc530df823cfd81ece2000efd91f0aeef9d6f3e6f20ce0eefdbf08192020e5cc17efece4e12006ded7e11104e01cc003f3fd180809fbf6fe381923e6ca0a1b091c00f8d825fc09f511fbe9fff8ef2450ced9ea1c4445ee63c7fae720e2fb1af41f03fa06ee31bdfd2405,
f6dcfafffff1dcd3e510e2cefcfbd4deeedee4ebfdda1f16f6f61a081918161c21e4f51a16e2f7f3164be9ea1cfefadf3018fe0117f61c0c071811ca1412240d33edffc201060e18f9eeec0edfe9ece12800f710fbfffe0f1513dc31f6df1734132e0ef10e1c31d71c1531f7d1effe0f1fd31ff3391cee000ce50c0121270d2b,
12f3ecd95834f12af8e2f429ec22eae5e2f314f4e61233e5191e1bed2d02e8fdf4d513110114dd0903de0a3fefdc0929eb1802f8d8fbdae8041e1d062cffdbf40c0cfbeb0b0a14adddeaf0f32be010feccefe1e21ac60edf0af5ec20faffebcc2c091e0c26e3f62aeee0002b0c2aeef42418021f2b24efe0dc060de4e1f813e9,
fae5e9f5e429fffa0ed41115ff081efdee0314f8e4ea1332ff160e09eb21f301ea18fa14eeff290de717fae51fe4d5b0042514efdcfb0ccfcd1501240d12d9ff0fe609d300e6e608ea361cd1f3fa1ff3d707fddd01ebffe90cdcdbfcf0f6d4e00bdde0b3121316f807d6f4f1fc4d1df7fc1ddd112e1c00e51506e60d2614110b,
effd21e9fbf3f7d8e6334304f7f1ed3003fefde82a110deed920fc33df01381cf5c90329f50ef73f300026efe2d701011af3fd14370de90600041b25c4ef150d0c070efe15181ef8df06effff1f21ffef8d304f3f9001825d2ffdff003093bf566020df3d7f6f7fff119edf1f4c513e60f1129cd060cf4fd2dbb12f6f4ea1322,
fed219eb19fc23e601e60a20c6d11eefd22ef3e9ef082dfdf72c150d10f3ed1e0c1e251526fef8dde0e8bac8fd2aeff60a2be3e31802d52d0df3dbfd0c1b08c931001efc0e2feae82317410a102d05e93f121cf21c1e191c0426fad61a32dff8d50b0e5adb10ff180526e8c4cbcf18000d14caf909fc06c7140bfaf6162ad9f7,
2e2406f1f10301dcfff524f91b0fc22d070e0208de01e112f9f4ff1edce50303ed090a051bdcfdf302f80200f7edd90f3af42cd700e32b10c2f5e40110ff09c8ee28cb0518cde5530cf1e1efd8cd0e0ce612152400e821f2fad3073c38ff0621400ebd0c010000d7fe31f1e1230f2135e6f8f7070ae130313c2424e917be09f2,
f1f6f5060ced1ad71a3c0dfa2df125fcf50aed2503e7f6f9ef100506faeb02fb270306f7ea3016ea0a1cfddd0909e3eaf1f3feef0919e5e203f103e21e002810d2fa174b151ac10eefd6d0da1be8e3f111f7f80e15fefed5ecd8e0022803f416c109e2c2ee06ddfe0b1a04f0f73fee46281e15ce34fff01739050de3ed2406e0,
19fbf60732061efee8150af012edd6fe0606fa1337f8fa41e6fed6f2f004ed313bf90ceed8fcf43b2a34d707efdc0c24ede7f80407ec1716251220110de319fc0215f2f4fed8f2f52fcc230f141b09ed190aeaf309d3fbe1e9e1f7e3f4f4e2fffa262400d8f713d50ce2ef361709fbf20d392ce61d34cc03110e38fdd7f4d8e1,
0b4bf6ebfcdfd0fd20f0241a14fed1cf14f9fd0213f4d9eaecec07d9ce3fe71af9fb00fbddf0f9e4eddafff6eff625e1dedcff31f3dffde8b1e2250801ffeb17a94cebfb34e6e2060df5000ae021180df4d9ec2bf51dfc2efa3011f8232416f313ef09e0eec619f30f0a06e104edece30301081ae11ed835e61efae9d10608ee,
11e4f7e424d5fa03f824ef00f4150c2500e117f71df80015283dffecc8f722f4f5e4efe6e6d8d8f90030080afd011449002b0914ede8132c1beeffd908040ff5e9df160f1116071cfce73309f7fe1b1b3f15cce3ff1f0feb4b1dcb08c3e3fc090d0d112507f21ce3010802ddc0fb09ec11d6f1fa100bf2e4fa2a0e2df0e02630,
ecff1b0e0c4ff427eff008380b270ef1eaea1423fa03271b09110533fd291dcf1600f40103f217dafcf406061b26defbdddedbd213d808eaf8f6fb2af1fb14f6dc07080202eb1ef621e0f40c29161dbf2fddfd03011a0f35fbd3f0084137e91ac211191d0231d3e74702fc0f0f28ecd111ee122d05fc1eeaf811e7f702de0708,
0efae411e108ffcff513ec2d28c317171eff2414fa0a16f81623bb31d631fe0f0a62dfbbd4dd0dcd0cfef1f9040d0efe292ff90732f107160702e8d759e5fe08e3fa17ecf908b7fc18f1e6380ae2f6eafdddd1e01400e9f0f0e5e8ec44eae4cd29faf8f30ad503fefdf1121bf8f0ee1715001f09f9e1f6f2052203152006fe04,
f7efe20c45ba27f3fbc021dd19091d1b013d0313ce18e5f61d0fe13e22e82d23e62d3a08a8f20a141f0cd8ff185a0815e5f6ea02082a0d090df3e6f5e1fad9def3cf020aed22c5291713141a1f0d3fef1ae8f4fe02f9fdfb102525e8c21ac7dd23fbdcfbd813140708fff826e8e5e7cf23e6c506e81ad015ed033233e313fe52,
07edf51728fded10001425f7fcccf5da05e7100ce63af6231b0da3f50303eb0be9e61c03f1cf22f615fbf01818efde2ad808f6ff13021208f7f11ff1fcf8ccf4f2132b0ffbf2481be42ff5ebda061e0f0134f3e0d7f7030b29e3e507111630e82003e00227f5f607160d48ecf1cb29f3ed1006e5e7120afedb15d7eb19f71a02,
eb08f0f6c308e8eff6e5001621ef2bffd4e8ff0cfd030e031b29bcf5e31ae8041ef519efc8160204e5fcd3e8e8cc041800fd32f12833ef1a201e0bedff0ffb1507d1f1f2c9f40bf52bf1e8211b132af10017cdfafd0eea402ee62f3af139f7fd16f40205cae104fcee08f11f0f0bfffb15da013521ee1df72ef309fce7eed8fb,
e9ce091335f40ef6dd0e22171f3226ed30ece9e6f5f006f30ac1eee1f4091e2208f118eaf0fc1f1cbbee0f10f1fa14d9f7c60cef0e3ce11b150df3ea2cdb390d170edddfff0fed09361924f2edeedcdeaff515f20cf22d000fef18022111d1f41fff27012b20450ffa37c7ead80f03e4e3e8fc1f3225e7243119293ce3112212,
0118050524220fd3f82ce8e3fd1cecf9e60701faf22bc4de13e82f0dd7e10a01f81ae513cf0aed1717fb32062318d2fded0ae10df5cef2c3f4101d18c8db15da151f101400e130fa0ae3db171bf3152f2ab905dff10408231e08e0f1220b0ad30af110eae5e6c6e026e60125ebe3dad401050adb240deee70cd9161125e2fc00,
18e5daed43471e1de00d090910d70629f210fef82035e610d422fcfa15ef13380ae0f6dbcff618e523f0d1fe0603fd2c181412fdfef7fa18f6ebee00d817f5f204f5fd381b110ee51fe92dfd12440e0c2bf80607d31dedf90c33e1f2e91be8e03afc051217fb0b042a16f0e3d9fe27f906fa01d80f2303faf1fb1bf8f0a6fee3,
04f6011132e429e516091c1bc408150a0b04dde43b04e51736de1708d521f323f7ec05f22204032b0be0ed25f90815f91ffe0e331105df17f2d8effcf5d2f7fb160e0924f1c500c2e7e8042fd8eb263a0a0ce3230bc526feed1be9d4dd32fd10f7ecf3edea080c0ee307000824ff0a0fe0e1060a1707e8fd0e27052105e0eaf1,
10f14809fcff1adc0d3518170c3120d8f0e1d02409fee11517cef807fe28f6ede5d31bfc1de32efb1ff7e60327fa33f517d80eeee3f416e31ed51ae9f6f3fefa14f211d7c914030616f73914ee032ac331e8f1420fd7f4e40edc21e3fa2ef2e122eaf81b231bfbda220f04f5e5d7f9d519fc04d8e424fb1d0c3cf5f912fc3bf8,
fab92dedf71d00f5f700e9f50f13f3f40c1e08ec08e6e6d4d80b2120e513fc0c1af20f12da17070648f0163100e8fd092f0dfd0222970bf5e0f1ec5910e7db13050cd709030658ecd4e3f8ee1c02f31b01e0061bf528cae30c3afa19d0120117f0229fecf7befef8d43aebdf00210f0ddf22060ff0ddeb1c012f05ef37d323df,
09ded7f909f4f3cc3af4df0418e50e1927f22a38fe2c02d32816193de2edfd0c0ae71519fff30a0618fbfbe126f620e01bc3e8e9fbf1ccc2d51116e2ee2013b83207011b38e20821e2f4360ce6d201e2d221e1ec06dee2ffea21eb17014e08e0f50eee0d42d7f2e51314e4fa24d0ec0ac206ed04dc03dd082a2218f714d3ed05,
dced1def23e11bd00812dd182219f5cef1e6f313311ff42911001c010dfe000a180f16edddf5d6fbe543dbebd1e119f511f40801e5ec0700d806ef1eff19ca25e3f7fdba0f210f370ad1ee080c23eae8fd0203d718da5132e814a7f321b6fbf831f40de000e0e432012203fdf4fcb9f8fe010d12f1dffd02d6fde500fc07fe23,
dc363d10fb10231cf1dcf410d1d8fdee23f733e71207eaf7de1df11fed04eaf3394bd90bf7fd1e0dfc1ed409030bfe03130cdff7fbe3d2e5023a0109ec1504fff61bf6f2e1f4e215f71c0dfbf5f7ecb1214909e71ff900fed6e3fed9e6f70a4427ad17ed16c016f906fbffff1e0eed3c1455f000e9332ffbe1cfe1e52f1b0dd5,
02e0ffcdd2f404cf05f816e600e1eff2d0dfe5ffe60123e6232c050c05fd0ee72a37ec0a0202082dcc21fbfaefd6e116f01adbfadb1a100cea10ef30ed1000eadbeaf7120022db02f3ed19d619e9dcb4f1fce806d821ff0eacd73629fac9dff9fd2aebf9e930e3f40b00ed2801d8fbddf0ef0a212e27dd04fa1f3d252b09411c,
00e11300fef8df08daff02e90af1c3fff61e00d2fdd9e3d11a04fae7f802dfe31e12fb3719c142f70becf6f0f5fb0d34f714cffbd40ce6cf32e2f9f4d9fe0905dcf313f9fe1d152ae9f00ef807eb2de1fcd2d824ff1d18e0e613e8e12cfef002d61505f4ee4217d70b2b241f12ec04fef802deef010f09bf11f1f32203e216c1,
071424e7eff322c1032a0feb1e35160a0002fb191a30e8e147fb1328e50cd607fcf801f6f3d21e1acf0ae2dbec2ef0041330d9ecf01604b51e101ff8f9d11120102cf2e10ee8ddf3e4d9cbe2ccfa11e620362e10ea0cf1f52dca1d0aeedbf214f1010717e106ebc4f5172c1320e7e9ead2100ceefd192e15fdfe1ff30e0d1508,
f5d91a17ff00cc2fee53edfd03f432e903271913031123e013f80a0b0504e3cc14f2e30ef3cc3b231ee6f2c7e8effc2a1418140ffbffe421cadfeb020de804053fcfe7c60ef6e508ee26e237efff28f908e4080ff5e808041fee5befe2fee9182e152a1104fddafec317fbc744200e221b06e116e3f2dbefa2eb1efb0df13aff,
060d14dcdf06080eff04e51a1103fa2c2f160ed9bddb13fe1fbcdd0a0fe31719e6fafc18edff0c2ee9f40cb8e22408c7fc120dd503e9e2e2f3f2cef922010d0d0a1eeb1714f01422ebed101014efd4f9fb20e115f90aef00f1f5f61005fd09fa1ff01ee5f6f7e11907fa2f0efa05f1c4ef04e8d312dc13eee0fdedeb0fd30717,
dc0638feda090ff6d5f5fd0501e8ff3d0c202018f4fff20e1efd0cf1111310dab9c7eaf0f3d013ce04b01dd5eff40efd0422c4f8da0e221a1dfff6c0fa201cef182fe53b03dfe4251be7083f06eb3bb7f51fe6e2cc45f632e10fdcd6201cfe0c06fdf8e606f90f3fd3fc0aff070de9171a0918effceddffe0238d6eaeffe0409,
f333fff8d51901e81d001ed516f9f8ecd40cf3dbdde6f8d7f32403f909d6e4d9f419fb411a14d5cbd606d1f7f1c6190717370a0e0900180a5aeaf2ebe7ef00f40fd8f817e1e222ddf30502d5f60c1e1c35f108deee0cfa4112f61434050df5f01fd9d9d8ec09fd04e3071e14b73c4307f410f3fef129182ce2ffd81809c9160e,
08ead02c0b20ec0307192554c117fad61d17e0d5dd1a13f32025f0f931e000e80011faf917f30506ef0c2ccfedaefb11f8fe1f2ff22607d326e20712fa1018ea05d6d6111c0fad3719cadf04e8092fef26f213170602d4fc56e9f904f0b6b91a42f9e1ffc2041ad9f1fff2e9cdfcdb23d812f9c4e3ff04d90103f20ee5e10cf8,
f0b903f922c54016dd1cf316dddf12f4fa2fe1f8001afbcacfff551900f9f4f146e6f809f41a0d13f806fcc7fcf9f0261ee702dce7ee172f140a11fcd30a09e818e40af61103e709063601131cec02201404161e04df022f001ae5dafbdeed01e7ee0efb25e01cefd2e7e5110109c51be702392005ff0218de04f410ec16fecc,
fedaf6dbdd14e11fecf3f817ede2f2fcdc22f6fb31fafe2be0edf7190302131a1405f6e6130a03340338fb16fd4b140c092303ff08efd30e231bfed1d7fb2203c60627df0513e037f920ea1a2b3b08e61ff1f9fe1c10f512d2ed28ab24f9faea1cfa2ffcdaf21fffd819ed4607cf0a17e4d8400caefe0edb19ebf305fff1f7f8,
17f2e034fb09ee321febee04f5cafbea2bd62f22080703ec0d0cd9ec0e2c1cdce5222532f501f01a09ef042825ef0efadfe51c1109fc232dec1021141b0b29b6132c07fb03e7122404f0310727f9d2161ad2fd26f2fef2141ed5310506f308021e14ec040ae513e00ddfecf0eefaf419e2ed1ffdf11bed09e4eee0191f52e42b,
d4002303f2150702031feffb1c2b0dfcf126084621efc80ae7d31d0509d110fdf5dd20e9ece935160f1d0e40fb21f135fefb222dec0b0df8fbf21d0b09ede326cbea25ef5ccadaf5e401fd0e0be7fbe70711dd0eef26ff17ecf2eccf07f717c2e7dd0de3bc15c6f7e30d1506e90bc930e90f04001322ebfbe636e3ec1200ed04,
c802e6dddaccc741330a0521e405e71f20e4ec07e64126e0f742ccee0cf43c230a04c704010cc53ceff208060becfcd2fe06e7e7e8edebd827de0713143910f9f81415e5ede206051ae50c0afcfe190df72cee1a22f3e0e223dd0c180ae80c08d6eb1803e7ea100f15100f110e06e417fcd00b210df2fbfb240a2147c710f41d,
e80312c1a5de082a13f9040cf44018d519172ee4110629000b16e4fdf90116212e1efcbdfc0a02ea19f31099f3caead81937ec18efebe4210147ef20f627f230dd091eff1c26c6f01c08f20308e0f5e007fe64e314090c02e0e2eb1407eb050315c51508130210f61beffff7cb18ed0fdc062ade22f021ba23f602f9081d410c,
07e0e51bef0cfa0cea28fd1014eff629eafc1dbef8fdca2f262e0dfe0109ec0d2fcf2ee809fce7f1f9fcdcf7190626ff1ae4f81cdc1f1c25120d4115dbffd9fcf30031220c0df10dcc05e7c7e214e001151a070219faffee02defce322ff2e04042ae43912052a2e0bf0d74f0c11e31b00fdf7e5e70fef04151a0602130ee31e,
f520eff713fc1402ff4611e6c1e5ffe512f5170a173604331303280508d2f025211dcdfd1526bd20f4d428e7c5f42cd00ddbf7f6fe10f0f80e0718fbfaf2fa1412d6f8010207b8eac6203310e0e3db1fe4e8f9033b1322d4c6ebe90121033404f8e4dff0eae80acf2afc200ff212ff1cf1f315edefff0ec721e62714f8f8ff1f,
cce1e7cb004708470209080ef6dde4f7075006e618ff1c160f04023c1700cfcaffbc15e90c3b10150c05090d161d12f20d1adbf316d600e7f6f00de80c30fc3b20f6ea2916f8f8180be0020fff1010e0c2d9d4b501fd1c1eece3f506ed15d8f73ff6c605e70cf02bd8f0ebf40a0c03040a32c80a02dfe111d8f80ef8eaedc3e4,
3402e5f6fb00520b21ff1cdee6f61504ffef28d6d8f7100cdb2c1cc2f305f82cf6fdc9f80ffbe1fa0914d5c815fe04fddd11fe01f50ff6e312e6312cf40af10804fd1f0bed0ef82207e8e9e8ec09ccc8f1fbffd3ea5401e7d802c8f6edf6f2ec1419e704eb060602efe314ee16f322021bec2c072f04eb11020625fb14d0130b,
2735c2061621ff1707ebf907e0d6eaef06090ae2da2c0520251501e4d9f6140dfa092ce4d7c1fa374625f8fa26ffe1f9e90fcd161304c01e17d93ae702f5fced08f31f081de013ea132b05113fcfe11cfe1b07000ee7dbdfff2d38ec0d2f1cf71802dbfbeb01022245f930e90ef3ebf7e500fcfb24e10efbdbf81ef905d6ddd1,
e9e415ea0f030d26e424d31df7f41c39f707f2eff91300faf2ea16250921f9d3e612f8f7cb1e01fbd8e3dd2825fb203028df0dc90eec0d191fe310f7e8fa06e10c39d427f905df0f21d3de0221edf4f0d80fcdf138fcf9cf033033eef6461d141de307e9c6dcf7f202efe4ed020312cf0c0ff616e7fdedd5eb07f60d00120606,
06041efe212e2aeae7f502ece300f3ea040cecf1fa15c60f0febf8eac840ef3de8162306fe1bfde9e8efec21df0211db2404f1d0260aeb031dd5f0f6d1fd3213def1e9f10929e6e6f026fe000c00fcfd34f1f4181022ff211710eb170305e5fefcde320b27290afc250f19f9f244e3feb2e9dbd5171af6ff501c1c01fec70a34,
4fd0130a01d9f2e7df2ed108f0e41b0dfed5e2fe2512e51ad9f7160ace043b1fcc1cf8d9f52b1a0edce205eec912c82501052017342515dec8ea0003d10cf21f100ee51be010f1e7052125f90a0d05f6f7f20a28d12ab801e20c1903063a1a0f20f5f1d50f2f1becd0d7b1d6ec070b1c0216d70a28ebf8fffb06d2e90beae3df,
c22fac2a200dfbd712f409fefaf40319f607fcdc0008f008dc171d0ef815110affd709f6d4f21a2f2ce2fa1d0e13f6fb3e0d16cae8ffe007ee1c0432f6f9e71cefe3c13a050cf1f8effff90e14e5d5fd16e2351403e7feed1cde042f59160308f207e4fe1004ef07eaca150116050a1206fffec2e10da00304171f1cfcf505fe,
060613112308ece806f9fae121bae115ec0d4afc050927f6db0c1631d3e924cedbece3ee18050420e0ce2714ddcdf8390842ff10070521f33c12f03bd603ec220ce02cd0cd16e209f122ffc91229150bf5ece9e80b1a31ed0926ef0ede381807f00eed1829eaf90d311404ea0efa1be600082f21f402e80bef19f7efc7cb2815,
191ad4f4ecda0bddf1202bfde0c8fe2b01f0de00d6da3ad610fc082eef1202d82fd0e8e3e8e2ccf73218c90814ccf6f8fef2ea2adff415ff01d8f3044cf2edff05f0001f03f2ec260bd143fd012014ef291005df0916332d1910fb090e3beceefc19ef04e624e0f404cbe72b28c7e1ebee2323d0fa1a09fc022d0d23c4e1f0d5,
f80e17cd1c13f40605e801e3d3e237f122f8dbec34e540171af03327d854000cf406fc3ef7d1f4ca2d04f00fff0610fdc8fc0edab3330216ea0b103206fccd120d13ee25e3edcffb00e2f9e0f6d1e60ad7d6ce071929f706181b1128dc103e02bbdce704fff505ecf1ed09d7b9dff40ccd0b170919e9ecf9f80511fafedf08f8,
0029e2130e13fad1091f13c21f01fb0230f008fff20510d8d6f40d10e059cfdf11360735e109abe34af11edafd0b16f8feffdded0e02d403ffd2fe40f91afff501fdf51914f41039bc03da280cf6250008133fd4001d230609de125d2109f8092b1a0011dff50b05fb22edfb26d1d716f629151421ca07ea18eb4f0207eaeb13,
da2506f611c52309cf4af713d6fa0d08e404f3ebfe28110230e9e7f4e83beafd00ef1d250407e4130eeae6e9073713f7d50adecff20aeb42fd0ff011fc2209001cfff8fdfaf5fed909ee04f90f031312f012f43f0822fbff23ea24efe80a3c1016dfb4b5f4fae8f8f720fae2f417bb100125fa1bfaf9e9f2f111e922fc002015,
240b31d8f7c81d181012081bfd11f2dd110e09cafe08f602ebebedcf110a36cd0bec0e114ef3f10ff0f80dffe7e3e5d52c2efae90fe227001821fee2fc03f20efef91de412070705daf50b0702d7dfcf18100de22bde1cf82cec03f7f529ff110c12ea052402fafa320f0de5dff4050e07f3f2dc09f209cff910d81bfc09db2d,
1f03dc0207d2efe801f4d3fadce0f42c05daee0ddf16dcf71c04f1f80d240540120cfd0cf3d701d103f5ef0422f8ee120a26d2ed26f00618ed041201dfe10a1017fae321f0fcddfb14ff3018de0de81828e0edc6d510e81e1418fb29c6dc2804eeee0a12fbe7db061728fff13235ffe7f4c81e2c13d818f0e5c6d42ee7011327,
04071edf170210c52c210ef2e3dce6d4e51d1514e308b9faef23e807fe16e8f0201412f2141bfeff00e30e2922f7e6e9f54fdfef0b12fffb2dddd0dc1fe4101af51624d105d3040f0806d7f913021fd4cff8f4dde5f4ed0fe6032cf1d219ef190ded01d525190fdf071405feb4cd1dfee4d927de0522cff7ed110223d50cdff1,
2de7e4ffec2511000fda1fece40ef0f6f40ef4ff0c0b0d0a3259fd150eedc5e730210c1420cfdf095ac6e1050d0822ffcdff20e6edea0ee0e5e0e0c0253318df20eaf619c820e2280bdf0000ffefd6f4e1c81218f620e82dfdf9f3fbfa1ec6f401f6e3e218da3019caf1360eb9e6dd250e27dd321510efcae9300b1af2e408ee,
0e0918f212e0f2e0153f24f4e2dd12db23241812e425b21e19d021dd11f1faf00eef2ffd0f2d25fbdeec082cef1de0f7e7d9f3ebf921f6ed040f20cf2c0cfafb19f818f5d8e8df0ee314f4d5c0eb34d4f7deeaf80c04fadfc0fd00db31ff02ddf1ea0be50cc5062bd2f61aeec6f0f81e1018b00229dff9e11d0807da1301f4db,
fe03ff0308fef02cf1012a0e251a151cd2ede614cf160b00f017cb02d7302533eeeafe01f3f43df9e4170219d4deda1116003945d7400205f7ea20de242911e2f81103ffb6ed010acc000631e203ca11d719e6181623f4d23a0e2301ece002fb1731062a1618f20925cedada07d619f102ecd50c081d1827f616db0d0b3403c8,
19f907f9fdfbf70ff7f41e07e4f50dc02c0b22fc12300823c8f910e61f03ff16e80d1bee0ffcdf0bf62e2eec00f4f40c35faf13a0af0210023f5db03174617f301fc0bfd1908fc3b14d82a29f5e8f3efd8f226f51cdf01ff433614e8ee33bfff16ce2ff3eb051719e6f30eecdb09ecf90cdfed3208ed1e11fed6080116d9020d,
cf092d0ef2e1d427d81aedf3f3153ff0ccefcefd0f0ef9d7021c00e62e2b13ef10e502f41fee011107dc251b0c2639f91de631e0da090103f31403efd3df0a440b0ccc21eaf616e31c20da0519e6e7f51ee9dc321ae23024f3261108c0e9e9f81c00fe01ddf120e2fc2820fcfc03f9f2e31a29e41bdae3020f1b0ce5fec11729,
0ff7f3d615120713eefcc9ef12e61ac300e3f009f513f922e9160f22f113f1050719d13ed702b1f5ffe703f0ed1ce108e2ebeb1b01f0e1f9e01df81ef2f12bfc13effef2ec21f8dcfd18f6e638141dc9ff0e1f45cf05e50b101ceffb10f52307080ae9f91c05dcf608ee32cc36f63e1a00d711fc1ce5eef116081bebf40c1afe,
071308041cfc210ecffae9fce30cfcebfce9f0fa0efdedf6ecf81a03e1f801e40524eaea17e6de1fe835e400cf24e3180710e0d4ecb2f72a21fa18161dbcf9fe29f44806fde6de09e90bf00a250d2e1f30ff3409faf0d72006e1d70f14190fe3e1e0f1f618e225f3d609cee6f204eff5fc1b1522e1d9fa0310de0d380b0416f2,
1dc8d904f0150cf5e70dfe001ffefc2f0ad2fb15edeb001c26edc3f3f9d9e0ccb61f1914f336f305f8ece109e0ea1c0402db05e0fcce1510d6180e0e0610030009e55903dd340c050c1a27dafa1427e6badfda3af51fff16eee82bddf3eafee4fefa1ad0d118d3e5eef3eb3715ca120802f8dae13a32011f25ea1a01fb04f816,
e6272ae410e3012add092521dee9fc0016fb32fb08e0c503dd0512fc010ed02ae5e821db45fc08e6100b2bf60e0dc02804f8fb2b0546e6f2db191dff1409490f150bb41f2230e913ffeb48dd1825fafdde05cf10052802f3cb25232805ea4b17200b1624e54a38dde4fcfbe9ed24f2f207f60f0212f8d225c718dd2407222304,
e8e7ec05fbf5f9e6f9f90825e5d0f3d045ae3954d21e161df9010de30328fc0c0f07f5fccee9cf0e12c621ff07d5e3fdfc12d800e6141100cef904f306f00a0d060efcfa192235f911e908fed8f710d5e5c7e0efdafbd5151af6f80ff3fad4f638d124e5d8030b22e1cef724fff3e7163eea03f0fcff0b0727e7113622f2fbf4,
08f6130a0e17cb0ceefcd8fd24d41906ea0c1a0ce104170535120cc91e081d09def6fa29f41712fc13f1071eca2a0dd714eafada4233f40b0ee20c18e92819efc811fef11efce7cfffb3edfa25effc18e63622151ce2d5031a040c090e061a230706f6010cce27012042e51d0af821142808e1ee9705f504fcda1cea00e728d4,
f030191cdc17fd021000fddb06dee3e728411c220132ed04c5f61f1108eb291617e8f0f618bf150fea0310410119eee3def6f5fddaf326dfed29d6fdef2139120d05ed010e1003fdedfcffecfce2f9dcd5f822f0e010f82becf81b1c0511ff02190fe6272cecef1fe4fbe2fdf626ecf21c0a0a0d09f4ea11e8ff3f01fedf223e,
030e1cfbf50005f10bfaea3312dffc19c50bf7f0e900f4eeeae12eecf937dd12e3ff0ce03125cd0c2d3e060b2c36d60229eec10037e3d12313da0b2b4a1404d4f4f0e8c32ef7f3e3c70bf0252ff8d0f9ff110d48080d3ddf19370a5000dce2da0507170002160103f9150e07e9d824f1ebf8e4f9100df607183a132425eafcef,
2f210e2c0fd707d72305d10622e407bdff04fae6f3fb12150cecdc0e23071d0806f0d421f309da1f32d4eef8c8e2fbea0aedf0cf0a06d005140723dd2423daf30eb62df6f8df0d3c0536070518db15f0f20d080cf6fe0816f6dec30bfd0fddea29cd1af2ec222efa1de9fcfcf8d0edf00b13020bf8df0be30b1515ffe61918d1,
14ebe7f0deec202127f00712ff08dfefdc0819e004ec07ef3618d8f5e6170f0ed308edfd08e9ff0beaee00ea2bf2fb29f6010f4fe9ec0912d027fced09ec22cb100f1ef8041bfe102bc1f6cefa0a1106ec103c13070ce4d606d6e02902f2ef0ce2fddbeb24fa31cf1811fefbfe23f0e2e023f4fadc1ddc2df017070ee2100ad0,
d41503f3f2e70e2fff320910012f1a07fef2e9f9fb1ed6e5f925f1e3cf141efcdafceaf7dbd3d3d81db012f8ec0710ff0401205ee116ed19e70b5825d5e61bf8e6d415110e222cde1efa2cf5e10148e00dc6020e2fea24e9350ae617f608d3e60ae5fb21ddda1ce90ff2060e1a40e51dc40e16ead60706f0f82000edfd0c0212,
effe0124e90219f1fde30d03d80c01f622f727e9000005091b04204cec11103612d000e6f70b01ff0deacdb6f5ee2e0c081123200af8f1010f1112f0f4ea21f43b35e70716f3f9f8fdc51d0f181123e2ec00efe6f9fbe51ff0ed490301501740f13e28edbfec15f309fcfd230c1805edfb3511fdf0f81d0b01e515341ff2e7f5,
f9beec0dfd00e609e31009ea1f031afd2c0238f0d61df8e6fcf7f0fff1e1dc2c24e20fca23260c0217ea1a090bf0d1d9e5f21fe4eee7e9f320f2e8fc0102eff21502020efb10fc02e21df11403f920e2f8d3031b12d52021231826e6f0e5041735c6fe01cd470fe9ee071bf5071805fd13ed1e2c0e08e2f0dee9120c06b80404,
fb0f18f00cf108e703f703f637f611f11507dbeddfcd15010509cdfd2211e1eb08feede2e42dfe12f5f6efec0e24291511ebe2ea090cdaf0101800bde12004d5e64afd4fc2fa041bdb31f00b0bfee31ef625fde4fc172a021de9fa05055c0cf01608d5050bd2e22701e400eec8fce313ea265ee1f0110b1125ce1300ffe30407,
11ec000149d5174bfaefee1adbe9d3e7c717fb3c17f109da060f0af5c21bdc1f201c1c0af92cf9fcf803cde60310eb0ee811ea03e401f010ea0de4032813f2f101023c1e09071f1707f2e21ff8eade00e908cb0405e00ec2fe1e0317da0aee01ebf4df1326e5f1fdddcff3f418eb05f0d336f71037dbbc0cedf1ef230cd30125,
09ed140de640050e1bed02e0de0427f817dbcbe20e27f6ede415caf3212ef3d0f5ea08cddcfd242d06f6000ddb030426fed70ae3e7de0afafce2d9001ada02f8f5f7021408e7d8f1e8191bd1e91209abf304f9d7fb1203202ced0213bb23dc2edb073cf6f3c0d0f4fe16ebec00030afffee10b38faec2c0e27f425e203f8fad5,
e2221f1706e4fb16f1ff120ad49af405f6f715e502f6b1f4c7f7050a05e0eccfe6e9f4f2f104fd0c1eeb211ed4d80f28120900091aede6db2402e735f80923f50fddea1eec00e5ee0cfff707f105356d0225dbdbe71dcfe8230defccf904f1e0cbe800d3e715e5e40af5fb32efe8f6c4e92606fe1002082431eb25f0eafbfb0d,
cae9362bcdd01c0119f64021de03fe00f716fbcb0cece60de5020ddef2fc23d731fe1fe4f0f3fef25c190d05eedc3dea3e2aee2310e9153401f6cdee0200dcf208072913e4f7190ce3f4d0d0f5f8f709f91eff0df8fe05f61609eaeddc18f6e7d8f700b3fd06f5dee40bdab4eb12072524050814f11b04f3e8e9ff12fddcebec,
ef1729d4fbe3e939da18e8ed0814f9e9e3edcf20411afcc112ea092e2af209c80dec0633edfcbe1040d6f0ef2d131af8fe09be0604c7def5120cfdddf52ce8121229f6baf6cde11c1913d4090a2205031bd7f430fee911e6fc1d0619e7f832f5ca14d5fd241603ba04061110ec42dbe5ed03ea0617060905e8c7e6dbf3edebd1,
19be01fff9d7260217d10f0f14d2331fcd0c3211f0d9ec08e5153e0be00404e218e71afa29ddeaed0bfb02eee7e9422aec11f6fbefe21aeef130e7e4e1ed0701e4e9f0cb04e350ecf30be9ff1b30dde700031a30d8040017e8e5ece801fefbfddf3002e1fb17121a24f7cb14e911ef00e3dfbf1200fd0707f90625f0eef62805,
0b0c1800f099fbf10f12cd0c26ef03d2fd1ae6d6fd2304085817bbf8e5421fe130212e00fb132a2521060bf6132d030df3f2f4e90ac8032606f523ee0ff9e316e103d7faeabf0e05d1f2092615f0f81e3012289fcff0e4e3de1df6ecfa002202d8ddf9dcf1e61feae701071d0cf4f50bd6f0b829ecfdff06f01e1219f0f0fae4,
041a0edffcda0ff600fcf8e507f90515fb0f00e80fe3de04f45208050818d00117cbfde7ebf7e8fcde06e8f5ef1a040916f2ebe914132d24fddb021ce81aeb4dcb26e21901fae814fb192804f02d22e0060be4ea1100f8edf5e902f11608e1ffc9eaf9e7f8f8ccef3bd307321cf6f9172107c9d20c300af5fb2406ed28faecfd,
1f09170f01dd1d35fed7010cfa4a01ff3118e7fc132b55344ac4e0da17201109dbf41a04f61f1a190611ebf8fdffea0300f8d4d7f2e6fb2620f1f209f9ddf1f8f5ec0e10f9c8dc0eebb3f7d60bc6dc10f603041d31f3dcf1090cd7faeb28d9e4fd33f4d0ce02f0cc07f92a0f38f9cb0dd9fbfad10a1b1ffff902fd3dfb141ff5,
cf0efcfd19fadbf7130905e7ed0efbe4f3e617fdfb05fa00221b0e00f83109f909e9161b1700182b02ecf7fa23cf2ce3b93eec0e1e300609ff13e1e132e2a4eefbe622ec11d0ff00efebfcedf8ed3a09ea0708f9cf1905142006fbd702faf4dd3bea06ffe321172600df1b04f500f6cdf4f3ed22fcfce2210b0e17eefd01eaf5,
fb20063003f308bad408fd380418ebe6fdecf9151af4fb180e103d1df32900e00b0028f0e4f5f23519f62919011e0ff0fc1315f52c1ff505e510f707e7ea0614fdeeec1808da33f31cd917e3050612360c0a0f2028faedd0edf0213a12eefc08ff0cfbf2e4f2f60fed0c19e9fd2c13efeafcffe1eb2fdd2ddfba0502fbe206fe,
f919e52cf10808e0eb08fdef1af801c7d402f31f02f5fafbef1f1322f5f10d1108db00f70d3b05f71e120f16ec0e250033d92ffbf2fd052613113ff6e9f1e53612de103be0ed0e0a0605d5f8f0071234ead7efeaf2e1e712140e15f82eea290831ffdb17eb0dfe09e0f70e0ef42adee3e0d9d8e6f8f0edc00301f7dae2ac13e2,
2c000407ff2907daebfdfdee01e8f6f4b0eb112209dbcef14631e90307d5ef0029ef2026e90bd208fc03dbf6ecdb1901e4e91b0abf021c2a0ff9f8160be2061af3cfe6080537fd0a0ce3fe0e0d05e51509e2e5ccec0aebdf4200e029dd06f9070ddff4efeafdfb1622d70b09d6c9fdb7ebead14d04de2e09202df7f0e7dcdc0e,
