2f
5a
f7
ae
f9
09
14
3c
01
35
9e
e9
fe
0a
f4
11
ae
d0
4c
68
e7
ef
15
c2
03
3e
b3
39
eb
c9
e6
f0
07
03
67
fe
b0
a8
10
0d
f8
2c
c2
97
ec
f0
16
20
21
ef
1b
74
02
38
ff
3a
23
04
f8
1a
bf
0f
8c
db
e4
d3
34
05
fe
e3
19
19
08
ea
06
0f
1f
e7
bd
38
81
f4
a9
ff
e8
1e
dd
7c
f8
f3
ed
f9
e2
f1
a5
41
db
fa
19
f1
f2
3f
e1
27
ff
07
1a
e2
03
f7
14
e6
20
fa
16
15
0c
ce
48
c2
42
fa
02
33
bf
2e
c4
2a
92
1d
ec
db
06
23
05
d5
5d
53
1d
22
d8
05
35
c6
c9
ef
db
6c
db
12
4a
c8
1b
cb
32
5b
1f
e5
41
d6
19
f7
0c
18
12
6e
2c
64
b6
f3
f9
3e
2d
21
ba
c0
cd
4c
02
bb
27
eb
c5
57
c7
b8
11
39
fb
12
0f
ca
e3
ee
08
d8
0c
e6
da
53
49
24
9f
27
f1
9a
21
29
cb
d5
f8
f6
dc
7b
28
e5
03
d5
3b
a9
55
18
c0
0c
d1
1a
0b
aa
48
01
f3
ea
cd
f1
48
e1
f6
ed
32
eb
9e
b6
0e
bd
11
fa
38
46
2f
ee
ff
11
72
24
f7
18
eb
db
c2
01
e5
04
39
05
ce
c3
22
ef
4e
c7
d0
f2
bb
2e
bd
aa
f0
6f
4a
d4
3a
08
42
19
02
b9
fa
1d
39
03
da
06
00
ee
d5
18
f4
0b
c8
f1
40
07
54
1c
6b
f4
ee
12
f2
ad
f3
10
19
e0
e0
44
45
35
a7
15