ff
04
04
04
d8
dc
ed
ab
04
02
09
f0
05
c4
0b
12
d5
2f
fe
c5
08
e8
37
f3
f7
1c
26
e4
f4
f3
18
e3
e9
ff
06
ff
ec
10
ef
01
bc
11
fc
fe
04
2c
2e
fc
09
21
1b
dd
f1
f7
3a
f2
0e
e5
02
f4
02
05
29
f8
ed
fe
f3
e7
e7
ee
2d
0f
30
e5
f1
f8
1f
eb
19
e4
e3
05
ed
da
05
c3
d0
1f
fe
10
1a
d2
d9
ea
fe
2d
f7
0a
e3
e5
d6
21
33
ec
1e
0f
1c
f6
ec
ef
12
ec
c0
f8
fe
d2
ef
eb
24
28
21
01
12
f7
f5
fb
f7
08
ff
2a
d3
fd
b8
18
1f
0d
05
fe
08
34
ff
f2
fe
07
df
26
ed
44
0e
e9
f9
db
4e
43
21
23
ff
04
ef
04
fb
37
f1
f5
ef
ed
ec
3a
f2
11
1d
16
f6
15
0f
01
f6
08
0a
0e
ef
e2
e0
0b
0a
2a
09
e9
da
36
0c
d2
b3
f3
11
fc
17
cc
13
f7
fe
f5
29
dc
21
ee
1c
b4
d5
e0
e9
03
27
2f
16
c9
39
1b
f8
08
f7
01
0a
fb
18
12
12
40
f3
1c
08
e4
0f
18
d5
f0
ff
13
e1
0f
e0
01
15
06
cc
fc
fb
f5
f5
ce
f1
0d
31
34
ef
dd
19
fc
fe
c2
04
08
18
17
f3
14
1b
c3
e5
32
e7
f7
f4
16
f0
f2
01
03
f8
2f
a1
0f
fa
e8
df
14
11
08
bc
28
29
0a
14
2a
11
ce
ad
06
fa
13
17
2d
f6
3e
fd
08
16
11
07
fc
cc
0f
2e
d4
10
13
3d
d2
f7
2f
fa
e2
1f
13
19
c0
d5
fc
0b
df
ef
0b
17
14
38
bf
f4
38
e9
e8
e8
df
14
e6
04
1d
03
10
f6
ec
3d
f1
e8
14
ec
f4
03
e8
c7
f3
26
da
eb
d9
00
11
31
f6
12
1f
18
ec
04
fe
db
f0
0a
22
f1
e9
08
27
1e
e7
0f
f5
07
f0
2a
05
fb
06
22
43
02
01
e1
e1
d9
e6
08
00
20
ff
10
06
09
03
04
03
bb
f9
ff
e4
27
fa
d2
b5
f9
d3
e8
e8
59
34
fb
db
05
04
07
30
00
03
fb
2a
f7
06
f1
ec
02
0f
23
fa
1f
30
d2
fb
f2
e5
fa
1f
fc
25
2f
20
d6
da
f5
fa
f6
0b
03
de
2b
e1
f5
f7
22
0c
29
ee
fb
f7
de
2b
26
1b
c9
f1
01
15
10
1a
08
f8
2e
11
f8
36
df
17
e2
f2
0d
11
17
09
f3
18
fd
e8
d7
f4
34
02
27
f5
ef
06
c6
fe
ec
e4
04
0f
fc
5c
0c
31
2c
06
14
2f
00
34
ea
d5
e0
13
f8
04
eb
e9
11
fc
e5
d6
da
df
f2
e9
05
ee
09
d7
e1
15
fe
ef
be
f4
f1
fb
e9
f6
ed
1a
30
f0
ea
d5
0b
08
22
28
2c
ff
21
07
fe
ec
ea
29
d3
0a
0b
fa
fa
0d
26
c4
23
fb
ff
2e
29
f7
e1
17
e2
01
ef
f9
f3
3b
09
21
ea
07
c0
eb
f2
da
16
00
dd
1a
e1
fe
cb
34
0d
08
31
08
ef
02
da
f0
ff
0d
17
ee
f1
3e
32
f2
2b
1c
d9
11
18
f5
af
e1
ec
16
f2
c1
fe
2c
ff
df
ff
0a
f9
d9
01
03
e5
ee
f1
d1
17
e9
ed
1f
f3
2a
0b
ed
21
f1
b8
d5
21
e3
d6
0b
c4
01
18
dd
12
dc
f6
08
bf
db
02
dd
12
19
13
1f
f0
0d
f0
d0
fe
30
f6
e3
ec
ec
15
01
13
31
ea
f3
ea
27
08
fb
17
12
fa
f6
18
ec
f4
27
d8
21
04
1f
13
34
0d
08
cd
df
d5
20
23
00
24
13
db
de
00
33
18
d6
24
15
fb
09
09
04
01
01
e1
fb
f0
e3
23
14
11
07
ea
18
e6
c5
18
3c
18
19
b1
31
16
0e
36
10
24
d5
2e
22
1b
0d
0c
e2
f4
28
fd
19
d8
e6
1d
df
f7
05
07
fd
fa
f3
07
09
fa
f3
02
02
31
f2
cb
1a
fc
03
0b
0e
09
fa
f8
e9
0b
f7
21
20
cd
0d
19
09
0b
da
fc
ee
0d
ed
27
1d
0f
0b
09
f9
06
41
08
31
c9
f9
39
36
10
2e
0e
0b
20
09
f7
27
f9
e1
ee
15
24
e1
14
ee
1b
1b
26
36
1a
01
20
e6
fe
b8
fe
f8
29
ea
0c
0f
f2
ea
1a
09
fe
19
e8
f6
ef
be
f7
1d
12
cc
f7
eb
f9
f2
07
30
11
08
f1
2b
16
46
cf
1d
ff
09
1b
fb
ea
d2
fc
09
e7
14
12
db
f7
0d
22
e5
05
e3
f4
0a
f8
d3
ea
10
fc
e6
f8
ee
40
1b
39
f8
e6
e6
fc
e0
f4
15
25
64
18
19
10
f4
15
26
d5
f1
d2
f3
eb
f9
e5
ed
27
f5
04
c4
12
d3
f3
e1
d7
2c
e8
fb
02
fe
1f
06
1a
30
d4
d1
10
de
f2
32
da
19
26
cd
06
0a
01
2a
1f
fa
f0
17
3a
10
e8
c7
1a
0d
10
2e
f3
17
08
f8
19
20
0f
2a
fa
eb
24
13
1f
03
1f
22
f3
ef
29
f3
eb
d3
d9
10
07
0a
ef
15
f0
f8
11
10
f2
de
05
20
10
ef
13
06
f0
05
01
26
10
d1
e3
e7
12
ce
29
03
11
cc
ea
fd
04
0a
0c
02
23
fa
2b
16
10
e4
ee
f9
d4
d4
22
08
ea
d1
fd
07
08
fb
fa
03
16
1b
14
0d
3d
16
f7
e7
d0
f9
e2
00
e5
10
3a
01
f6
ef
48
0c
08
d1
0c
1a
d3
2f
d5
fe
ff
fc
fa
ed
0a
02
eb
1e
cd
f6
f6
04
f5
d6
22
fa
bb
08
13
f4
0a
36
0d
33
fd
e4
24
1f
f2
15
fe
ed
09
e4
f3
f4
18
ec
b4
28
e8
11
2e
0c
26
4a
16
f4
1a
16
ff
0c
10
0f
48
0f
f9
26
1f
cf
ff
ee
c6
0a
20
cf
10
cf
d3
00
d5
13
fa
22
fa
f0
f6
21
11
20
0f
f9
cc
f7
0d
14
2c
ee
14
17
04
f0
fc
0b
e3
fe
e1
02
fd
fe
ea
27
25
df
dd
1c
ff
03
18
d7
12
e6
18
1e
26
c8
ed
f0
1d
13
a8
0e
c2
22
12
fd
fa
b9
00
f4
d6
f3
06
d9
ea
50
08
02
23
d9
ee
f8
fe
da
ea
eb
23
04
e5
12
d8
2b
03
11
17
d1
df
28
08
d0
13
07
00
0e
eb
1e
0b
fd
2d
16
fd
1a
0f
ff
2c
0a
42
fe
0d
ec
f3
07
10
01
02
32
fb
e9
eb
08
cf
eb
dd
db
c9
f2
fd
0f
35
07
12
2d
06
05
1b
49
ea
05
09
c6
01
ea
17
1d
e4
fd
f7
e3
15
07
f1
1e
14
f5
3f
1f
fb
c7
05
2f
29
f2
19
3b
fb
f8
33
e0
00
f1
0d
07
e6
01
1c
05
14
f3
32
0e
e7
e4
e9
02
01
0b
e5
00
d0
de
fa
06
f9
1f
23
ed
05
0d
d9
33
02
ee
00
ee
e6
f0
ea
1b
ed
0a
18
f1
ea
0d
bc
f4
08
17
f8
ee
23
ff
3c
ee
e7
2f
26
28
04
f0
08
e8
f7
2d
10
f9
13
36
f2
da
01
f0
ce
2d
f0
0c
e9
07
07
fc
01
05
0e
d1
21
1d
f4
f6
1d
17
f5
d1
09
06
e6
ef
e3
e5
fb
15
07
c9
ff
1a
04
32
b4
f4
f3
08
c4
ee
11
eb
21
06
17
cc
15
15
da
e1
ee
07
cc
fe
d2
f1
fc
ec
16
27
fd
0a
01
d6
18
fb
f9
f7
16
41
f9
f7
1d
fb
2e
d3
15
f6
02
c7
17
f8
01
15
0a
e0
f1
0f
e4
30
eb
28
0e
11
07
00
f9
33
fb
dd
14
0c
4c
14
14
12
ee
17
d5
25
22
1a
f4
eb
d2
f9
0d
fa
0b
09
01
0a
0c
f6
d4
ee
eb
10
f0
d5
f4
cb
da
29
12
be
0a
e2
31
13
f2
f4
17
0a
2b
ed
ee
1e
00
1f
01
f2
f8
db
04
15
fe
0e
07
2d
13
f6
04
22
0a
d4
f2
0f
e5
f4
0f
19
15
ee
1e
0c
fa
d0
e3
06
03
e7
1b
10
f0
bc
27
f1
f3
0e
eb
18
29
05
d8
d9
ee
e0
d9
17
00
17
44
e5
0e
dd
06
17
02
e5
05
13
fa
f8
08
21
0e
08
01
f4
f3
20
10
f8
0c
08
f3
03
20
f6
09
42
14
df
e2
1e
fc
fa
15
fa
fc
10
bf
c6
20
00
cf
f8
20
fc
1e
da
39
0a
fe
12
0c
35
1c
e3
f7
26
ee
1b
0c
de
fa
06
12
f1
16
0a
1b
1c
3d
de
06
29
43
fc
24
01
37
c6
24
26
ee
d5
ea
16
23
ea
e4
fa
db
ff
05
ea
e3
25
1d
0b
10
35
d7
fc
0b
e5
12
14
1d
30
ec
f7
d9
fb
00
4a
11
08
e9
fb
19
ed
f5
1f
1f
1d
28
e9
ef
ee
10
fb
d7
23
1d
f6
02
08
e3
f2
0f
01
f3
1a
0c
fe
fa
06
eb
32
ba
14
f7
fe
0a
03
e6
12
f2
1f
08
f7
e2
0c
f8
ee
f8
01
03
fb
32
04
07
ee
fc
17
03
f2
f3
03
ed
00
bb
d3
d5
fc
3f
e3
d1
1c
08
11
01
d3
f9
c7
1d
fd
0d
12
0b
0a
2d
e0
d3
fc
1e
09
0e
03
09
15
ff
d8
3e
e2
0e
e2
0c
46
ff
f6
09
e9
29
04
3d
f4
c8
28
f8
ef
ee
da
0c
27
f0
f0
d9
e6
1a
0e
f1
1c
eb
f0
19
23
0e
3c
08
0e
e4
df
06
ea
d6
1f
29
1a
03
d9
2b
fd
08
10
eb
2d
f5
fa
f8
ee
0c
f8
f3
fa
c5
e7
d7
e0
f9
ec
e2
f0
ce
0d
df
0d
f8
f5
ef
b3
14
f1
04
d6
e0
fe
ea
13
0f
f7
1f
e6
c0
f3
df
ef
ec
e8
0b
e4
ff
2d
0d
1f
12
0a
31
41
e1
fd
eb
f2
f6
32
cc
f1
d5
07
03
e3
17
fb
f4
13
17
de
08
50
16
e8
29
f6
de
1f
f2
fd
f7
13
03
da
fa
21
39
23
e2
05
03
3f
ec
e9
0d
f1
db
db
17
d6
ed
3e
0b
42
d0
f5
e2
f8
de
09
1f
e3
cb
14
54
0a
20
ce
04
f5
f3
d7
f8
18
16
2a
1d
c6
14
ed
f3
db
e7
17
12
dc
01
3f
de
d7
ed
31
fd
0a
dc
17
c2
0b
1b
0a
1e
24
02
f3
04
e5
eb
fd
05
e1
2e
b3
1c
0a
fc
f6
eb
28
21
ee
fe
2f
de
f6
f8
17
b1
2b
ea
14
19
5a
24
1e
ea
e7
e6
42
f4
03
24
0d
12
f7
01
04
0b
ed
14
10
f8
02
ef
ef
e2
d1
15
f2
1e
ff
0a
3c
d0
03
0c
04
02
fd
03
ef
20
06
0e
e5
e0
f0
07
4b
d9
12
21
fd
28
0e
12
08
22
ec
f9
0d
14
04
4d
fd
1e
0f
de
e6
dc
06
11
08
11
ff
f5
2c
26
20
15
12
0e
1e
f4
1e
f8
ba
e4
ce
05
d5
f4
fd
e3
f9
ee
41
d7
f5
d2
0c
fb
00
01
f4
03
e7
d4
ea
0c
03
04
f1
1e
03
39
ec
00
fb
fb
e7
02
27
07
fd
2f
16
1e
f2
00
0e
eb
1a
06
12
e4
fd
20
c5
ff
2c
f0
d8
e0
f2
2c
ff
fd
08
14
fc
d7
16
e5
ee
e1
19
08
0f
0c
3c
f8
ff
32
12
07
eb
10
08
c8
26
e2
e7
e5
1b
fe
15
fa
03
fc
fb
1a
fb
df
14
e3
07
12
fa
fe
f0
d3
08
c1
d8
2b
e9
00
f1
04
e6
14
cf
fa
39
da
ea
34
34
ff
19
11
ff
1a
ee
03
00
fe
19
dd
e7
f7
fe
27
d0
e3
d1
13
06
1f
17
ff
2e
e4
0d
f4
0b
f6
ff
21
1d
2b
fe
10
e2
df
25
1c
d5
07
fe
fd
ea
0b
fa
eb
23
20
fd
07
e6
ff
ea
f0
1a
30
ff
15
d9
0f
f4
06
1b
d9
c4
ee
e8
ca
03
09
01
05
08
3a
e9
f8
d0
12
f2
07
f3
04
0a
eb
df
f0
e4
e7
e3
02
16
d7
c0
f6
f5
d1
1c
f1
f6
06
01
f9
f8
0a
04
0b
e8
0b
43
28
02
3a
32
cc
08
11
fe
26
e4
ec
22
f5
f3
f5
40
09
f2
f6
19
ca
f3
ba
0c
f6
c6
e6
1e
52
12
ef
00
eb
15
b8
0e
46
13
d2
22
a8
f7
05
0d
0f
d2
e0
0e
1d
13
dd
f9
ba
09
f2
33
e5
cf
f6
e6
1a
03
e0
d7
26
16
f8
dd
16
f8
e5
22
51
2d
19
e9
13
e3
fa
0f
de
04
d4
21
f4
06
1e
02
0b
ea
19
d9
17
f0
03
e4
06
b9
f1
e0
fe
e2
fd
00
28
f9
20
f9
04
d8
ef
f4
c6
f8
f5
27
23
ff
35
f9
e8
d8
23
e2
f1
10
df
0d
1a
0d
2d
0a
f1
0b
f6
fe
12
e5
dc
b9
ec
dd
05
f4
fb
08
12
09
f0
01
3e
2a
13
02
0d
1e
fe
06
d9
1f
0e
1f
fb
09
ea
ed
10
13
21
ff
0d
bd
07
ef
e8
fb
05
fa
fa
ef
e7
18
1d
15
eb
3f
01
f9
f0
1c
05
0d
02
11
00
17
a9
17
f8
21
05
14
1a
3a
e8
02
e8
02
18
06
00
0c
1e
25
e2
f4
40
c9
01
f2
fd
ee
af
24
f9
0f
c9
04
f1
ff
0f
11
13
30
f0
f4
e4
0b
00
e0
1d
13
da
e8
d8
1c
db
fd
13
2d
f9
f9
1f
de
12
f3
de
d2
dd
19
d5
dd
f5
4a
1b
f4
2d
e6
eb
23
e0
03
68
3b
f9
fe
fb
27
17
00
ce
0d
09
de
0f
f7
fa
1d
f7
e6
f4
07
0a
03
ee
11
1c
1d
0a
fe
e8
04
26
1d
fa
f4
09
24
2e
12
f5
e9
dc
01
11
20
c8
f4
11
18
09
f1
19
e0
e2
e7
fa
da
d6
f0
36
d7
0c
31
fd
f6
de
f0
c7
30
04
ea
cf
11
e5
03
f5
ae
38
f0
fa
eb
13
c8
ea
e8
e4
de
ed
42
e4
fc
09
fe
f0
44
ec
03
f3
0e
f9
10
1a
0f
12
1c
07
0a
b6
3c
e2
33
fd
00
2a
1b
25
12
fc
15
08
fb
08
44
1e
07
19
1d
d2
1f
0b
0a
dc
0a
f5
04
18
da
0d
f4
38
20
20
c6
ea
17
0f
1f
fd
0b
e3
1d
cb
27
ef
fd
02
1d
c6
28
16
1b
e6
0d
03
ef
0d
42
fa
08
f2
df
f5
04
04
1b
2f
0d
19
ed
f7
1f
d4
ec
f6
10
e9
0c
3e
0c
18
f4
1d
fd
35
0c
09
d9
15
ec
e5
01
e6
09
d5
fb
00
27
e5
0a
26
28
d8
ff
2c
0c
07
e3
e9
2c
09
f1
00
ee
eb
e4
fe
ee
cb
f2
0a
f9
f4
ed
ed
02
d7
0b
e4
e9
ee
14
06
d1
05
ed
eb
11
23
f9
28
da
1c
fc
0e
0e
0f
27
11
10
3e
ea
e1
16
f8
f2
d6
c6
0e
e7
f5
ea
0e
01
ef
1a
f6
18
04
c8
22
00
fe
21
c4
06
fd
13
20
46
f9
e4
e2
f6
05
0d
18
dd
0f
c9
f1
f4
38
06
cb
1d
d9
e8
fc
fc
37
05
f4
be
ef
07
0a
03
ee
e0
d1
cb
19
f7
dd
ee
14
e1
ee
ff
f5
fc
fc
2b
25
e6
01
f4
ea
0a
01
bd
fa
07
09
e6
e1
0a
e1
e3
df
d6
f8
01
fc
17
16
da
08
34
0c
02
04
04
ed
f8
14
05
ea
15
c6
07
ea
df
3d
d0
01
18
f8
22
d1
df
03
11
0e
14
ee
f9
01
f7
e3
02
1f
f1
03
0b
44
fc
e4
06
be
ea
ea
0a
24
38
e0
e7
09
20
1d
1b
e1
10
c6
e7
22
2a
db
21
e8
d7
ff
e0
f6
ec
2a
0f
f3
24
e9
06
1e
1a
e1
eb
24
22
f7
00
19
18
0e
0d
fb
29
f2
ba
10
b4
03
fe
0a
e7
c6
f5
d5
2b
d3
26
fc
f6
50
2d
f7
04
f7
da
17
1d
d9
d0
f2
e9
eb
0c
27
d1
fd
f6
2a
f8
0c
05
0e
07
fc
01
ec
29
d6
fb
06
e5
11
e3
16
f1
00
09
f8
ca
1e
3f
04
f2
06
f8
0a
ea
fc
ff
ff
0f
1b
b3
23
ef
16
00
28
1a
10
ff
1f
d8
0d
f6
f1
00
1e
08
f7
0e
05
e6
27
f4
c6
0b
0e
04
e7
fe
06
17
e3
f1
e5
dd
1d
1a
11
ff
f1
e1
f4
0d
eb
f5
e4
cf
01
d1
ed
01
0d
08
23
fc
2d
0a
30
00
e9
06
06
d1
17
1d
09
33
11
f6
33
f2
1c
e6
09
1e
1d
f4
0a
e6
09
04
de
fb
36
06
ff
07
f9
e8
f2
05
10
34
13
01
dd
da
04
01
fc
c4
ff
e4
fb
0a
06
cd
27
fd
0e
13
ba
f6
20
0b
f3
0d
29
01
fa
f2
13
0c
16
d5
ec
0d
e3
0e
0a
f2
1d
16
fc
cd
0c
e2
f9
ba
ff
32
ee
f4
eb
21
02
1d
da
01
c9
f9
ef
d5
03
f0
0b
08
fd
06
d5
fd
14
11
bf
03
14
de
fd
f3
f7
fb
fe
20
d7
f6
e9
f6
f7
2d
09
bb
02
00
11
27
08
79
27
fd
2a
fa
17
cd
d6
06
bc
fe
08
06
d7
b5
c0
f3
f7
0d
04
d9
22
d1
04
0f
f1
12
f1
24
30
db
0e
f5
0a
e3
0b
2c
f9
f3
da
05
f7
08
24
05
c4
2d
0a
1b
11
e8
19
3a
13
c1
ff
f7
f2
cc
2c
ec
07
df
1b
3d
1f
13
d1
e7
d2
ed
16
04
2d
f6
c6
13
d9
f0
fe
2a
f9
38
be
ec
07
fa
11
15
27
05
f7
0a
c9
f7
34
ef
fd
03
eb
f3
2a
f7
15
fa
26
be
f9
18
05
1b
f6
db
34
ea
ff
e7
14
18
1a
19
fa
f6
26
09
e8
09
db
dd
e2
23
51
09
08
20
03
26
ea
15
ee
c4
00
ed
03
d9
e6
ed
fe
49
02
1d
ed
27
27
0f
ea
ce
18
0d
0d
16
0e
ec
02
1c
06
29
00
ff
f3
e5
e6
e6
0f
0c
38
12
1a
c9
ee
fc
0c
16
25
08
04
00
1a
0d
17
e3
cd
3d
22
f6
02
23
09
f4
3b
ee
19
e0
d7
f0
f3
ff
df
05
db
10
40
0b
e4
21
21
b0
d9
05
ef
e7
3a
e1
b9
fe
fb
03
ee
d5
ef
21
de
fa
f5
00
25
01
02
0d
12
1e
14
fe
f5
f2
0c
c4
fe
13
cf
f9
ef
f1
44
f0
c9
0a
fb
c9
e4
dd
1c
0b
17
0f
05
15
e7
07
0e
fe
16
f7
0c
24
ee
19
e2
01
22
d0
0a
d3
f1
cd
16
0f
fe
fe
f7
f5
fe
15
18
f3
ff
1b
26
fc
dd
27
18
05
0b
23
fd
0e
c6
06
0d
f8
da
0e
af
13
00
eb
ca
3a
ff
f7
12
35
07
11
03
d6
eb
07
f5
f5
19
f2
37
f4
01
11
0f
f3
01
2e
ef
25
3c
30
fd
09
16
f7
ef
d8
11
0b
ff
e8
fe
eb
f1
ed
df
d0
e1
0a
bb
f3
07
09
f8
e3
d0
f9
1d
2c
f3
11
ec
ee
ec
0d
20
28
fa
f5
c8
11
e0
03
0f
39
f6
3e
18
3d
e6
fc
ea
08
f6
f2
ff
f2
ea
22
1f
21
01
fe
07
f1
05
fe
11
e4
27
f0
ea
09
03
ff
0e
d7
f6
22
03
4c
09
e2
0f
29
23
e2
f6
f9
f9
c2
3a
ff
14
f1
00
ea
19
06
27
f0
21
05
1c
f3
dc
2e
c5
f1
d8
25
dc
1a
f0
ff
f6
0d
f0
ce
fc
27
fa
bf
f7
0a
f8
f3
eb
13
35
f9
ee
0f
07
2b
08
20
e3
22
d0
be
db
2e
fb
e4
2c
f5
15
eb
0f
da
f8
d4
09
08
1a
04
f7
06
22
e2
06
f8
02
3d
ec
05
ec
ef
e7
15
ef
fa
f0
ee
23
22
de
03
ef
07
13
0d
0e
d4
f4
f9
02
cb
02
f7
ec
f8
f0
e2
cf
cd
3e
f5
f6
f4
0e
21
09
43
06
03
18
e7
13
24
39
1a
2f
1b
18
0f
d2
c8
fa
16
25
07
f4
e3
f8
31
d9
be
0f
0b
26
f3
e0
c6
f4
0e
13
ed
f1
21
00
f1
05
04
fd
0b
27
db
23
05
f4
0f
f8
06
e6
e8
f6
3f
13
09
ee
e7
d5
fa
29
db
c2
01
d9
18
fb
f7
cb
19
21
14
fe
f5
f0
e3
08
2f
fb
3b
15
08
fc
d3
e4
01
18
fd
00
20
f2
14
1d
f5
ec
15
ff
f0
fa
fa
eb
22
d0
fe
eb
01
24
0d
f6
11
e6
07
f9
e5
37
ed
e1
d4
be
1d
32
21
fd
fa
ff
1a
ea
00
30
25
f4
0c
33
03
ff
be
f3
2b
e1
fc
0f
e3
ee
d8
1d
1c
e5
21
11
52
ef
30
bb
0f
dc
44
0e
f9
f1
27
19
f0
f3
b5
33
ea
25
17
10
04
2e
01
00
18
17
3f
e8
0e
e2
18
f5
1b
eb
f0
ff
2f
1a
ec
23
08
13
14
0d
e4
ed
fa
fd
19
19
13
f3
f4
ee
01
f1
13
e7
d3
1b
b8
19
fe
fb
0e
10
f9
f0
f5
2a
12
08
20
30
e3
15
cb
1e
e8
fb
14
ff
e0
ee
e9
d9
fb
0e
d4
22
f4
4c
eb
10
14
f5
dd
f0
09
fa
14
ff
eb
0a
0a
2b
d2
1b
25
f9
f5
fc
e5
ee
fe
f3
f6
25
20
0f
0d
15
04
e5
f7
1a
0e
ed
cd
0a
0d
03
f6
4f
08
18
ca
21
dd
f5
06
0f
01
f1
d6
0a
1d
e2
db
12
20
1e
1b
11
16
f0
29
1d
19
0d
09
f8
e1
1e
fc
f5
05
f0
03
1a
e5
04
30
01
1f
13
0e
d9
ec
02
11
34
17
b4
17
20
c5
da
f3
1b
08
0c
0c
fa
d3
02
17
14
0e
04
f3
1e
07
d8
23
27
d1
f3
ff
02
ef
09
d9
d9
16
e0
13
d7
00
02
ee
cb
d3
f9
fd
16
00
f4
33
25
01
e9
0b
11
1c
f7
05
20
d6
0e
02
0c
24
29
ff
1d
0a
03
fe
29
04
df
e6
23
23
fb
dd
e0
39
e6
e5
26
f9
06
1e
0a
b9
f1
15
ef
e5
eb
f2
28
e1
fa
f7
22
e7
fb
d3
2b
03
01
0c
07
22
12
f3
d6
08
01
0a
02
c9
05
0a
27
0b
f4
08
0a
f1
18
e0
04
10
ef
dc
ff
ef
f3
e3
20
e4
e7
0e
c1
f2
2a
e0
f6
f8
06
fd
ef
27
f5
08
0e
fb
e0
1d
f4
ee
c9
e4
02
1b
12
e6
1a
c5
ea
05
eb
f3
28
1c
f6
02
08
f3
fb
f3
dd
0f
28
19
09
21
f1
0c
cf
fc
39
0d
08
e2
35
1b
17
e4
f8
ce
0b
f9
0c
e7
1e
18
09
de
fe
fc
04
ec
06
08
27
1c
f6
16
0f
06
08
01
e7
14
f1
ea
27
f8
e5
ea
f6
0a
30
21
ea
f9
ed
39
0a
d3
f5
f8
36
df
cd
07
f2
26
15
27
15
13
e7
e5
fc
0d
34
13
21
1f
21
e8
14
28
2d
03
01
0c
fe
f7
26
fe
00
0e
08
2c
1c
d6
19
01
0c
1c
ee
12
e9
18
1b
1b
df
06
05
36
e2
13
1a
50
ed
ea
0a
f8
05
e2
16
ed
20
e9
ee
14
01
ff
ae
2f
1d
38
16
f8
11
f7
fb
dc
15
17
04
24
ff
12
18
1d
17
d0
f6
31
14
12
1c
ec
18
e3
f7
ff
0b
fa
dc
f1
01
ff
db
e8
13
e7
de
f1
d7
f1
c9
f7
02
16
07
fa
08
19
00
03
00
20
03
0c
07
e3
06
12
08
06
f9
0f
f5
22
e9
1d
fb
07
c5
f2
1e
03
08
f9
2c
ea
2d
f7
ec
15
df
21
3b
36
1e
f7
de
dc
04
f6
20
23
da
e7
f3
05
f8
18
10
f0
c7
e2
47
ed
03
e5
11
15
f2
06
07
29
ef
35
f5
fd
0c
28
b8
f6
f0
fb
e9
2c
fe
fe
ec
0c
d0
e8
c8
c9
32
c5
03
eb
e6
19
16
10
e7
ec
0f
e4
f9
1a
dd
19
36
f8
07
00
d6
07
ef
06
ff
19
04
32
0c
27
fe
f4
06
e7
cc
e1
00
d5
f8
e7
19
ff
f3
01
e5
05
e0
e7
1e
fb
ef
00
e9
fd
fc
08
22
e6
21
1d
21
d8
07
f4
ea
03
01
fe
da
f6
e2
c6
28
06
19
34
21
0b
1a
1f
19
07
e1
f8
0f
fd
0c
e3
f2
12
03
f9
03
e7
fa
22
fb
06
11
06
e1
18
21
ef
21
21
0f
f2
e2
00
cd
f6
1a
e7
d9
f5
2b
ea
e5
ef
fe
d4
45
14
d8
f7
03
18
d4
01
14
fe
dd
f7
00
1b
fb
f0
e2
f8
e8
df
48
f3
df
03
e0
00
e9
ec
f8
08
f5
da
02
20
f8
19
f6
12
10
06
ea
03
00
da
06
eb
0a
cb
25
e2
31
d9
13
0e
02
e7
eb
26
16
fe
00
f9
fb
d7
f9
09
fc
fe
1e
df
ba
25
de
fa
d0
0d
ff
e4
c8
1e
0e
fd
e1
1c
f9
14
de
e6
3b
d7
1b
e8
fe
fe
fa
ed
fd
23
22
25
e4
ff
1a
eb
17
f4
0b
3b
f1
17
1b
2d
01
24
eb
1e
e4
22
ef
17
10
24
14
f7
f2
e4
e2
fe
10
f3
01
f0
06
fb
03
ec
0b
e2
f7
cd
e8
db
fd
c6
03
df
10
e5
20
f7
e9
d2
fc
02
0b
19
21
f2
de
00
b5
f6
df
ff
1a
f4
28
dd
10
f9
ea
27
15
c9
dc
fd
01
ed
eb
15
28
2f
07
21
17
10
20
03
0a
06
f8
e9
dc
f0
01
fa
18
fb
e0
05
f2
0a
ed
e8
23
f2
04
0f
26
eb
04
2c
e5
f6
0e
18
18
1f
26
f3
f9
ea
fe
1b
f3
00
b1
e3
16
11
18
00
1c
01
18
da
09
33
e1
fc
01
df
00
0f
16
c9
03
0f
06
08
e6
0b
c9
e2
ff
16
ea
03
f9
ff
00
09
ef
ef
1c
d8
01
24
c8
f2
0f
02
0a
1f
e6
17
e0
04
3a
0a
0c
ff
d8
fb
0b
e2
e3
da
e8
e2
f3
14
0a
e0
f6
df
11
f4
0f
f6
18
fd
e7
cc
38
f5
d6
45
1d
16
e6
fe
f4
f3
27
30
0e
05
1d
02
01
e2
15
48
f5
f7
f1
fd
ef
00
ee
20
fd
1e
07
0b
18
1a
e3
32
11
05
10
15
08
20
03
ee
eb
26
de
f2
09
da
07
f9
03
16
23
04
e3
05
28
df
0e
05
21
e3
fc
0a
1d
e5
c6
0f
eb
f6
e9
cb
e4
d1
2b
2b
01
fe
d5
07
1e
f7
01
1d
13
00
ca
04
13
18
20
02
f8
eb
14
e9
ff
d5
ca
e1
b3
57
e1
ea
e3
0a
2d
01
16
18
c1
03
04
f0
ec
d0
16
e8
fb
fc
2f
d2
0b
04
e2
f9
d4
41
eb
ed
d3
f5
31
10
0c
cb
d9
0b
27
fe
e9
f6
31
15
15
ec
4b
f2
f3
ed
f0
00
ff
23
cb
08
f6
07
f7
1a
0f
fc
e8
db
f2
fb
fc
05
f3
f4
e9
32
1c
d6
f9
18
15
04
01
15
26
18
ce
18
e6
30
1a
2e
3d
12
09
f2
e3
d9
01
00
ee
d9
39
10
f2
f4
ef
df
df
2e
fc
eb
d4
10
32
f7
07
04
20
01
21
1b
ed
00
0c
df
24
21
fb
f8
03
ed
f9
f0
11
cf
0d
c5
10
f3
c0
12
2e
e7
1b
0c
cd
d9
21
ef
17
18
ea
20
05
f2
f8
16
fa
00
f5
ec
03
f8
12
f9
13
ec
d5
15
df
29
1c
24
fc
eb
e6
07
11
ec
00
0d
1b
e4
2a
04
e9
e0
e7
06
14
23
0d
d3
fb
21
d6
12
3e
f2
e1
3d
f1
03
fe
eb
c0
cb
cd
09
e3
19
0b
fe
2a
03
fa
f8
e1
db
ef
e5
11
dd
26
13
f3
d2
11
f7
ec
11
1f
03
fd
f5
10
1b
18
ef
35
f0
d5
fc
12
37
d4
0a
e4
f1
00
1e
34
04
20
ee
ff
ef
f3
f2
16
c7
21
03
d7
df
fe
15
e0
dd
c5
d9
fb
f5
08
ff
d8
02
c0
fb
27
f1
10
ff
d3
08
00
ec
c7
14
d6
11
e9
07
e5
1d
0c
19
e8
08
0c
e0
c6
ef
fb
10
00
fa
03
d1
df
fb
16
f8
0b
14
fa
22
f9
11
de
16
21
d7
22
f8
20
00
e0
f1
21
17
cd
fa
f4
d4
fc
f6
25
f8
02
28
fa
06
f3
39
22
0a
08
c1
2a
fc
07
14
1f
f7
2b
10
10
fd
02
fb
15
42
d6
14
1c
ee
e1
03
2a
db
1f
0d
dd
1a
cf
15
11
0c
ee
10
f6
fd
e0
fb
df
11
1d
08
fd
de
03
e6
11
06
e1
1b
07
2d
d9
e6
3b
f8
18
bc
18
07
38
fe
2a
29
e8
17
e5
f4
f8
06
cf
e2
e7
ec
d9
f5
1a
f2
f5
25
26
d7
db
ea
15
30
ea
2f
01
18
fe
f4
02
03
f4
0d
fe
fa
f2
02
00
28
03
0b
f8
f6
f4
1a
db
f4
20
fc
e5
00
0e
f2
cc
fe
ee
f4
e1
1e
d9
e9
2a
32
21
dc
f9
fe
21
ed
e2
30
f0
0c
3f
fa
0e
2e
f1
07
1a
0d
17
00
cf
05
0a
08
e4
1b
c5
c2
f6
31
0b
f9
00
0a
23
e5
11
2d
e7
f9
e5
e3
e8
1f
27
f7
f7
18
1a
19
2d
26
05
fe
24
e9
43
f9
25
10
01
2d
21
b6
09
12
09
03
f7
ec
1a
ed
fc
2a
13
ff
d4
12
c5
19
0b
bb
0b
07
0d
ef
02
e1
0a
e8
d2
f4
f7
38
da
16
fe
e9
05
e7
21
e8
30
1b
2e
f7
fe
0f
e3
f9
e9
0b
03
c0
15
18
e9
01
ec
ee
0a
1e
ed
ce
fc
df
e2
1b
f8
08
19
fb
10
05
16
29
08
0a
08
0f
fa
03
f6
db
01
f3
08
f6
e3
06
ec
00
e5
e3
1a
ff
f5
ea
f3
3f
07
f0
03
db
04
17
35
31
10
0d
dc
dd
0b
f4
39
ef
08
fc
36
31
06
09
f4
1e
13
0b
1c
e5
ed
0d
1a
ee
0e
d1
2a
ff
11
2f
e6
02
df
15
1a
d1
e3
0e
fb
29
fc
06
0f
16
0c
f1
03
05
e7
db
f6
11
ea
1e
13
e5
ed
22
f8
dd
32
53
f7
e1
e6
0f
3b
e8
0b
08
01
12
1a
33
19
00
07
e7
e8
e8
f9
01
e3
06
0a
0f
ef
e3
0f
28
32
29
09
e8
06
35
f9
f5
18
39
e9
ed
fc
06
16
0c
cd
2b
13
02
18
f9
f4
df
1b
f9
24
f4
ef
07
fe
e3
10
09
1a
fc
0f
f5
d1
d2
fc
d6
16
f0
f7
03
44
18
f7
fb
0c
ea
00
f3
09
c6
01
eb
0b
df
e7
fd
16
ed
fb
32
d8
e9
27
08
23
07
0c
fb
0f
ff
03
35
16
3d
0b
1c
eb
fa
0e
24
01
cc
04
0b
01
e8
0d
fd
0f
e5
1d
0f
24
0f
0b
f0
06
11
00
dd
bd
e9
df
01
ff
1d
fb
24
e7
da
10
09
d6
e3
f8
07
de
09
ef
ef
0e
ff
1c
37
03
ec
ed
0e
1e
0b
d5
16
e4
0c
dd
18
08
f1
da
f8
07
1e
11
e9
26
09
1e
03
03
29
01
02
ed
e4
11
06
fe
1b
ec
e5
15
13
eb
da
de
e6
ed
11
0f
ee
cc
cc
2c
e7
2f
0b
05
1a
02
0a
11
0e
fb
f8
e5
fe
12
04
0b
15
fc
ee
e0
08
e9
f6
e3
04
e8
e4
27
e2
f9
d4
dd
a4
d8
1a
fa
05
e5
0b
f9
1b
10
0b
2f
03
f3
12
ea
f7
0f
1d
24
ee
d7
15
16
f7
db
f7
00
ee
ed
0e
38
eb
06
05
1d
26
0c
1d
3a
f6
f1
e0
d7
e3
af
ff
f9
f4
fa
e1
fb
eb
23
34
f5
00
e6
ef
de
fa
1f
11
d4
04
fe
2b
19
11
f9
ea
eb
e0
13
f0
19
d0
fd
04
f5
f5
16
19
f8
d1
ca
0b
e6
fb
14
08
d2
17
11
0f
04
f3
05
e4
f6
da
fb
f1
fe
02
0f
fb
fc
e5
f6
10
01
0a
33
ef
18
fc
1a
11
fa
ed
f0
26
1b
0c
1c
e6
08
cf
f5
c7
1c
36
04
e9
01
1d
1f
1d
2b
f8
ed
e6
ee
0b
0a
f7
1c
23
f3
d5
f7
eb
f5
0e
31
0d
0b
0a
cc
ef
e0
30
05
fe
06
d9
f5
1a
ee
2a
f6
f1
10
c9
f4
07
f7
d7
ee
fe
16
0c
ec
22
37
1d
33
eb
ed
f2
f3
07
14
0b
f4
1d
fb
11
23
da
e6
f2
f7
fd
ff
dd
25
f3
ee
fd
03
ce
e6
1d
00
3c
00
e6
06
e8
d9
f7
2b
02
0b
0e
09
ff
4c
ec
db
c2
fe
e8
24
43
fe
00
1b
20
05
16
e2
21
e5
f8
28
1c
0b
fa
1a
1a
23
bc
0b
e5
05
2e
27
e8
14
04
d0
f1
1a
ec
e3
f1
f4
19
f9
1f
e3
db
0f
1f
16
01
19
f8
14
df
e4
06
e8
07
e5
2b
f8
f1
08
f7
08
e7
3f
03
f3
27
1e
05
e7
f7
fc
28
1f
33
e2
c5
fa
0f
08
d7
06
2b
fa
e2
f8
fd
f1
32
08
0f
be
b7
fb
f6
d8
ff
e5
08
fe
f1
f0
ce
12
f4
d8
5a
0b
0c
0f
fe
5a
d8
dc
e7
12
2a
09
02
00
fe
0b
f3
01
0c
fa
ef
fa
1c
e4
f1
e3
fa
f2
f7
24
04
11
1c
29
02
07
fa
fa
de
f7
1b
18
ee
f3
eb
0d
fa
01
f1
dc
f1
31
1f
09
10
e1
ff
34
e6
11
fc
e2
16
0f
d8
0f
ea
e9
ec
e7
11
f9
ea
e3
e2
e3
de
1d
e8
36
e6
f9
e5
ee
c5
d5
1d
e4
0e
12
0f
1e
ec
00
f6
d9
0c
07
15
0c
f0
10
01
0a
1e
36
13
e5
f7
25
26
e4
12
ee
f6
ec
f7
26
f7
ff
fe
e0
0d
16
db
06
09
20
ff
09
fe
04
10
34
d3
18
2d
f1
e7
25
fb
e6
bc
27
28
f4
df
28
30
1b
fa
01
27
24
d0
11
3e
10
1e
e3
e2
09
09
2b
ec
14
13
2e
f7
26
d8
e4
15
04
04
1e
0a
f5
ad
0a
22
da
ff
54
f7
f4
de
fa
ed
07
0f
00
3e
0e
0b
fe
ff
d1
f4
13
0b
05
37
fd
0c
27
04
2b
f6
e3
18
00
19
f8
f6
00
16
02
ba
26
e7
e1
13
f7
d0
f2
e0
28
1e
e3
20
08
15
e5
f4
f4
05
b7
e7
23
e7
f6
1a
db
eb
17
d6
e4
eb
16
0d
17
e9
c1
0c
cc
05
18
09
0e
f9
c7
c2
f6
24
e6
ec
da
12
0a
04
1d
c7
f3
f3
ed
f5
fa
05
23
f0
2f
22
1a
57
fb
bb
e3
fc
f4
e5
04
d4
0c
d2
00
e7
e4
ea
2f
1f
01
e6
0c
00
f5
10
c3
17
f3
fe
09
b4
06
0d
32
10
ec
d9
0a
15
f1
ed
f9
10
20
f5
12
09
da
f4
0a
13
1b
1c
c1
d2
1e
14
09
0d
dc
fd
c3
dd
f1
f4
e8
03
f4
f3
f0
09
f4
e9
21
05
df
14
38
13
00
fa
04
30
11
d9
07
f1
f0
d9
1a
01
13
ed
1f
fb
15
ea
ee
ea
12
d5
02
cc
29
03
fa
fe
0b
bd
c9
fe
04
fa
ee
06
29
07
01
1b
0e
14
e9
13
e7
5b
06
e1
0d
f6
0f
00
42
31
13
fc
26
14
01
09
e0
d6
13
ed
08
01
2c
0d
fd
19
dc
22
06
da
0d
00
0c
da
f0
12
10
48
19
f7
df
ff
0b
17
f4
ea
f6
f7
ee
23
e2
0e
0a
09
ec
eb
48
d8
12
1b
ef
12
d5
0c
1d
00
0e
e7
18
14
4c
0e
f7
25
fb
25
ee
d2
1c
10
fa
ef
06
f3
db
12
f6
e5
fe
d7
dc
05
1d
15
1a
03
ed
19
03
ed
e2
1c
26
0f
fb
ef
fa
09
fc
14
cd
3d
ff
e1
f7
03
20
e4
de
1d
33
12
fb
fd
05
e6
ef
dc
0c
fc
07
3d
df
14
16
22
f0
24
ea
1f
21
12
e5
0e
35
d9
bd
21
da
00
f5
b2
13
f5
c1
08
fd
0d
3a
f0
e9
30
4d
0d
08
25
ff
0a
f1
e3
2a
fb
ed
2a
f7
41
f0
d7
f5
48
27
07
c7
1f
f9
0e
0e
23
23
b9
f4
f9
16
f5
07
09
fe
11
12
04
2f
fc
d9
1b
2b
d8
e8
00
27
2e
2e
eb
dd
02
f4
0f
19
2c
01
2b
f4
b5
17
d7
04
c4
ea
ca
ed
1a
1f
f6
0e
1b
f0
ee
eb
e6
20
d2
1c
dc
1a
f6
13
3b
01
22
e9
00
f1
e8
4a
05
cb
18
c8
db
33
f0
28
01
10
16
f5
f9
f9
ea
f6
d4
ef
05
f3
01
f1
d3
0b
ff
ee
0e
fa
f9
ef
f9
2a
27
1f
cc
f8
18
2f
30
19
f9
0b
e9
e3
12
f2
ec
17
05
e1
15
fd
0b
f3
12
03
ec
20
21
fd
00
19
f5
02
e6
01
04
14
e9
f1
d7
13
12
ef
e6
27
fd
2b
19
03
19
3c
ee
02
1e
f7
19
14
0d
2f
1b
d1
f4
e3
f5
05
fc
f4
f0
2a
05
1a
f3
f0
e8
19
22
24
f4
c7
c2
f3
00
b9
fb
1d
08
e2
1c
07
ee
14
e0
41
f6
fe
2e
1a
ff
c0
fb
27
ff
2b
c2
ac
40
01
06
16
0a
08
2d
c7
fc
e1
f5
fe
06
2e
f9
f0
03
f9
f2
d9
f6
f7
d0
f5
e1
e0
e8
0b
21
11
f4
35
e1
f9
0a
ee
1c
1e
f0
06
fd
df
f6
dc
12
25
0f
06
30
19
f6
f8
0d
19
ff
0b
38
27
33
f3
11
f3
f3
0f
eb
fa
00
e3
30
12
11
06
1a
cf
d7
b4
f4
04
1e
1b
f4
fa
e8
3f
17
ef
d6
c8
44
ec
f8
f7
0b
0a
27
37
2e
fc
0e
46
2e
03
1f
2a
e5
10
f4
15
06
e0
09
0d
08
13
03
e1
33
05
ff
1e
2c
17
ec
2b
0b
f4
fc
ed
1f
1f
f0
1f
01
15
1e
eb
13
2e
e6
35
30
0e
ef
fc
0b
ff
e0
de
d0
21
f0
14
f0
d7
1a
fb
f6
07
fd
05
e8
13
19
ec
03
ea
29
07
0e
14
bc
18
3d
d9
ef
ee
fb
f3
df
fa
24
e1
e3
10
d1
e3
10
eb
f8
f5
13
02
0e
0a
e8
0c
0e
25
ed
ef
f8
20
20
06
c0
f9
05
fa
f1
fa
26
e1
d1
01
16
04
f3
e3
f8
b8
11
ef
ef
fa
34
10
21
06
fd
09
05
e8
02
f5
0b
f0
f0
ea
12
e4
30
05
1a
df
0c
19
00
12
05
fa
10
0f
f5
cc
09
11
d9
fa
08
ec
28
ec
db
ea
d0
00
08
0f
04
0a
03
0a
31
1e
ec
eb
f2
12
21
13
00
dc
f1
d8
04
e2
fc
ff
f9
d5
2c
14
e8
f3
09
f1
0b
e2
cf
0e
fd
11
f9
33
d9
05
26
03
0f
26
ef
0d
0d
fa
07
e4
07
04
dd
fa
e9
0c
01
e0
e8
fb
07
ff
2a
e2
ea
ff
1d
2a
07
fa
ec
15
19
dc
0f
01
e8
21
11
32
0a
0f
14
e9
ec
1b
16
19
04
0c
0c
30
e2
f2
3a
f3
11
3d
33
1d
14
04
05
30
af
e6
d1
f3
fa
f5
00
fb
00
e3
ea
1e
ee
ea
f9
19
28
ef
07
2a
de
f2
06
de
fa
d7
f4
e2
07
d6
fa
1a
e6
21
e8
04
0d
cd
1c
2d
15
05
cd
31
fc
d7
25
dd
f4
1d
ce
21
f2
e8
18
09
49
e7
e7
db
dd
f9
08
15
dd
13
04
09
20
35
04
d9
f6
dd
05
16
06
1b
13
03
14
f8
17
08
f6
10
11
36
fc
38
e1
f3
09
14
0b
cb
f2
dc
eb
f2
13
08
ee
13
d2
f6
dd
17
1f
1c
b9
fa
1c
fd
10
04
ee
15
21
25
e2
23
30
fb
0f
2f
01
03
c9
0c
f7
26
f6
d5
16
ed
ff
25
1e
21
10
1a
fc
1a
f0
e9
ce
da
f6
e2
06
e2
13
e7
1b
0e
e5
e7
de
00
00
d6
e3
ee
fd
22
c5
24
21
c3
14
cf
14
e7
f6
fa
cb
13
03
1d
65
09
11
06
ff
00
f7
e8
de
0b
e4
1b
ee
f1
0c
0b
2a
ff
f0
f2
00
21
f5
25
09
37
f2
ff
fb
41
27
ff
13
e6
18
1d
13
d1
1f
eb
15
fd
bc
d6
06
fb
f5
df
ef
21
ef
ec
3f
10
27
f1
f0
ef
ff
fd
02
fc
10
fa
2d
11
12
df
f4
01
ff
fe
2c
21
22
dd
1a
e3
1b
0e
e8
e4
ea
e3
0b
f5
f8
1c
d8
3e
e2
00
e0
f3
dd
26
17
e4
ed
23
3a
18
11
e1
0a
0b
f3
f2
fa
1d
1c
cf
f7
ff
d2
f7
e7
30
f3
f3
f5
13
29
04
02
07
f4
06
22
d9
f2
15
18
10
15
16
f5
03
d2
04
da
23
cd
0d
fb
24
0e
34
0e
eb
11
1b
fe
09
ef
1a
04
eb
1e
e1
03
19
f4
0b
18
e6
de
08
fd
41
f2
44
33
f8
00
ee
10
17
ff
0b
01
f2
e6
e5
16
2c
0d
d8
f1
f6
00
e2
1f
14
0d
11
eb
f4
f4
1d
f1
1f
18
17
ff
19
dd
47
e7
06
fd
f9
f1
16
05
00
f3
00
e0
22
d1
f7
fd
30
ea
0f
06
ea
ff
0b
03
df
fc
be
14
22
ea
fa
f3
ed
fd
0b
c8
28
e3
00
1c
fb
30
fd
03
34
17
fc
0a
f3
dc
08
fa
00
f3
0d
07
13
0c
28
f7
21
d9
fa
14
0d
2f
fb
02
10
00
0f
40
e2
c0
d8
0a
03
18
f7
1a
27
fd
09
d5
50
05
f6
01
29
04
d1
24
ed
e4
d1
18
08
db
08
ed
e1
fb
f3
d3
d8
2e
14
11
f4
f4
00
22
3d
0e
16
0f
df
08
05
ec
da
ff
de
dc
10
de
d7
b6
c0
1d
26
ca
02
2b
25
e5
ce
06
eb
0d
05
40
17
f3
09
3a
ef
e6
02
fc
1d
ec
27
ce
09
f3
e8
d7
1c
52
fc
f5
0c
e3
27
e7
c4
07
44
fd
17
08
0d
2e
21
28
10
20
cf
fe
15
1e
f1
0f
29
fa
15
1a
dd
f0
ae
0e
13
16
fb
01
01
ec
c6
d3
3d
c3
0d
0a
e6
09
06
e6
06
1f
ee
c5
3a
ba
25
eb
31
d7
04
f8
06
ec
ef
0e
3a
29
ef
f3
bc
fb
e6
17
dc
0e
02
f3
17
0b
09
21
f8
14
ed
23
0d
01
eb
dd
fa
e0
0b
ff
c7
08
ec
f1
03
e8
ec
2c
e1
32
04
1d
31
ed
00
fb
db
f1
e2
0c
c2
26
ff
12
23
e4
f3
03
f1
e5
db
da
02
fd
de
0d
05
04
20
03
34
f3
fa
14
fd
e8
22
04
f5
12
1a
fe
fb
fc
fe
f2
00
1a
da
33
40
df
2d
c8
10
09
e1
f5
12
da
09
02
15
3b
06
05
0d
0b
d8
f7
06
2a
d5
e2
19
19
17
07
16
ed
2d
05
22
ef
1a
df
e8
e4
11
19
16
42
e9
23
2b
01
52
e3
1e
ed
f4
02
e8
fb
18
0f
fd
f6
f0
08
d7
e9
e5
de
08
0e
22
15
16
19
c4
1c
05
31
f8
fd
f9
dc
f8
fe
e0
0a
21
2b
2c
21
dc
41
f0
12
e2
26
fa
0a
fb
16
f2
de
23
f4
dd
02
1f
1f
03
e3
f4
e7
19
19
16
e1
25
09
28
1e
f2
1d
d5
f8
01
ff
f0
f4
17
14
fd
e4
f0
0c
05
12
02
fc
f6
10
48
e5
13
fe
1d
ea
0a
e9
2b
20
00
ec
ca
15
ff
2d
e5
e1
e0
fa
e9
fd
1d
cb
ed
dd
08
02
df
f9
0e
fc
ee
16
13
f4
12
ff
05
22
1e
f0
e4
06
ff
07
14
17
f5
0f
06
03
42
ec
2a
e0
f9
df
11
02
0a
e9
e0
cf
08
f0
07
04
12
f7
bd
f2
f7
0c
34
06
02
06
4e
26
fc
fe
d7
32
f6
f6
41
fa
48
15
05
05
d3
08
15
16
10
fc
ee
de
d5
fd
47
20
0b
35
fc
05
ea
09
0c
f6
f9
32
e4
fa
01
fa
09
ee
e7
05
0f
0f
14
07
03
fd
1c
22
0e
02
1a
dd
07
1f
f6
08
02
12
ee
dc
eb
0f
22
f7
0b
bc
18
d6
02
32
25
07
25
02
1a
ea
e7
cd
e3
fd
fc
0d
e6
02
2d
e0
f5
e8
f7
c5
e6
09
1f
05
dc
fd
f7
06
ed
13
d3
df
08
fa
f6
d6
be
08
2c
1f
0e
0b
3e
04
0d
0b
05
e7
01
01
38
18
09
d9
eb
cc
e5
1b
e4
f7
df
22
e5
0b
1b
db
01
1e
08
2c
36
21
12
2b
24
fb
f7
03
07
ff
f8
41
19
e9
10
f4
e1
e6
fd
0b
01
03
00
f9
fa
e9
42
13
e4
06
fa
12
34
10
ef
df
04
23
1f
f2
f8
18
df
1c
f3
dc
f6
1f
21
f1
f0
1e
0b
d8
21
1b
dd
f9
1b
10
f3
26
e7
34
f0
23
f2
f9
08
04
1c
06
1f
ee
32
f6
e8
c4
ff
20
f0
ff
e5
1e
39
f2
e4
08
f3
16
16
0d
ff
01
2b
10
eb
bf
db
e4
f7
02
ee
16
12
2b
47
fe
d0
0b
ca
ec
ff
e4
c4
ea
e8
d8
da
2a
02
23
02
fa
21
0c
f9
18
1a
0f
fa
1b
f7
0d
0f
e1
0d
dc
d7
0e
ea
33
df
15
f6
f5
17
eb
16
e6
2b
ec
f7
d4
0a
1c
12
c3
13
d2
f7
f1
03
25
ec
e8
21
d4
01
14
0f
f5
bc
00
0a
f4
d6
fb
2f
de
f4
ef
d3
17
fa
e3
11
f6
e8
ed
0c
26
fa
ea
f0
0a
f2
cc
ff
04
f2
1f
d4
0b
3a
f2
33
f7
f9
ef
f5
dd
1e
1a
09
09
d2
02
04
11
12
22
1f
f0
14
db
0a
fe
ee
e1
3e
f9
ff
fc
0e
49
08
2d
04
1f
e5
0f
3b
29
e7
f6
08
e6
df
0d
f8
fd
d6
36
cc
17
0e
0a
0c
de
26
27
ca
f6
11
f0
f6
fd
0d
07
ba
03
2c
15
1e
24
02
0e
f5
fd
fd
f2
28
1e
f6
1f
28
17
14
e6
07
ce
b7
28
f1
2f
f8
f8
14
02
fe
fa
f7
13
e8
22
2d
21
f5
ee
1a
1a
c1
12
e3
16
1a
0b
f1
16
17
10
22
fb
0c
1f
e8
f2
f0
f0
08
0e
df
e6
14
de
19
f0
ed
f7
19
0e
0e
f7
03
11
d2
29
eb
08
18
1f
e2
30
22
fe
22
16
fd
d1
07
d7
e2
2b
ed
2d
ec
ff
01
17
00
12
12
ed
07
2e
d4
1c
27
c8
d9
01
fa
f1
07
12
22
fb
f9
f0
ca
08
f7
1a
e4
05
e7
fe
0b
17
e5
fa
b1
f4
e3
fb
fe
d3
f6
f7
1b
dc
e2
fe
16
02
13
dc
04
f0
de
16
12
04
18
dc
f5
e8
f5
10
1e
0d
29
db
30
24
e7
fe
16
15
21
09
e5
f9
00
08
14
eb
30
1c
17
03
ff
ed
08
ff
ec
f7
1f
e7
e9
06
1f
2a
12
f9
52
06
ec
fd
0d
13
09
dc
ef
ed
ef
fe
07
f5
07
cf
f5
1a
12
10
f0
23
ea
d8
ed
fa
21
12
fb
e0
e5
ec
0c
d8
df
f1
ec
fb
c8
f5
1b
f0
db
13
0d
17
f6
f9
05
02
3f
22
c2
cb
1a
1b
da
18
0c
03
1c
01
fe
0e
3b
ef
f6
31
de
3a
12
f0
c8
f5
04
d1
0a
f8
29
d2
c0
d1
f7
1b
f8
df
fa
e1
d9
16
f7
3b
d9
fd
d7
19
f7
39
0f
03
1d
06
ed
e7
f7
44
17
00
fd
fd
eb
03
18
06
06
dc
12
16
11
03
db
16
c3
46
20
01
ed
39
0a
29
14
16
e4
ec
23
32
14
d2
f7
04
0a
ef
e4
d3
d0
f1
03
fa
01
2b
15
ed
e4
28
2c
ba
03
fa
bf
31
c4
19
38
f1
55
d3
f5
ce
37
d2
f4
f4
05
04
03
3f
f5
d5
fd
30
04
e9
1a
3b
2d
d8
0b
08
07
d9
0e
ad
fd
e3
e9
fc
16
0b
0b
e1
18
1f
19
3f
0d
fd
f5
f5
11
0e
07
f6
e4
2c
f6
25
1f
e0
38
ed
0c
e5
1e
09
1b
20
13
db
f6
c7
ff
08
0d
09
e6
06
d3
0d
fe
f1
fa
3e
e6
03
d9
08
e5
f9
ec
0c
d6
35
28
1e
f6
f4
cd
0d
22
01
de
0a
0e
0f
e5
02
fb
f4
0c
f5
31
19
08
15
09
d2
13
13
38
05
00
ea
fb
f1
00
d3
ef
26
0e
ed
09
ec
0e
28
28
07
02
fe
fc
fb
0c
ef
34
3e
10
ff
da
f5
e9
1b
f6
ff
cf
fd
07
29
12
18
bf
e4
db
0d
32
09
13
12
16
00
07
19
e2
f4
20
17
14
07
16
f6
f7
1d
f7
f8
e3
0b
d0
f9
51
14
04
29
06
17
25
10
09
d5
09
fa
0c
37
f8
2d
13
20
2b
bb
e7
0d
16
21
0f
f6
0d
06
e7
15
3d
df
03
f2
2e
f3
03
dc
ea
29
ba
02
df
03
1c
f5
e8
f5
02
0a
07
18
f6
0a
f7
f2
cd
ad
f1
f7
b4
26
12
0d
cd
ec
e5
16
fc
1e
14
0d
09
0f
b3
f2
d0
ec
fa
01
00
01
42
fd
2f
ff
e6
f9
ee
e6
e2
e6
e6
e7
fb
fa
fd
e5
db
f6
ff
f8
0b
ee
08
0d
d9
04
de
f4
fd
20
2a
00
09
06
15
c0
fa
08
cd
05
f6
15
10
10
0f
df
19
ec
ff
3b
f7
ed
00
e4
27
14
27
26
0b
48
e3
f8
e9
0b
18
f2
35
03
f9
fb
0b
fd
d8
e3
e5
06
fd
02
cf
14
f4
e8
08
16
0f
07
01
07
fd
e3
dc
cb
ea
f8
da
1c
fb
be
0c
2f
04
04
eb
e9
17
e3
07
24
f9
fa
f1
ee
e6
fb
ed
d6
ee
4b
29
fa
eb
0f
0e
ed
e7
e2
fa
18
bf
e9
f9
e3
32
06
16
10
16
f6
f6
b8
16
0a
19
cc
02
e3
1c
fd
d8
11
19
eb
fe
e1
c9
f6
ee
ed
1b
ff
18
d0
04
13
f1
01
fb
de
23
0c
d9
03
26
2b
fa
07
ee
02
0d
12
f8
05
dc
c8
e5
0d
f2
0d
25
0f
cd
e0
f2
35
ec
01
01
eb
2b
2a
19
ef
e2
f4
17
f7
f1
f1
0f
e5
f9
17
1f
0d
08
01
0d
e5
25
ed
fb
0d
10
ee
f3
2f
cb
eb
fa
19
11
00
cd
08
da
e5
1b
d6
19
f4
e3
1e
12
fd
ed
01
c0
fa
f7
e5
0f
20
0a
e3
fa
ed
e3
32
1f
f8
f8
f9
19
06
e8
e3
06
db
0c
02
f7
00
dc
f6
e1
f8
de
0b
ef
05
0e
d3
00
06
f3
25
1e
e9
fb
09
e0
b8
ed
0e
2f
11
ec
1a
f2
04
f0
f6
14
02
fb
03
00
e8
08
ed
e2
e0
12
f6
24
fd
ef
d9
0e
f1
fc
21
df
f9
d6
0b
ef
ae
14
22
f7
e0
07
2e
0e
22
3c
0c
32
f5
f6
20
21
ec
f1
3d
08
02
1c
d6
e6
d0
bf
fe
1b
08
19
08
13
fa
e7
08
e9
f1
ef
e7
f0
f1
23
21
24
1b
ed
fb
27
fe
c6
1a
00
17
0d
07
d6
ee
13
0f
20
ed
f3
f9
22
2d
1f
e8
1d
0d
f5
c2
10
ca
2c
14
ef
f4
ff
dc
fe
f5
d6
04
14
da
06
3b
ce
41
f5
07
08
1b
17
0d
ea
e7
1b
00
3c
f6
21
df
fd
e9
c7
fc
f6
12
06
d8
fa
f2
04
26
ea
e3
27
0e
15
28
ce
ec
c7
f6
22
2e
fd
2c
e8
e3
e3
0c
07
ef
e5
fc
ff
f3
16
e9
07
b8
eb
18
f2
25
fb
ea
22
0f
21
0f
e8
e5
0c
08
ef
0a
1a
27
2c
1d
d5
bc
0f
d7
ce
df
28
1e
00
c7
02
07
cb
0c
38
d8
fe
fd
f8
11
29
f1
0d
35
10
17
05
07
28
23
10
36
08
09
15
09
24
13
0d
0b
e6
ff
08
dd
0e
01
e4
0d
e0
22
02
14
0d
06
eb
c3
19
05
17
10
34
ed
12
1e
04
1e
03
13
37
ef
1e
00
04
fa
da
0e
08
ee
ea
08
65
0b
f9
26
c9
24
e1
31
f3
f2
d9
fa
15
d5
dc
15
df
eb
fe
ef
13
1d
ef
e9
fc
dc
f1
fe
07
dc
d8
05
00
0b
19
f2
f0
ea
07
19
e8
0e
f8
f7
fa
00
d7
e8
0a
19
09
26
e6
08
08
f4
0c
04
08
ec
29
39
0a
fb
02
e7
e7
12
fd
f6
2a
22
eb
f8
ea
fa
0f
09
e9
04
de
fd
ed
07
26
ef
0b
00
e9
04
3d
ee
ef
0c
e6
25
d7
c3
e5
b9
14
2c
06
02
15
f1
dc
e5
31
18
eb
ff
fa
09
ff
ee
00
fe
b8
02
ed
01
f9
fd
32
0a
10
00
ec
fb
f0
0a
03
1c
02
f1
e0
02
f4
ea
2a
e6
12
ed
1b
0a
e4
0a
f7
d8
00
f3
c2
ea
dd
ce
26
02
1c
0e
d9
28
e8
ec
e1
ff
fd
19
21
fc
e4
fb
f4
eb
12
fd
e1
fe
e7
11
23
21
f1
41
29
d9
df
2f
ee
fb
c0
10
03
03
03
13
0f
0e
21
ee
2e
29
1c
09
22
d3
08
19
f5
fa
2d
20
d5
02
24
02
e8
11
02
fb
03
09
ff
dc
e0
f1
f6
0f
df
e5
0e
ea
fe
02
17
23
0c
f3
dc
cb
06
ca
0a
f5
04
b9
e8
cd
21
11
f0
00
fc
d9
17
2e
3f
fc
08
ff
19
10
04
27
1e
06
e1
05
da
e7
eb
00
17
01
08
09
05
ea
f5
1a
f8
f5
ef
0b
f2
19
f0
e8
dc
1d
fe
2c
15
2f
07
f2
ea
07
ff
1e
ec
0c
19
29
0a
fc
e4
01
e0
ec
e9
ec
f3
0a
f0
05
ee
fc
0b
07
f8
d1
16
f3
f5
fd
fb
c6
3e
ed
fb
03
43
19
c3
0d
cf
ef
e1
27
2e
f9
db
03
ef
11
fa
eb
0c
4c
fc
02
e7
f6
19
31
ef
04
07
1e
0e
c7
f3
05
fe
be
d7
fd
2c
20
0d
0f
dd
3a
f4
08
32
3d
f5
c9
d8
fb
fc
ce
f6
2e
0e
2c
0d
03
f0
b5
1b
ea
1a
f7
19
00
f2
08
e9
ea
ee
0c
04
ef
d2
eb
e4
22
22
fa
04
e5
e1
d4
2a
0d
09
0d
2c
09
14
18
b8
16
02
e3
b2
c7
ee
e4
fe
f6
1d
ee
e5
0c
da
23
f5
f8
d7
f9
25
e6
fe
f2
fa
0a
02
1b
d0
0d
0a
04
24
06
44
00
41
fb
ea
fa
fe
0d
05
04
11
09
ee
cd
e6
08
e2
11
06
13
05
da
fe
04
32
ed
18
18
f4
05
05
1f
25
11
c9
1a
01
0a
eb
1b
f8
31
da
11
08
f7
ed
f3
05
03
22
f5
ee
dd
24
33
1d
d9
f1
18
d0
22
1d
06
24
16
02
1c
d9
1a
e4
14
ca
f5
ee
ef
11
f9
fa
09
fb
e7
00
0f
02
f8
f6
ed
ec
15
f0
1b
0e
2a
13
18
37
19
06
d1
0b
0c
02
18
31
0a
f8
1d
11
05
bd
26
27
07
fa
e9
06
03
f5
f8
0e
e9
17
dc
dd
eb
1e
d1
f5
fd
fa
fc
de
ff
fe
2c
1a
d1
01
f1
31
f1
05
20
25
07
c1
dc
3d
05
13
13
04
07
e2
11
fb
f8
13
f0
4a
e5
47
2d
e0
ff
fd
0a
eb
34
09
07
d3
d0
da
0d
0b
15
f7
de
fd
31
0f
eb
cd
e3
de
ff
16
ff
e2
10
2b
e6
f4
f4
0f
30
03
14
05
00
fc
e6
1c
e0
e1
f2
34
df
f3
f6
3a
0a
ed
e8
e9
da
f6
eb
26
4e
fa
e5
ef
c3
f3
fe
9f
f9
ec
00
17
01
30
d7
0d
2b
06
05
06
ec
33
22
e7
fc
f9
fb
eb
d6
3c
d1
da
36
f1
d1
d1
dc
07
18
f1
c8
f5
f4
29
d8
d1
ee
f7
ef
f5
f4
fc
db
10
ec
11
32
f1
1d
f6
0f
43
fa
f4
f3
00
05
40
14
ac
de
2c
f6
3e
11
f4
eb
05
07
15
d6
0e
06
ef
22
d8
0f
1a
f0
e3
e2
d6
d6
25
27
dc
27
cc
03
cf
c1
06
08
04
ec
ee
13
d4
f0
e6
12
0f
04
0f
26
2b
f1
00
e6
08
29
c4
fe
fb
13
cb
df
e4
e2
24
dd
f8
0e
3d
19
e7
29
07
f3
16
19
04
f0
f3
a4
1b
e3
0e
ed
f7
eb
1a
0a
f5
e3
10
fd
fe
1e
21
f4
2a
fb
c4
e2
25
d7
fb
f9
19
03
11
fc
bb
02
f8
f4
02
e2
25
c9
fc
00
ff
01
35
ed
0c
fc
ff
11
02
02
12
0a
1a
2f
f6
f7
f7
3d
0a
11
e7
f3
29
e8
1d
1e
17
17
c8
18
2e
e4
27
d2
fa
e7
e5
e9
f9
f4
f3
14
18
f2
f1
3e
28
1f
f3
07
ec
00
e8
08
2f
17
f9
e7
d6
f2
fe
19
f6
18
2a
f8
13
c9
21
f4
15
dd
2e
19
1f
17
19
fb
ed
17
07
f9
28
fa
07
fa
f2
e7
04
00
dd
fd
f6
f5
04
36
03
36
06
0d
fb
07
42
ef
4d
e6
ea
f6
e9
0a
3a
f0
0c
ef
10
fa
0d
43
e6
11
eb
08
f1
12
18
f4
eb
07
14
f2
30
e8
1f
12
dc
ef
0a
e6
e6
06
19
ed
d7
1f
0a
15
05
e2
1d
f8
fc
08
e6
cb
c3
e3
0d
20
fa
ec
05
08
f0
0f
f5
2e
f4
10
1c
08
3a
ff
38
eb
12
04
fd
e4
15
26
0e
e5
fd
00
fe
f3
ec
fb
fa
f3
cf
27
fe
eb
cf
07
fd
02
df
0f
f7
1d
fd
0c
e3
12
16
f7
d8
1d
1a
f8
e8
0c
c9
c2
ec
fd
d5
f9
d9
18
f1
e8
07
11
00
e8
f0
f5
fd
ef
ef
f9
cb
16
fa
fa
2e
28
1b
22
eb
09
c6
f4
e5
1e
e2
e1
eb
da
fe
03
24
fb
fa
e1
2d
e6
36
e8
f6
3a
06
14
2b
fc
f4
46
ed
2b
eb
f7
04
e8
18
cd
f5
15
ed
f5
ed
12
ca
f0
13
e8
04
13
e0
10
ee
01
d3
d2
38
ec
dc
1b
07
01
f7
d9
fe
e4
e3
ef
18
f5
20
eb
19
1a
e0
fa
fc
f2
13
14
04
cd
ed
ef
ed
18
10
15
22
f2
38
da
ea
ff
fe
e0
2f
cb
e6
07
16
e4
01
fa
c6
fc
1b
fb
05
1c
25
f9
36
03
00
2f
0c
0d
0a
ea
0b
f0
c9
f4
f1
e4
fa
0d
17
0d
f7
26
17
f3
d3
23
f0
05
ea
bd
e9
2b
ca
fc
05
16
14
23
0a
f3
ee
f2
04
05
c4
f3
dd
3d
0e
23
0b
dc
fb
13
1a
f2
0b
ca
15
c3
e9
03
0c
0b
a0
df
18
ff
13
0e
0a
11
ec
07
ff
1e
f6
11
3f
03
1a
e7
f2
03
04
fd
c8
e5
0f
18
32
18
2a
f0
ff
d5
f0
f9
d0
e6
ea
15
ff
d4
dd
26
f4
c4
ee
fb
fa
f4
19
16
2c
0b
ef
2f
0b
d7
eb
01
e8
fe
04
3d
09
29
23
dd
25
11
16
0a
1f
1a
fb
d1
f0
20
c8
e8
eb
0d
3c
02
ef
0e
29
30
fe
f3
11
e4
32
c2
fd
ee
e1
1e
d9
07
24
ef
0e
04
1b
43
0b
eb
9a
12
d8
0e
41
05
fb
27
e2
ef
f0
f5
31
0a
22
fc
fc
f1
ec
30
0f
d7
ff
17
0a
d4
e2
24
fd
de
fd
0b
14
0b
0b
ef
f4
08
ea
e3
d4
d8
f6
ea
d8
3e
f0
0b
c5
eb
f7
06
f1
27
04
08
00
fe
ea
13
08
b5
c6
04
e8
e8
d8
1d
d1
18
14
08
c8
f6
02
07
e3
03
0f
cf
f2
dc
03
23
fd
07
03
ed
0c
f5
e2
0d
2d
f4
e1
0f
d8
e1
fb
f6
11
f2
1e
06
fc
03
f0
21
07
e6
f4
15
0b
1d
d4
e2
fd
e2
f7
ea
f6
e2
2f
00
ee
e7
fb
f4
0b
13
f8
e1
e7
fd
33
18
ef
02
0c
0f
11
bd
22
22
ec
fa
ff
e3
30
00
00
f0
20
eb
e1
04
f2
11
16
f9
ea
bf
fd
0a
f4
24
df
0a
1a
03
01
08
f2
26
21
17
f6
de
05
ef
e0
0c
08
0e
e9
2b
cb
ff
d7
20
18
16
e8
e9
0c
20
df
e8
11
ed
4f
db
ff
ee
25
e6
ed
ff
fc
0e
ee
33
1a
f9
21
0a
e3
26
05
12
3b
16
fb
01
db
e5
ff
f8
fb
02
0c
00
13
41
ff
d9
db
c9
0d
cc
0d
23
fc
ff
11
15
13
d7
15
f6
1a
d1
ee
14
ed
d5
f0
19
2e
df
df
fd
ee
ee
22
f3
fb
fb
05
08
12
e1
e3
24
e0
0d
fb
0b
25
0a
e3
e8
f1
19
02
e4
f4
05
1a
f1
13
f1
ec
a5
1e
12
e3
0c
55
19
e9
08
22
0b
c1
da
fa
14
02
d8
21
0b
fc
0d
02
34
d9
f6
12
d3
ef
f8
ec
de
00
0e
00
f8
0b
ff
f5
05
e6
14
ff
0e
1f
d6
39
f3
1a
08
1d
cf
36
27
fd
48
f7
ee
12
d5
02
53
cb
f2
01
f1
28
ec
eb
11
f0
03
0e
fd
c8
f1
01
e5
1c
1b
05
15
e7
08
f6
e6
f3
fd
d9
c8
07
fa
08
2c
2a
df
e5
e6
f6
f6
14
cc
06
06
cb
fe
e1
c7
ee
e8
b8
ce
1a
f4
05
02
0c
ed
f3
f4
25
ea
ff
e6
da
0d
ff
f9
24
f0
c7
16
15
ff
11
11
13
f3
e6
e9
0d
25
2c
f3
e7
dc
01
f1
ac
26
d7
ec
eb
12
2e
1f
ef
d8
06
ec
ed
e3
cd
31
e0
23
0f
0d
e2
d7
06
03
f1
18
d8
09
3b
d6
01
d6
eb
cf
2d
fc
20
25
14
1d
39
ee
e1
0f
03
01
14
ea
ea
00
02
1b
fc
e7
00
1f
e9
f4
d8
13
04
07
d7
e1
ea
2a
17
f5
12
e1
1f
c2
29
09
0f
29
06
21
23
de
06
16
e5
42
df
f9
07
35
03
08
39
e4
fe
1e
fd
e7
dc
27
27
0d
03
02
ff
ef
01
06
e8
f9
08
e5
e2
e3
02
e0
18
04
cd
fc
d5
30
40
e4
05
f7
21
15
e2
ec
fd
04
0b
e8
0f
d8
d2
0d
e3
fc
fe
c2
0b
cd
e4
23
2c
d3
ec
03
21
ef
0b
14
19
ef
0b
e9
2a
ed
f1
fe
d8
35
dc
01
fb
ee
c1
02
f6
ff
40
07
23
f9
f5
0e
06
e5
e3
ca
e5
f7
f8
fa
23
d6
37
e8
d3
ef
06
33
35
f8
db
05
0b
ee
ea
db
03
07
21
0b
c7
10
f3
f3
1f
1c
da
04
c5
3c
ee
2d
38
19
c3
38
f9
de
21
e2
17
fb
15
0c
16
0d
ef
e3
fc
11
07
f7
e4
01
fa
e9
21
fb
ed
04
f0
ef
26
f0
16
ce
ee
0a
ef
e5
eb
1a
4f
2a
06
ee
fa
35
16
0c
08
fd
f5
e8
eb
35
ca
e0
d3
fd
05
3c
02
02
1e
11
13
05
cf
ed
04
d8
d9
c6
35
24
cf
da
e7
e8
07
c8
3e
ea
f7
05
01
d0
25
18
fe
0f
e8
de
fb
fb
f2
08
16
e3
0a
02
1f
10
17
07
bc
f2
ec
0a
07
ff
b9
fc
ff
ff
d8
18
e3
fe
0d
f4
26
0d
0b
db
19
21
eb
fa
0a
0d
fe
ea
fc
15
2c
b7
f0
14
06
07
12
fd
19
ef
04
00
18
ff
e6
2a
ce
f7
11
ec
f0
fe
d3
0f
c6
07
25
23
11
2e
2a
0e
56
10
12
2e
ef
27
42
0f
c5
0d
18
0b
ec
e8
0d
39
ea
04
f6
0e
12
f6
ee
e5
0d
e6
2c
0e
31
0e
df
05
ee
f9
b1
d3
01
fd
51
e3
bf
ea
e9
07
fd
12
01
0e
00
d1
f0
0a
01
25
11
f3
05
1a
03
18
f3
01
f4
db
e9
cb
0d
06
18
eb
06
ed
f5
27
17
f1
00
f8
f9
ea
dc
12
16
01
d1
11
1e
dd
36
fc
0a
02
e4
ff
15
f0
e1
21
08
fe
cf
1c
da
d8
c2
4f
15
32
f5
0b
07
11
ed
e5
01
0e
d2
eb
f9
25
11
20
0f
1d
e6
da
0c
0c
1a
e5
ee
44
15
fd
f9
0d
e9
f1
13
29
17
f9
23
1d
0d
b4
2c
f2
07
2a
f4
0a
dd
20
1d
e4
f8
fc
e9
00
f5
09
0a
66
0a
e6
13
17
fb
14
02
f6
07
d2
2c
27
41
11
1c
e9
21
f4
1e
11
f5
13
09
ee
fd
08
14
0a
dd
f1
4c
e8
f7
fb
04
05
ff
ef
0d
df
2a
22
26
fe
e1
1a
fd
34
fb
0a
33
03
fd
e5
5b
fb
ea
e2
1a
e0
2a
fa
e9
fe
0c
e3
0a
fc
11
fe
d8
12
1e
ee
e3
e8
fd
f0
19
cd
2a
17
e8
e7
fd
f2
09
f9
d9
25
fa
ef
15
05
12
10
e4
e3
e7
13
f9
f5
11
c0
d8
e5
06
24
0d
f5
19
d2
f0
15
27
ef
10
df
42
0a
fa
11
19
1b
06
d5
1d
2e
ee
0f
15
f1
f3
ec
17
f2
e0
01
ea
e5
30
08
08
c8
05
1e
16
f9
17
16
19
07
eb
f5
ef
ff
05
0e
33
e7
02
df
e7
18
d9
07
ff
fb
e5
11
0b
cc
fc
1d
1c
25
37
27
f3
08
17
fe
0f
11
ed
f4
26
e2
fe
ce
03
f0
de
f7
34
0b
01
ed
e8
06
fc
15
fb
f1
f0
e8
d9
f4
06
28
f3
da
00
ff
10
f8
04
18
d8
2e
f5
01
1d
f1
0a
1e
28
f9
dc
ef
1c
ed
2e
e8
18
f1
fe
f2
21
05
29
26
27
fb
ff
05
ed
e1
de
17
05
f5
32
30
d0
1a
23
e6
1c
df
18
2e
05
fb
11
ed
ff
05
07
03
10
e8
f6
df
b9
0b
d1
39
0f
1d
02
f4
0e
d4
43
ea
bb
d2
0a
08
1e
f2
09
1d
19
05
eb
1a
d4
d3
d3
2a
f8
05
f7
f9
f4
12
f8
07
0b
28
c4
29
c9
0e
ee
08
03
0e
e2
22
cc
24
f3
ef
c4
f1
24
18
ec
00
1a
25
f0
0d
0c
fd
ef
f3
fa
d6
2b
e5
de
38
2d
e6
00
e8
12
d7
1e
10
f3
f3
10
ea
fd
f5
2a
2c
1e
47
e2
e0
34
e5
10
31
e7
db
e9
f3
2f
e9
fc
f1
c8
0c
00
c9
3e
ff
eb
d6
f8
00
0c
27
e3
d5
39
fc
17
0c
d9
1f
f9
2a
d8
fd
e8
1f
0b
02
de
e7
ee
d2
0e
f6
ea
00
e9
0e
ea
1a
ed
1b
da
15
fc
3c
e7
29
e1
11
fa
e3
02
ec
06
b1
27
ee
f1
e5
15
fa
1f
01
ee
32
fb
04
03
1c
13
32
cf
09
f2
2e
fb
06
14
07
ce
05
20
25
de
ec
c3
ed
03
32
ee
ed
1a
d5
d3
fd
c6
02
e9
cd
14
10
ec
f4
e7
fc
03
f3
d3
23
05
09
03
cf
e7
f2
ea
fc
10
ea
1b
f5
04
cb
f4
15
15
f8
35
0a
08
eb
b9
00
2f
e5
12
f3
13
21
ed
03
0a
fe
ff
e8
56
de
ff
f8
fd
02
f7
d4
1c
1a
12
08
1e
25
e4
f3
dd
04
f8
b5
0b
d7
fe
ee
35
0e
00
1f
0d
18
ff
3d
f9
e3
d7
0f
07
0f
fe
25
e7
1f
e5
a7
f6
c1
4c
01
e9
0e
d1
cb
2d
fa
ef
d3
03
06
e4
fc
e7
01
ff
15
24
04
2e
fa
fc
ef
dc
fc
d4
3a
1e
01
eb
32
1c
dc
f6
04
ea
fd
f3
10
e5
0f
06
fc
f0
1c
1c
23
de
0f
19
e1
06
1b
0a
f1
f8
09
2e
d9
f4
12
e2
d8
12
1b
11
e1
f0
00
0c
d8
09
06
f3
11
d2
d0
1b
2c
c5
1b
07
07
f7
12
f0
11
37
f8
f4
29
19
b2
e6
e7
0d
d5
06
06
ce
cc
01
1e
31
13
e3
39
fa
f5
d2
d1
de
1b
27
40
dc
16
f2
fc
1b
04
0e
04
d8
12
e0
f5
f5
1b
16
2a
18
1f
13
06
0d
e1
13
fc
07
09
23
0e
32
1c
0d
2c
f3
1b
f5
0f
03
ff
17
05
f9
c0
07
13
4f
00
f4
04
0b
ec
35
e7
f7
04
fa
e3
1d
00
ed
f3
d0
2e
21
e2
e6
12
06
06
cd
f5
1c
11
f4
fe
10
eb
ec
07
16
e9
d6
26
c2
ed
dd
06
d3
f7
0b
13
4c
fb
f8
f4
25
2e
24
c5
eb
c3
0c
ed
d6
35
2a
10
f3
f1
36
fd
0a
22
16
e3
c9
fd
c2
fa
02
eb
04
ed
08
0c
c9
03
dd
03
d6
12
e2
ec
eb
fe
0a
e5
f3
f0
19
11
ec
e1
05
07
fd
19
21
d7
1b
42
24
da
16
fd
09
25
1a
03
c3
04
e4
c0
f7
2a
ef
2b
0e
02
e9
fe
f6
5e
1d
f8
f3
09
f8
f8
e3
27
28
f8
37
ee
11
ce
05
18
09
eb
02
54
32
00
f1
e9
d4
17
3d
1c
0c
cd
34
08
e7
c1
ff
d9
06
08
ee
d6
db
fd
f4
28
17
0f
1f
1a
09
27
19
e6
da
fe
0e
cb
e3
f7
da
06
17
eb
f7
33
24
18
e6
e9
01
01
cb
bf
1e
ff
e5
eb
f7
0d
0e
2c
05
f6
eb
08
15
14
0b
26
3d
2c
1d
09
0b
e2
fc
02
4b
00
e5
fc
b6
24
28
f8
f5
f7
0e
2e
13
f4
0a
03
03
f1
fd
f8
2b
fd
fb
f7
f1
16
19
00
f9
1d
cc
d4
14
1c
f5
fd
fb
04
d8
f3
17
f8
ef
07
01
e9
bc
d9
fc
f5
ff
f9
fa
19
0f
37
48
22
3c
0e
29
ff
28
fc
f1
01
ee
15
c1
04
f7
e9
f9
fa
3d
02
e4
09
00
de
ff
ed
f9
eb
14
17
15
f4
fa
0d
0e
ec
18
1d
f6
e4
07
44
11
07
eb
0f
40
eb
c3
e4
06
13
04
db
e2
27
ed
1f
e3
f2
10
07
07
e4
0e
fd
e6
ee
1d
f3
13
e5
f8
f6
28
cc
ee
ff
0b
20
fb
e5
fb
fd
08
07
2b
d7
e5
08
c7
d5
36
f9
d1
22
e9
ed
b5
e7
01
df
ed
c2
f4
0f
12
dc
13
06
f2
e0
1f
f0
09
0c
04
10
d8
cf
fb
ee
0b
27
f8
e6
1d
05
28
c4
eb
02
03
01
dd
df
f4
04
3a
01
f8
05
cd
f1
b3
cf
16
c4
e7
09
13
0e
0a
18
32
03
0a
cc
12
38
c0
06
0e
19
cb
ff
fb
00
04
df
20
16
c7
e5
de
c9
f9
44
e6
25
f8
34
08
06
04
ed
04
eb
f8
2e
0a
2a
22
0c
fa
23
f8
e3
f2
e5
29
f8
fb
0d
02
05
0d
0d
01
11
06
13
f4
08
07
29
f7
e6
dc
18
d9
ce
ea
e4
c3
fd
1e
d7
04
df
f0
fc
26
d7
c3
fc
e6
df
fc
e7
ee
e6
e9
02
0a
1f
d3
0a
23
e0
04
ff
26
03
f8
0c
ff
27
f0
09
1f
01
0f
e6
de
f7
f8
24
f2
0b
18
c4
c5
05
18
03
16
b0
03
2c
e5
ff
0b
e0
03
fe
07
fe
1a
fe
21
fe
33
1c
fe
f5
da
26
17
02
fd
18
07
1b
fe
f4
0f
0b
23
d3
24
24
f5
db
03
a6
01
c1
ee
2a
24
cb
e6
12
28
ee
17
cf
fd
e7
e7
0c
e4
f1
3a
f2
f3
cb
e8
15
fd
cd
d7
ff
d6
0a
25
d4
f0
2d
2f
de
ec
0e
1c
02
fb
10
26
29
d2
2a
fc
29
05
f8
e7
11
fa
1c
02
02
d8
0c
09
e6
1b
cb
0c
14
19
2d
f6
00
20
1a
25
0e
d8
27
ac
17
42
07
17
26
f9
08
d8
f2
e5
03
04
f4
f0
06
0a
c6
05
02
08
11
cb
f7
26
e1
1c
0a
04
02
1e
f4
1b
fd
41
00
f9
32
2a
07
f9
e2
f9
f2
e8
c7
20
e9
0b
eb
f5
0b
3e
01
15
dc
07
14
0c
cb
05
ec
dc
14
0c
0e
d6
07
e5
e2
f5
0e
fa
15
06
0b
f2
f0
d9
f2
14
28
fa
ec
e0
e1
06
42
e1
e3
31
f6
c3
27
ca
b8
21
0e
0c
03
15
2c
1a
d3
16
eb
25
df
0f
c4
16
06
07
27
ce
02
fe
0d
0c
05
04
0f
f4
3f
06
19
21
fd
1e
cf
31
fa
e9
1d
13
00
fe
e6
fe
f1
1d
dd
f0
11
3d
d0
2c
f4
d9
be
fb
e1
d3
fd
04
24
e5
ff
1f
23
e2
02
1b
32
25
f8
08
01
e9
f6
11
1a
1b
13
e9
df
2e
fd
f9
25
f4
ea
25
fb
ea
db
f9
25
ec
f4
ec
12
f5
38
f3
23
f7
b3
14
05
fb
f2
f3
0c
ef
14
f6
f3
fb
f0
04
00
e1
ff
ed
f3
e8
16
ef
fa
0c
e1
fc
f6
d8
30
03
12
cb
f6
f7
22
f6
fb
00
f9
28
e1
10
e0
de
00
e7
14
12
2b
0f
1f
f6
11
2b
27
e9
04
36
09
ed
e0
03
ec
06
e8
e7
13
f7
f9
de
f6
20
0e
04
01
f5
f0
16
04
08
db
19
d8
21
01
e5
05
df
da
f2
0b
11
e8
f2
fd
00
21
04
dd
da
f9
cb
ed
04
dd
1f
e7
1c
09
08
f3
db
ee
1a
e0
f0
19
d9
cc
ff
17
22
f4
24
f1
24
0f
ef
29
e8
04
f1
10
13
1a
19
14
c9
e9
b8
e9
d8
fa
f7
d9
ec
fa
c7
34
00
d2
fb
2f
e8
fe
d6
ea
0f
10
40
e9
d0
cd
14
f5
14
15
ed
3e
23
fa
0e
f8
13
08
19
e9
e2
19
e7
0c
01
f8
e3
ef
1d
e7
04
1b
fc
31
fa
de
d8
e8
16
0f
da
39
ce
de
04
17
fb
3b
1b
26
28
24
37
f0
fa
11
18
3b
ff
31
26
07
fa
d4
31
f1
0d
10
0f
06
2c
c4
fa
fc
f8
cd
b8
17
17
03
23
f5
02
15
2c
0f
dc
0d
d8
1b
02
15
19
fe
f8
ec
1b
03
fc
e1
14
12
05
07
2d
e7
3b
3d
00
01
f5
f7
e8
28
01
e5
0f
fd
15
20
01
12
d6
0f
eb
e8
ce
2f
16
d2
f5
df
e1
c9
2c
f6
24
e4
00
db
18
f7
e0
44
01
24
fb
ff
25
24
ee
f2
16
52
1b
1d
00
1b
e9
0e
0f
d8
fc
34
1f
f6
13
f3
e6
f3
10
fb
1b
18
f0
08
26
0e
16
e8
e8
e0
20
10
e0
32
0f
f1
00
ee
1c
f8
e3
d4
0d
d6
f1
22
03
0d
df
0f
dd
09
ed
f8
e1
fe
f4
34
01
4a
3a
d2
0e
17
1b
f1
04
d2
fa
f2
0d
ee
f2
1d
c5
1a
c6
af
f6
dc
f3
e3
f8
0a
0b
03
fc
fd
f0
22
f9
1b
0f
18
f4
20
f8
d3
fc
ec
13
21
14
ad
f5
fa
0c
f2
04
e9
08
e7
05
06
00
ec
16
dc
d2
f9
17
1e
0a
08
0e
10
e7
f9
11
00
08
ff
3b
e8
fe
22
15
db
f9
f7
1b
1d
eb
d3
0a
f3
2c
01
21
09
0e
e7
dc
bf
29
13
3a
11
db
0c
0d
fc
e4
d5
f5
fa
48
ee
f8
06
e6
d9
12
c4
0a
c5
2b
08
1e
15
07
e6
dd
f9
22
13
b9
fc
eb
00
1a
ff
f8
f2
11
31
f9
23
00
e6
ed
fa
ed
b2
fb
09
e4
07
21
18
0c
f3
d5
fb
25
03
12
f9
11
14
20
05
15
a1
1b
fa
11
b3
0b
f0
e4
0a
09
cf
ed
12
db
ff
1d
19
1e
0a
df
07
0f
12
10
f0
35
fd
ed
c6
f4
fa
04
01
d1
d2
06
1c
fe
1f
14
d7
ff
ed
02
d8
ee
25
05
bc
f8
e8
0e
f0
f1
f0
1a
f2
25
08
d4
0f
ff
e4
14
d0
0c
00
e8
d6
eb
dc
1a
07
ee
0d
1b
d9
fc
fd
49
10
3d
d8
2d
ed
0f
16
f9
37
f9
30
4a
11
21
2f
17
05
1c
16
fa
2f
fd
ee
da
da
25
f1
ff
13
e7
06
0d
fa
07
1c
f7
36
e3
d8
f9
2a
e2
ec
dc
d6
fa
19
0f
f6
f2
ff
e1
0b
08
2d
f7
08
f5
e4
f4
d7
12
fa
fd
1b
fa
10
f2
1d
e2
da
f6
e2
11
04
34
01
21
c6
fb
1c
19
d3
20
d3
01
0f
1f
f3
e9
1a
ec
08
07
dc
fb
ee
00
f8
e8
d2
0a
ed
ce
dd
17
de
fd
d6
10
e2
17
e0
04
fd
e5
f9
f4
e0
02
23
cc
21
f2
1c
02
20
f1
f2
f9
e5
ad
2e
20
dd
e3
f6
de
3b
f5
d6
0a
30
18
d8
10
01
f7
1f
1a
1f
de
0c
25
fd
f7
00
0e
02
06
16
f1
e2
ce
2a
22
f3
eb
08
e0
e4
18
1f
f6
09
27
27
15
f2
28
07
0b
21
1d
1f
f6
24
0c
0e
e6
ee
df
1f
ee
e4
0c
0c
0e
05
08
e7
df
dc
08
14
f0
c4
0d
03
2f
f2
04
0f
01
de
e5
0b
24
0c
f9
08
02
08
09
fc
ed
f7
25
fc
0a
f9
fd
00
3d
17
d7
19
16
13
25
e2
cc
11
e3
07
d9
14
db
cb
d8
e1
fd
07
f1
18
fa
00
fb
2a
f9
ee
f1
03
eb
ee
f9
e6
d0
e8
f4
10
12
f0
11
cd
e0
c7
28
e6
ed
28
f2
f6
0d
19
d6
1c
33
f3
de
1a
09
f7
0a
28
4a
0c
11
1d
f1
f2
04
19
06
06
e4
e6
17
25
e4
00
09
34
0c
06
00
0b
12
e9
e0
fe
fb
2c
16
e2
e4
0c
d9
e8
1b
0a
f5
f3
06
03
ef
07
fc
d8
f5
33
f6
05
14
1d
1c
f0
fd
ea
e1
0b
3b
30
00
4d
31
f9
e9
01
1a
18
e3
dd
22
08
f5
de
0c
08
19
cf
f2
f3
34
04
2f
fa
49
1c
c0
14
0e
f1
13
e8
f4
18
03
2a
09
c5
f1
01
1f
94
27
c4
dd
f5
25
32
f1
46
d8
11
03
fc
f7
1a
07
1f
f3
2f
ff
33
f5
0c
e2
38
f1
0a
15
0c
00
15
15
fe
01
e6
25
2d
04
dd
ee
fc
f2
02
a9
12
07
1d
ee
c7
1f
f6
ff
1c
16
f4
21
fc
12
d5
f4
c6
e8
e6
09
f5
ff
01
11
dd
4c
1e
11
0f
0a
09
ec
fd
de
0c
e6
1a
ee
34
f1
e1
ec
0a
0e
00
e9
f5
ef
28
04
f4
f3
ee
dc
09
09
ff
18
df
ea
0b
ea
1c
00
e4
df
fd
22
ee
ef
38
2d
0d
ee
17
07
ce
e5
fa
1c
d3
1f
f6
fb
1f
ef
04
fd
0f
30
e8
cd
36
0b
09
10
df
e3
35
06
cd
0b
41
23
ef
01
d0
e5
18
bc
f1
f0
13
ff
05
fe
2d
ea
fc
e0
12
23
1b
e6
20
23
f9
e5
f9
13
d1
08
d1
e2
df
02
f3
19
ec
cc
f3
09
10
26
31
dc
e0
d1
07
de
f6
ee
07
07
12
e1
f9
14
f0
a9
0a
08
01
c6
23
e0
f6
fc
10
0d
00
ff
f0
0c
f0
f4
0e
ee
15
fa
0c
14
06
12
17
d8
f3
01
01
d5
0b
fc
0f
03
2d
dc
e3
da
f0
db
e5
f7
f2
0a
05
f5
f8
0b
f0
01
26
26
48
f6
f7
07
09
f4
df
fd
0c
08
fd
1f
eb
12
1e
41
21
e4
f6
1b
1b
ec
e2
da
0c
2d
ea
e2
f0
ea
fa
0d
28
30
12
2f
e9
29
0c
d4
06
15
e2
0d
20
33
fd
04
eb
0a
35
ce
d5
05
d2
31
31
1d
f4
06
fb
49
17
f8
00
ff
0f
24
d7
19
07
08
da
17
eb
e3
0c
eb
ec
09
04
ff
17
0c
23
17
f2
1a
cf
04
02
ee
d9
3f
0d
ab
f0
f7
2d
c3
01
df
1c
2e
09
d7
22
3a
da
05
e9
1f
1d
fa
fe
eb
e4
e8
f1
48
37
c6
e6
f8
f4
06
df
f0
e0
fe
e6
22
f1
0f
ff
2b
07
fe
f8
dd
1b
ef
1a
d0
ef
21
03
df
ff
2c
e9
c5
0f
29
ce
ee
31
d2
f0
f1
de
11
e0
06
14
03
fc
fd
d9
f1
2a
f1
07
f1
36
f6
e3
e1
1d
01
21
e2
25
d2
e3
35
22
0f
21
d4
26
f9
f7
f2
0f
e8
f4
f7
e4
e7
dd
0d
f9
ff
11
ff
25
d2
06
f4
eb
e8
e7
db
19
d7
f1
11
de
fb
fe
f5
17
e4
c7
15
23
f6
e2
1b
fc
d7
04
d4
23
3d
03
01
c9
1b
f5
20
f4
0e
03
f8
d1
0e
01
df
26
ff
f5
08
f7
06
db
d9
0c
11
09
20
e8
0f
25
bd
c4
ee
03
10
2a
08
d3
ef
fe
05
01
f8
fd
13
0e
0e
e2
07
15
f0
0c
04
db
2d
00
f3
25
35
17
08
1f
3d
f3
f5
3c
e5
03
0b
2b
19
d0
dd
d4
05
f5
e3
fc
1d
ca
e4
f2
ff
21
e8
fc
12
15
06
ed
f9
ec
08
da
07
09
fa
03
13
ba
28
ee
31
29
21
d6
01
f7
0c
ed
08
e0
1e
ee
eb
39
fe
f5
22
eb
18
fb
00
d7
10
e4
25
3a
14
f5
f7
35
cb
0f
0e
da
df
03
ff
19
46
01
f4
cb
17
21
d5
04
fa
01
ee
df
ff
05
07
cf
07
0c
06
df
08
f4
19
ae
1b
16
e4
f5
2b
ea
e8
e9
d4
2a
23
0b
1b
06
d7
0d
b6
ec
e1
e8
ee
11
44
13
de
03
0c
d5
02
08
20
e2
f8
d0
44
de
ec
29
04
1a
f2
2c
e4
fe
f9
15
f3
1f
2c
f0
08
d9
09
ec
18
e9
e7
04
0b
2c
d0
16
37
0e
e9
fe
2d
95
0a
06
03
24
f6
f3
f8
f8
25
df
1e
ff
e8
da
04
e8
f1
f1
f6
ee
fd
f0
fe
f8
f1
f7
ee
25
16
13
09
f2
00
13
25
dc
e8
03
1f
1d
04
fa
18
f9
e9
07
e6
17
0f
04
f6
e5
c4
f9
0a
01
ef
15
c8
ea
0c
10
24
f1
f4
f4
e4
e4
f8
1e
e9
e0
03
21
13
f3
39
07
1b
14
f3
09
e0
f5
f9
09
12
0f
35
f2
1a
0a
32
2b
21
e8
1f
d2
22
0c
15
f4
16
d6
cb
fd
09
f3
de
12
21
f8
fd
26
dd
fd
03
d3
16
f1
08
0e
01
0c
0b
f5
b4
ec
1b
21
f7
eb
1e
dc
33
f6
05
02
20
0c
01
fc
16
e5
f0
d0
05
f2
0f
17
08
0d
ff
d4
18
f9
1d
31
ed
f7
f9
31
00
05
0a
e7
15
d7
ff
f9
07
ea
13
18
ed
03
29
f1
fe
cd
eb
eb
43
0b
fe
ed
e1
dd
0a
f5
f7
0d
f8
da
0f
27
05
f6
21
f9
1b
fb
f0
db
20
f5
f0
15
fe
fe
f9
15
08
e0
28
c2
20
fd
0d
31
fc
fa
f0
0b
fa
e4
1b
ee
ef
10
da
e6
d9
f7
25
be
f1
ef
09
cd
f9
fe
2e
11
18
16
0d
e5
03
fa
ef
f0
bd
12
db
ef
2f
e2
cd
f8
1e
f4
01
28
15
d0
eb
f1
e0
17
ef
09
ef
37
11
e8
e0
fa
00
0a
a5
2e
c7
03
f8
e0
39
20
f6
29
f4
ef
db
0d
00
18
f1
00
17
ed
ea
e2
18
1d
15
09
e1
da
c8
c0
02
1e
03
0b
cb
03
19
fb
e4
e5
d7
10
1c
1f
f6
06
0e
db
0a
0f
0c
f0
ff
23
05
c9
19
2f
d7
f4
04
11
20
ea
08
11
2c
d3
03
dd
eb
fa
e3
11
d3
0d
e8
2c
00
f4
1b
d3
c2
fd
3c
0c
f1
f0
3d
f1
d4
f3
02
2f
1e
0e
08
0f
f9
e5
de
02
f3
0f
ef
3f
0e
37
2c
e7
f8
41
fe
ee
e0
f0
f9
2c
e1
df
23
00
eb
0f
e9
03
ed
24
f3
ea
fc
4b
f3
08
1c
07
18
da
d6
dd
1d
e7
24
12
d0
b8
35
03
e4
01
13
eb
06
fe
fc
11
21
09
fe
f0
f6
29
e7
df
ee
19
f0
02
e4
18
e1
f3
2c
04
f7
ff
00
01
1c
fc
e8
06
01
1f
28
05
14
04
dd
d4
3a
0e
e9
24
01
34
f6
04
fd
20
22
10
0f
d5
e7
15
0d
01
13
ed
da
02
1e
dc
dc
1d
0f
f4
07
0d
e9
ef
11
d8
1d
0f
f4
05
fa
f6
19
01
dc
f9
31
14
01
ea
0e
fb
da
41
33
e5
04
07
04
18
f9
0c
07
ea
0c
10
e4
f9
ee
fd
00
06
d9
e2
ec
cd
e7
f7
f3
21
fb
f8
29
e5
dc
f6
e4
21
15
02
f3
25
28
ec
e8
c4
f8
53
15
e4
07
e3
0f
d1
d5
e1
e6
18
05
11
dd
da
e9
27
05
0b
fa
d7
e9
0a
fa
06
06
0b
dc
28
f8
07
25
eb
04
da
0e
dd
f3
da
0d
28
16
f1
02
dc
e5
23
f6
e9
25
04
00
06
f8
f9
32
19
df
15
e5
ef
e9
e6
0f
ed
f3
e4
5e
fa
09
e6
c2
1a
e7
18
fa
c6
ea
13
d6
fa
07
0a
ed
03
e3
f6
f1
17
11
11
e8
0e
f6
45
ef
ff
da
2e
ec
b3
f9
2f
1c
24
1b
f0
05
e0
34
0a
0b
e4
0c
43
09
2d
10
13
0e
f5
f3
f5
cc
18
fd
03
ec
cd
e4
ee
04
10
ef
a4
31
e1
e4
fb
e4
15
18
f0
2d
15
0c
1a
27
1c
f4
0e
f2
18
15
ec
fc
f3
f4
1b
0d
bc
15
18
2e
f8
14
03
db
fb
cf
fb
dd
03
09
d1
f7
ed
d2
26
f0
d7
e4
19
cd
f9
0a
24
e0
02
ef
1c
00
f5
0a
e6
d3
f2
dd
04
2e
19
23
0a
dd
0e
1a
09
de
fd
ea
ff
dc
de
fa
1b
c1
ee
fd
fc
e0
29
e8
fa
dc
ed
15
ea
11
fa
13
d2
f2
0b
dc
fd
16
f6
0f
e4
fa
20
01
f6
2c
28
0b
05
04
09
f6
22
ef
11
dc
09
e1
17
f0
15
fd
22
00
04
1c
3d
ee
d8
04
e5
02
2d
02
f8
21
c4
2b
12
24
01
ec
e5
e7
25
f3
05
f5
ee
0c
ec
fd
f9
1d
00
fe
e7
ce
e7
ec
21
d7
eb
c2
2f
06
fd
d1
d6
c2
e8
f4
14
20
ca
f2
e4
db
c9
ee
e3
ec
05
47
05
f7
e2
d8
f9
f1
e3
ee
24
1b
19
d6
e8
07
e8
00
09
30
e9
12
0b
f3
08
10
d5
de
da
1b
07
16
18
fe
f5
0d
cd
14
e5
2e
ea
14
11
f0
e9
25
d6
f8
03
f6
07
cd
2e
f4
db
f9
e6
f6
26
f8
fc
bd
f2
fb
09
f9
f2
f6
e2
ea
03
f6
09
fe
13
26
e3
01
22
20
fa
24
0b
f9
11
e8
f9
14
08
45
d9
ee
b7
f5
1c
d9
0c
f5
eb
f6
ec
15
0b
1e
cc
ea
f7
0e
12
04
1e
e8
1e
06
de
c6
f9
06
1c
e6
20
16
bb
0f
2c
fb
0f
0a
15
2a
dd
22
e9
fa
08
00
12
ef
f6
da
03
ee
ee
e9
01
22
d7
14
1d
0c
2b
23
01
30
eb
1e
06
f0
e8
1d
0b
fc
f3
10
d0
28
d7
0c
d2
13
d3
f6
f2
e4
1e
30
27
d1
2a
0c
f8
e7
fb
00
f7
1f
fe
df
d7
d4
03
fd
cb
e5
f9
ed
fd
18
d4
ff
1a
1f
03
f5
fd
01
0f
ef
3d
1d
07
06
11
1a
f8
ee
f2
f9
fa
c0
28
02
0c
e2
e8
31
df
31
05
04
e5
0e
18
30
27
bf
12
e8
04
d7
05
d9
05
f5
0b
f0
1a
f5
f0
16
1c
ee
ee
e1
f0
12
09
d4
19
e1
25
16
fb
2c
2d
15
1c
03
08
e5
da
ce
06
2d
3b
2b
fd
cd
14
c5
bf
00
26
0d
16
21
dd
08
fd
03
18
ec
f2
f8
18
f5
d2
06
e0
f2
ed
13
11
14
f3
28
f1
11
0e
22
ff
fe
40
e7
1d
e7
2b
f6
0b
06
03
06
e6
1f
1d
2f
d9
bb
2b
e8
36
12
1c
fa
06
cc
e0
07
21
45
14
04
05
ef
f6
d0
18
c4
db
bc
e5
da
10
fa
32
1a
0b
e9
1e
f5
ed
f7
fc
e1
d0
dc
f2
ff
fe
16
f8
04
07
e4
06
ee
fb
2b
fb
e5
16
14
01
25
01
cf
03
ec
0d
eb
eb
f4
14
07
24
f9
0f
16
f8
f8
e6
2b
30
f8
d9
09
03
da
34
20
0c
0f
15
f5
f5
e8
fe
0e
ee
0e
b1
0d
05
11
3b
f5
15
08
fc
fa
ef
f7
b6
1a
f3
f7
e6
e3
05
ff
ce
dd
0b
02
23
1f
d6
d0
0a
d8
ff
1d
18
f1
01
e9
f2
30
16
0c
bf
05
0b
13
f1
f0
fd
2d
14
d7
dc
16
30
2e
08
ef
f8
04
16
e3
fd
00
d1
f6
fb
39
e9
12
f2
fc
1e
02
e7
f5
14
d7
f3
ef
fd
d9
28
e2
e8
0e
fb
ce
04
e6
fe
1b
e7
44
f9
18
20
21
21
db
12
c2
39
10
d4
5b
35
fe
07
ee
2b
0c
db
ef
1a
fa
0f
07
f5
dc
ff
e2
ff
ef
ef
ee
e9
f6
f8
1a
23
bf
0e
21
31
08
20
fc
e0
e0
03
14
f3
da
19
07
ef
02
e7
43
d6
1b
5d
10
f5
f0
09
e1
20
f5
fe
17
12
e6
02
b7
23
0a
ec
10
fa
0d
17
d2
30
ff
0a
32
1a
fb
e8
f6
e9
c5
d9
dc
fd
1e
23
1f
f2
28
51
f9
d8
fc
f7
03
eb
41
00
1f
28
fb
09
2c
f5
40
08
fb
20
13
d2
dc
f9
31
4e
28
da
ea
29
0c
27
c8
24
04
20
03
14
df
00
d1
ed
04
bf
48
ee
2c
ec
ec
cb
35
f5
f1
31
09
e6
ff
2d
fb
23
15
13
06
f9
f9
db
09
29
ff
10
ea
f3
06
eb
16
2b
23
36
34
0b
c0
33
e7
db
0d
d1
ec
f4
f2
20
11
35
28
37
f8
dc
04
f9
0c
f1
1d
18
40
d3
e9
de
ea
fe
d5
14
ed
0a
28
14
12
04
0c
08
01
28
e1
e4
e8
15
2e
0c
f6
03
fb
b4
f0
f6
32
0c
d3
11
be
f3
c4
dd
05
fa
0f
f0
ff
db
f1
df
0b
17
c2
09
f9
21
13
11
37
44
f6
02
d9
04
1e
f2
2f
df
0e
f2
ec
ea
e7
32
e8
ff
e4
20
ba
03
0b
23
13
2e
da
fb
3e
00
f8
ff
c0
20
ce
ef
ed
14
f2
f0
08
11
13
07
fb
db
11
e1
ff
c8
04
0c
0c
03
0d
e8
fb
ee
3c
0a
04
0c
08
0a
ec
f2
05
29
05
d1
28
e4
da
00
e0
f3
1f
0d
0c
db
e3
d4
00
04
f4
16
1b
f7
ec
13
fc
14
02
fc
25
f3
36
eb
ef
d1
1c
e3
f2
18
d4
f4
26
03
d4
f7
f3
0b
3d
1b
f0
2e
fb
f9
fc
cb
d5
11
f3
d0
e8
0b
fe
f7
07
e1
14
04
ea
3b
06
05
1a
d4
ca
ed
e8
36
d9
d4
d2
13
ea
ff
f8
18
13
43
e5
0a
20
23
f2
0c
c1
08
ea
e5
15
2e
ef
ee
20
04
e2
e1
23
fe
15
f4
14
0c
20
fc
f8
fa
0f
e7
23
1e
e1
f6
0a
13
dc
f8
e4
d5
21
f6
e7
12
19
e6
09
eb
c1
dc
ec
28
f2
0f
46
d6
03
ec
f6
18
fd
eb
0a
0b
c7
28
3b
26
03
43
2f
e2
05
27
f9
00
fb
e8
e8
0c
3b
f7
1c
e0
12
f3
28
e6
10
e8
19
f8
09
03
0a
ff
03
16
ee
ed
ea
06
4b
43
d4
27
05
f2
02
1a
07
f5
d3
1c
0c
f8
ca
23
d6
f2
24
37
00
04
1a
0c
15
0c
ef
1e
1e
f4
25
f0
03
12
ee
fb
46
25
2a
fe
01
0b
05
f4
f6
00
05
fb
f6
ee
01
27
db
fa
11
2f
f4
25
fb
0b
27
17
07
12
15
c7
42
d3
ce
05
01
00
f9
fd
f3
07
2c
fa
c9
e6
1b
0f
ec
dd
15
ec
0c
d7
c3
e7
e6
ce
f9
03
fe
10
0b
e7
1a
27
3e
dd
ee
27
1e
0a
f1
18
0b
06
37
1d
1f
38
12
f8
fb
e6
e9
07
13
f9
dd
0c
01
f5
f4
06
19
f5
03
ff
0c
23
cc
23
16
2c
f6
09
df
0e
f9
fc
0c
e7
fe
31
e7
07
29
0a
14
ff
c6
23
e0
0c
e6
cb
e1
0d
19
03
05
14
18
33
e7
f8
ee
3b
2d
29
1f
04
3c
ca
0a
fd
f3
fd
1b
15
1c
e4
f2
f0
11
f7
10
e8
12
18
1a
07
f5
eb
16
ca
22
c9
1c
11
10
ef
16
14
1f
13
0d
38
15
1c
1e
ec
38
0f
b8
26
fc
06
12
ef
d4
dd
2b
f5
01
25
09
06
1c
f7
0c
29
f5
02
04
12
26
01
dd
0d
e6
d8
21
28
10
26
e6
dd
dd
1a
11
02
dd
f7
08
11
fe
d5
08
03
d0
bb
ed
19
17
11
fd
00
f7
fb
c9
ee
e1
ee
17
e8
c9
f3
f3
c5
f5
16
04
45
d6
15
02
f1
0d
1a
0c
ee
23
f3
d5
ca
0e
32
14
2f
0b
23
01
f9
2c
e7
41
f6
e8
2a
f4
23
41
1e
d2
d0
09
fe
c3
d4
e6
02
19
d7
d2
fc
f3
fa
f4
fb
23
1d
03
f8
2c
21
f0
fd
f3
e3
35
e6
ee
ef
fc
2a
e4
ef
07
da
c9
16
db
f5
ff
06
02
06
fb
1e
f0
45
26
ae
09
e5
ee
04
09
01
c2
f6
f0
f5
f2
16
24
d9
fa
f1
e4
04
f7
e4
15
e8
05
14
26
01
05
23
0e
ee
07
dd
01
e3
d3
07
e3
ed
ed
11
02
07
f1
d9
d7
09
2e
1f
e7
f4
ee
d9
fd
1c
01
2d
25
28
30
f8
1c
ed
f6
24
0a
3d
1a
fd
1d
fa
dc
ec
f0
12
0f
2b
22
eb
0a
f2
eb
40
10
3d
2a
f9
32
0d
07
c4
f6
0d
d1
14
01
17
ef
fc
02
f6
e2
34
b3
f9
07
00
bb
36
21
20
c7
e9
03
ee
1d
d6
e9
0b
15
20
31
ed
fd
f3
d4
3a
11
f8
05
f1
1a
fe
f0
0f
0f
00
19
fb
2c
0c
ed
05
14
f8
f7
f4
d5
e0
d2
e1
16
08
e6
01
d9
fd
15
50
06
eb
22
d1
e8
f7
00
19
fc
0f
18
ee
08
fb
2d
f5
08
ee
ea
e9
20
34
13
df
da
fe
e6
0b
fb
ec
fc
0c
15
ee
fc
0c
e1
d2
fd
d7
d3
2b
0d
01
01
e9
0a
e9
01
d3
22
d5
03
3b
d4
31
d0
ed
f0
ee
f9
00
e0
d6
17
e6
ec
0b
29
df
35
fd
2a
01
f3
fd
04
d7
15
0b
e7
08
d5
05
f3
3c
fe
13
20
ef
e5
d0
ee
fb
40
e7
08
2b
09
02
13
ec
c1
31
00
16
08
ff
ff
ea
1b
1a
e4
10
0d
12
f5
fe
fb
0f
20
e6
f0
31
da
fc
fc
10
f3
fe
fc
f0
1d
01
e3
0c
fe
06
ba
26
e4
00
19
0c
ff
d2
13
ec
f7
ec
08
27
13
11
fd
f7
e4
17
d5
1d
43
18
19
f1
04
1c
17
09
f9
ed
da
f9
ef
1c
fc
ec
fc
f0
09
f3
d9
e6
ec
0b
21
cd
fe
66
0d
01
21
f5
58
1b
07
eb
d1
54
cb
e0
26
18
e4
e3
fe
e5
ec
dd
0a
05
0e
f0
47
f6
ff
10
e1
07
04
c5
ec
e8
dd
02
1a
13
ec
0f
21
15
e5
ce
d3
f9
f1
fb
0c
13
dd
e3
fc
eb
fa
c4
f4
f0
f1
22
07
4d
0c
f3
d6
e5
f1
1e
ff
1b
0e
14
f4
14
1b
df
1b
19
f7
ea
c4
07
fa
04
f6
0f
f3
db
0a
0f
e8
16
df
20
18
ca
28
0f
e9
ef
1b
fa
19
e9
17
ea
d6
14
22
0c
eb
e0
07
fd
ec
f9
1e
1c
28
00
fe
eb
df
1b
cf
2a
ef
1b
1f
ab
ef
ce
07
20
1d
eb
16
4a
16
16
07
06
17
0a
01
f6
14
05
01
fe
fb
01
f2
ea
fb
ea
3a
02
e1
2b
05
be
25
1b
e2
d1
3d
fe
f7
10
df
f6
14
15
0a
dd
25
ef
fc
f2
f2
ea
e5
f3
16
ee
04
0f
1f
0a
ed
08
fd
16
f9
cc
df
b4
2a
cd
eb
15
25
00
fb
1c
d5
02
f8
01
f6
eb
04
de
e0
10
ed
01
29
45
23
f9
12
fc
08
d9
f8
29
ff
e1
0e
fa
ea
d3
24
e6
24
de
f3
06
e9
06
e8
10
c2
26
17
14
fe
c5
f2
1e
e5
fd
11
08
23
0b
1c
25
fc
00
e2
15
22
25
d3
e3
e4
f9
c3
08
f1
0a
f2
1b
2b
0e
c3
25
d2
12
e9
f0
df
2e
13
fc
34
00
fa
09
16
15
09
36
e9
0a
10
e5
16
ba
ed
2f
d3
0e
04
3f
0c
ef
f5
ca
11
eb
2b
fd
ff
da
d5
e2
10
ef
01
f8
28
0d
d6
38
e2
f3
0c
e3
1e
12
af
f0
f6
ed
ff
10
e7
00
e1
0e
06
29
cb
1e
0f
05
20
08
06
1a
06
05
f9
e0
1a
e4
15
d9
02
e0
18
e2
01
dc
23
f7
eb
1a
ec
de
c5
f2
05
01
0b
2c
ee
e8
27
df
14
24
37
f2
28
ee
d8
01
fd
07
f3
b5
fd
de
0d
0d
fa
dd
f0
00
fa
ef
29
32
ef
25
19
ed
20
fb
17
2a
0e
0b
b6
ea
0c
f1
eb
f1
f4
ff
f1
de
f3
ef
ce
f8
dd
c8
31
f4
e4
0e
22
2c
33
f3
18
f7
0c
2a
ee
05
1a
ee
25
0b
ee
1b
f4
d5
f9
f7
27
15
08
cf
26
ed
12
de
d9
1d
12
08
06
40
e9
0e
23
11
e9
1f
d2
e4
1e
0b
12
33
36
0a
f6
ef
cf
f5
04
34
d7
f9
23
43
05
07
00
ef
f0
02
1c
17
e3
f2
eb
08
f9
f9
0d
0e
e8
f3
05
f7
13
04
e8
f7
09
f2
1a
02
cf
fc
e6
2e
0d
ec
00
fe
f3
fe
cf
dc
1f
0c
e1
ec
04
0f
14
01
db
09
1b
f4
fb
35
db
0c
fb
d0
ec
05
dd
0e
08
ef
b4
fa
e8
0f
04
f8
0c
09
e9
f5
dc
e7
1d
ea
14
0f
09
0f
ff
b8
04
f3
e2
06
bb
09
fc
f9
02
d4
0b
cc
f4
1c
e3
b4
18
02
fe
ea
ed
e7
d2
02
ea
0e
e3
0c
16
bd
dc
16
0e
3b
10
f6
e5
d1
e1
e9
27
ef
0d
28
e4
e3
fb
06
dd
f2
00
11
be
0d
ec
10
e4
14
06
0b
02
e4
16
f9
05
b9
d7
05
04
19
f1
fa
02
d6
15
d6
0f
10
d5
be
df
36
0c
0e
dc
ec
05
fa
e1
11
19
07
23
ec
0b
d7
ff
0e
e7
11
19
f2
23
03
ea
e0
0c
f6
13
d2
fc
e3
0e
b7
04
f3
f3
08
10
0d
1f
06
f5
ea
14
18
03
0d
f5
ff
ea
12
e1
0f
19
fd
ff
d4
1d
29
da
f4
16
e7
ed
ef
16
13
d7
ec
1a
e1
9d
09
ec
46
0a
c2
3a
f5
e2
25
05
f5
0e
25
32
dd
dc
fe
fa
1b
f8
dc
30
f6
c8
da
3e
e5
c9
f9
03
b4
02
e4
f5
09
b4
05
30
00
27
d7
0f
f5
e5
f0
fa
ea
22
0a
21
ec
e5
f6
06
26
15
21
0c
e7
25
3a
0d
e6
3e
00
0f
f4
10
1f
0c
ce
cb
14
fe
c7
0e
18
ec
38
dc
09
00
f3
fa
d3
e7
fb
f9
c9
03
fb
ee
1a
0b
14
0f
09
e7
01
05
f6
0e
30
1b
0b
d6
ef
24
03
d0
16
20
f1
49
e2
00
ee
f2
ea
f6
f3
18
1a
06
1a
1e
f3
05
01
fc
33
1f
01
ea
02
11
b3
03
48
c9
13
fa
f2
f3
fa
17
fe
04
29
01
d9
10
f5
e6
2d
e3
3d
1a
ff
13
29
b6
dc
1f
ff
d8
16
c9
da
12
e5
f5
f6
05
1a
0f
15
2f
f4
20
ff
1b
fd
0e
f4
d0
09
18
0f
ff
00
13
f8
ef
f1
18
f5
09
1b
13
fd
10
ee
28
ce
fc
3f
f7
fb
f5
d6
05
33
e2
ef
fb
f2
f4
1e
c6
f7
19
22
1d
e5
0b
c0
da
bd
e6
0b
01
0f
dd
e1
c6
08
28
f9
11
1b
03
16
f6
f3
09
e8
ed
ee
f5
06
ba
e6
fe
2c
07
18
0e
03
44
28
c7
40
40
23
da
fa
22
f5
4f
eb
01
f0
0a
fc
09
eb
f4
d1
fa
21
07
1c
e9
16
17
f1
ec
11
eb
cc
ed
e8
15
ee
00
f7
d3
f5
f7
10
db
d4
f7
f9
14
d0
2a
d1
da
01
bb
18
0c
eb
17
17
d8
00
34
f2
02
e6
2e
1c
f3
fd
d6
05
1f
21
10
fd
f0
f3
1f
40
e5
00
06
de
0e
2e
d3
fd
ff
11
ed
e5
08
26
ee
ef
e9
f5
04
ff
09
f2
e7
b1
10
eb
01
e7
ff
db
df
e9
e2
08
07
1d
31
38
f5
c7
d8
1a
f5
b8
01
de
e8
28
0a
17
ee
f1
f2
33
ff
c0
e8
05
bf
29
28
d0
e9
f9
f3
fd
dd
01
df
c1
da
ff
00
d3
06
e2
04
f4
03
04
fb
14
ec
f5
08
3d
e6
fe
03
0d
25
1a
36
25
17
ed
e0
23
0a
ee
d7
03
b1
c5
f8
0a
fb
02
20
fd
06
c9
0b
1d
d8
08
20
09
05
fd
e2
20
13
1c
e8
1f
12
e4
dd
f0
e7
35
f8
fe
2b
0e
e6
2b
00
e2
f4
ff
fd
d9
09
f7
08
e0
ff
ce
ec
0d
ee
e5
05
15
09
24
ea
f8
f1
e0
d3
f6
eb
11
0c
ec
19
df
fd
f3
fb
34
f8
10
14
0f
e3
f3
fe
14
bc
f7
03
10
fe
13
09
08
cb
30
e9
e0
02
11
da
0e
1e
22
32
0d
23
ff
da
fd
fa
3e
27
04
17
d2
28
f2
f2
09
fa
f3
21
e9
15
2c
ee
2d
18
07
fe
dc
23
b2
db
dc
f2
13
f1
46
f9
fe
01
09
1b
da
de
1a
ff
f8
de
f8
07
fa
d3
2a
2e
1d
e3
d3
c2
08
19
29
e5
12
16
29
fe
19
2d
fa
1a
0c
da
e1
f0
11
00
14
f1
e6
f9
12
1d
fe
dd
1d
f2
e4
f8
25
02
ee
03
04
1f
f7
de
d2
e3
e9
16
21
cc
e4
05
35
f7
fb
ed
bb
2e
f0
f9
21
f3
0e
02
e8
04
fe
db
f5
06
fe
ed
d6
16
fb
f4
43
09
06
08
df
23
13
e8
de
fa
e3
db
0d
2f
30
0d
0c
ed
1a
f4
fe
0a
19
10
f3
16
1b
09
ff
d9
e8
db
fa
0a
30
d5
fd
1d
3d
32
28
e4
f0
05
f1
21
0b
f5
e7
1f
dd
12
ea
1f
ff
11
1a
01
04
f8
0a
07
17
bb
dd
0b
12
d9
fb
1b
f7
20
d5
e9
f6
fd
29
f1
f8
3f
ea
02
f2
db
e4
f9
14
02
f7
df
16
02
05
01
00
2a
eb
c1
26
07
cd
ed
1b
e9
0b
16
da
14
de
03
e9
d8
ee
05
f2
15
f1
fe
13
e1
16
23
3b
01
01
ec
d2
02
f4
3b
f2
00
f0
0c
26
14
11
f6
d8
da
ff
1c
14
ee
38
f5
0f
26
0c
02
00
fa
ed
13
08
3c
e2
ff
e1
f2
e6
df
29
1c
37
f1
15
ec
d2
e5
2b
fd
f1
04
ff
ee
fb
10
0b
00
20
ea
13
1f
d2
f6
fd
21
f2
0d
12
1b
51
3a
0a
fc
cc
ed
fe
dc
fe
1e
f0
c7
05
c3
fd
05
dc
1a
df
26
04
38
04
d8
cc
15
ff
2b
35
fb
0f
e9
ea
c8
0e
22
2a
ec
26
db
04
24
f6
1b
37
e1
04
28
fa
0b
01
dc
01
51
f5
04
df
e4
f9
fb
ed
ee
ef
1d
ff
1d
06
12
d8
3c
de
21
f7
ee
f6
ee
0c
23
eb
e6
1d
26
ef
e6
0d
02
2f
e4
dc
17
d5
0a
01
07
cf
f1
0e
1e
25
ee
fb
e2
1a
51
ff
f9
04
09
f6
25
15
d2
df
22
0e
fb
fa
f4
1e
02
e6
f8
f4
f5
0d
f9
f2
e1
25
d9
fd
0f
dc
da
f0
02
e8
25
ff
01
c0
14
ec
1c
e6
13
07
1c
ee
e5
ef
0a
00
d1
c5
fb
1b
0f
e1
03
e0
16
e2
fc
db
e4
f6
13
26
30
26
5f
e4
f2
d8
54
0a
ef
06
1f
cf
de
e7
02
23
dc
ed
26
eb
f2
f5
0f
04
10
02
df
19
03
20
ec
1c
d7
f6
15
10
05
02
1e
e0
20
25
e8
18
f6
1e
2f
1f
db
10
f3
fb
ea
14
ca
e1
ed
e7
2b
16
2d
fc
15
08
24
f1
1c
e8
ef
18
17
dc
21
1e
f7
ea
09
0c
2d
20
c8
fc
f7
06
04
fe
1c
41
d0
27
11
00
15
da
2b
1b
c8
e9
d4
21
01
ef
27
d3
da
ce
f8
07
f4
fc
c5
08
17
f9
fd
0e
17
f8
fb
e4
0c
13
d9
e7
26
db
0e
0a
e8
e8
0f
1b
f5
05
e6
fb
f3
13
4f
db
0b
27
f9
01
16
16
f1
30
d9
14
10
10
24
05
f2
dc
f9
24
2a
03
18
df
dd
f0
de
10
f6
01
03
3c
f0
01
ec
1a
ee
11
03
ff
36
f3
02
d6
28
d3
e1
fa
2b
39
df
e9
07
dc
d7
2e
f7
1b
ed
0b
eb
b2
10
19
1f
ed
fd
07
e6
24
11
05
18
ec
e1
e9
ef
24
16
00
e8
eb
eb
f2
e2
e5
35
f6
1a
fa
2f
29
06
00
16
da
01
04
f8
1e
11
ce
e7
f2
d0
d1
13
1e
e8
de
13
03
fd
f9
ea
e4
e6
ea
fb
29
f9
1e
16
0c
e8
f6
ff
c3
e3
c0
08
f3
eb
06
e3
1d
e3
04
ec
eb
19
17
f4
e7
f0
07
cc
e3
f6
bb
00
f6
e8
ec
03
22
e7
ed
f9
eb
0a
09
db
22
da
15
0c
eb
f6
09
f0
ed
14
dd
3a
03
e0
52
01
16
f8
05
02
e8
fc
11
de
ef
16
f7
11
f8
d5
1e
02
e5
11
f2
03
00
ff
e4
02
c7
fd
1b
d9
00
fb
d3
0c
ef
01
13
c2
e7
fe
08
21
20
10
05
18
ef
10
eb
2d
20
f1
f8
1c
c9
ec
0b
0b
12
e2
f1
e1
f1
f6
da
0a
fd
4b
ed
13
b6
24
03
25
1c
f7
ee
30
ec
17
16
cb
4b
02
04
f6
e8
f8
11
de
c9
12
f3
d4
0a
01
13
d7
f1
08
36
11
e6
09
0b
1b
04
1f
05
1d
fa
26
25
fb
07
ea
0e
df
cc
d2
f5
fc
10
e9
e4
f5
0a
15
0a
1f
1a
e1
09
e1
0f
ee
26
1c
20
e2
0c
06
f7
ed
fd
35
15
e1
eb
0f
04
f8
0a
ea
1e
07
f7
f9
22
fd
04
05
d8
f3
ec
1d
f4
e4
da
e8
ff
07
05
01
f5
1e
00
09
0c
f5
f3
f5
25
2c
fd
0f
2b
17
f8
eb
15
e8
0e
05
15
f7
0c
f6
dc
02
06
1f
c3
23
ed
03
f5
f6
01
d9
11
ec
d6
d9
dd
d5
0d
f4
05
0a
11
f6
f4
34
3d
35
e3
1c
11
ff
f3
0c
26
04
2a
16
03
1c
f3
30
18
f1
db
f1
d2
31
1b
23
01
0f
0d
32
e6
be
04
f7
11
09
f3
05
08
ff
ff
01
06
25
f9
f5
e5
29
17
e5
08
29
07
18
ff
04
04
1e
29
f6
ff
e3
fc
00
0b
fd
0f
2a
f2
d9
e5
11
de
22
2f
09
21
00
f9
fb
ec
31
c9
f3
1e
07
05
de
02
f3
0a
03
15
d5
1f
fa
0c
08
ef
e8
fe
06
0a
3f
04
14
f5
05
32
26
04
06
04
fc
cb
1d
15
0b
ef
04
15
2a
ea
e3
08
05
28
e5
db
fc
1c
0d
14
ef
f8
0f
08
e6
d4
d1
eb
ed
d1
dc
eb
07
00
f2
dd
09
f9
12
07
e9
0f
22
f8
ce
07
cc
26
dc
c9
d6
f8
18
10
e6
ff
01
0d
fa
15
13
1d
de
09
fb
fe
09
ff
e4
10
c0
ee
f1
e5
07
fd
19
ce
e4
10
e9
1a
e4
e5
1f
08
f8
ed
e3
d1
17
0e
12
19
d3
fb
06
0c
f9
23
f6
f5
15
47
14
f0
f1
3f
12
02
eb
06
ec
ee
fd
4b
41
ec
04
e4
f0
fc
dc
0e
0d
2b
d5
05
0e
22
eb
d3
30
0a
01
13
fe
f7
2b
1d
fc
13
dc
32
e1
f4
ef
27
1e
de
21
eb
e0
da
1e
33
23
f6
e5
fe
e1
09
14
f2
f4
f6
f5
16
04
1d
f1
13
d7
23
34
11
25
18
f8
cc
fb
cd
dd
f1
1c
11
12
ef
0d
f1
e4
f3
ce
f7
1c
f6
4e
10
f7
21
ff
ca
e2
49
31
20
0f
0c
e8
d7
15
f5
de
f2
15
f9
df
e9
fe
f3
ff
22
03
fc
0c
01
e2
2e
22
13
12
1e
f7
24
03
0c
21
f9
ed
d4
28
17
ee
56
fb
18
0c
ef
e0
13
17
f1
1b
3a
25
f7
d7
cf
e1
ed
e0
2b
e0
d6
2b
f3
e7
f0
17
f6
03
0e
19
ff
09
d2
e2
2c
fb
1e
e9
fb
f1
03
11
15
38
d5
dc
f2
16
da
cb
fe
11
19
1c
2a
07
07
eb
28
c2
d2
07
b2
f5
0d
ea
13
fb
ff
10
ee
29
f5
e3
11
05
da
f5
0f
11
e7
1b
fc
ca
1c
06
f4
14
f4
08
d4
20
27
d5
06
0c
01
c2
d8
f0
01
ff
d8
15
cc
ec
dc
04
e7
14
c2
3e
f5
f6
eb
04
cc
e3
09
0e
f9
23
fc
dd
0d
0e
3a
da
f7
2b
06
f7
09
0a
ee
e4
ec
04
25
0a
0d
0f
cd
04
df
f1
f8
f3
1c
04
28
eb
05
e8
d9
ef
ed
00
de
fa
fb
5d
eb
19
0b
13
f4
02
f2
0f
fa
eb
e3
fd
11
0d
38
d6
aa
e9
0c
13
0c
ec
ff
ee
e5
1b
10
12
c5
1d
04
28
bd
e7
0d
33
f0
e0
0d
06
0d
0e
b0
18
14
f4
de
e7
ef
0d
de
e9
e3
1c
02
f0
e9
e7
22
db
ee
23
00
08
f6
18
15
06
fa
08
e9
0d
ec
09
0c
21
ec
ee
fc
08
c8
06
f9
df
ff
05
16
0f
e9
ec
fd
f9
fc
04
42
1c
ee
0d
0a
14
22
02
13
15
e4
e4
e9
d5
0d
12
07
24
f8
21
19
f4
fc
ce
0d
10
31
29
38
eb
03
1e
e8
f1
13
05
fc
00
26
07
f6
f3
dc
df
db
ff
f3
f1
0e
e4
38
17
d4
ef
31
ef
12
e7
0b
01
20
03
1f
0c
13
c2
14
ea
13
cd
1d
04
e3
12
15
f3
ef
14
f6
f5
12
dd
00
3a
f4
09
09
0c
dc
07
d2
16
08
df
db
03
38
17
29
e3
e2
15
f7
cc
f1
1f
15
21
ee
fd
02
e9
fd
df
0a
e2
05
16
04
44
f7
18
38
cb
f8
06
30
11
05
e8
f9
23
fa
f9
b5
e1
ff
34
22
11
fc
35
f0
13
da
da
0f
f7
27
f3
f5
0e
fb
ed
18
1d
fe
02
20
0f
f0
10
f4
00
d5
c7
ea
fc
db
23
1e
e6
02
40
e2
f9
02
00
d8
f0
0c
f9
f5
fa
df
26
01
13
e3
28
fb
2a
f1
f2
14
21
41
f4
e7
0c
10
0d
1e
00
eb
05
1d
08
08
05
ee
c1
f0
ec
0a
00
e3
f2
04
ee
0a
00
f3
d0
1e
e2
f4
ed
1e
3d
e1
05
e8
f1
10
3c
19
23
f8
14
1f
d5
04
29
02
00
c0
04
26
ea
29
0c
e8
c2
e8
ff
f9
01
e1
ef
1d
f7
fd
f0
ec
24
0f
d4
c5
bd
f6
fc
07
fa
32
27
28
f7
06
20
24
ea
e2
e8
dd
1c
4a
d7
ee
e4
06
e8
f7
24
2b
1a
f8
f6
fd
f2
b3
51
e8
ff
18
08
d6
0e
00
ef
29
12
fe
34
0e
fd
12
17
1f
10
ef
16
06
06
05
f0
c8
ff
ff
03
0c
fe
f9
ea
05
f2
e3
f1
2d
f8
1f
dd
dc
18
d0
02
d2
08
0f
e4
ef
ef
01
d1
ee
01
fd
f9
cf
fa
eb
13
df
29
15
e8
15
db
22
29
f0
05
19
f7
f7
fe
fe
17
fc
17
fb
f5
fb
e0
ec
e8
18
21
b9
ce
28
ea
f5
0b
14
1a
e5
e6
27
10
e1
13
fe
0e
ef
cf
dd
05
e6
08
f3
ea
1a
04
f3
e3
ec
f2
f8
e4
f4
fc
0b
d1
01
04
1a
27
19
07
ec
cc
fc
14
c6
fe
15
26
e8
ec
f0
ff
07
f4
30
d9
13
e5
f0
fb
3b
1d
04
f0
0e
03
01
fb
ee
f4
19
0a
f2
ce
2d
19
f9
e1
ec
f3
14
06
32
d3
00
01
fb
0b
2a
f2
11
ea
cd
0e
e5
0d
f8
e5
2a
f6
3a
06
1e
d6
0b
e0
df
e2
03
01
01
fe
22
d5
1d
de
e6
e3
fb
e5
10
20
06
14
01
21
e5
ee
03
fa
e2
c4
38
11
1b
e9
fa
af
01
c5
51
fe
30
b9
01
eb
21
ed
cd
e7
04
16
14
26
40
da
f1
ee
da
ec
16
22
df
fb
d8
d4
e2
da
de
05
e8
19
fc
fc
12
25
d6
16
03
c5
20
4f
fc
df
26
21
00
f6
14
ec
ef
fd
29
09
d4
e6
f2
2a
0d
20
0a
ff
e9
f5
19
ef
05
f0
1a
05
14
11
e1
e5
fe
0d
25
d1
13
13
15
0f
eb
fe
02
f2
1f
0c
f8
fe
c1
e6
02
00
f5
0c
f3
48
1e
2e
f3
0b
20
f6
f0
fa
f3
e6
15
30
ef
12
c7
17
07
e2
eb
10
10
d1
f9
d5
2d
f9
fb
fe
06
0e
e8
16
10
f0
0b
f1
11
e4
0a
ec
ff
03
d7
15
d0
6a
02
d3
0c
06
0d
f0
fb
ce
09
39
fe
fc
1e
f0
f2
f6
11
ee
fd
19
e1
18
12
f4
10
03
f5
1a
cf
1a
1e
db
1c
d6
25
b4
25
f6
0f
d4
1f
02
1a
05
0a
40
0d
1d
03
11
f7
d0
27
df
26
e6
23
12
f4
17
f4
19
19
1a
ff
03
ed
c0
fe
03
d9
b8
d1
0d
0a
19
fc
04
ef
1b
ed
06
d5
13
00
21
08
f5
07
08
fa
da
e6
db
fa
e6
d5
14
27
d6
2e
ea
1d
17
c2
15
12
fb
d5
03
25
1f
41
f4
de
24
ee
12
1b
df
f7
e8
db
05
01
f2
ea
09
10
f1
0b
25
f7
2d
2c
29
12
f3
de
f3
ea
d7
25
22
0a
05
db
fb
eb
fc
31
08
e0
db
2d
0f
28
fc
c7
16
ef
03
17
2c
02
41
f5
11
18
12
f5
3d
f1
e7
14
23
dc
ff
ee
0c
03
be
f5
ea
1e
32
13
ed
3c
2e
d8
1a
1b
09
fb
ca
09
15
c2
f7
45
f1
1f
18
0c
f8
f8
e6
d7
f0
c2
0e
2b
0f
f8
e1
0b
26
dc
22
05
1e
f2
0b
ec
f6
19
25
ef
ef
e0
e0
1c
f5
d5
11
f5
41
1f
0b
f6
0e
09
14
dc
f1
14
3a
26
df
f5
14
ee
50
3f
1a
04
1d
d7
e9
1e
10
eb
13
e3
0d
ee
c3
1e
dd
1e
18
29
e6
10
f4
fd
ef
2e
16
33
14
d4
cc
e6
02
0a
30
ff
0c
04
fe
1d
1c
0c
0b
eb
06
18
e7
1b
03
0b
04
f5
1f
c7
04
ff
13
04
ed
e6
0c
02
db
05
f2
0c
2b
08
11
f8
fa
dd
31
f4
f4
0a
2c
d2
fb
b1
ea
fe
28
18
29
ed
05
fd
fe
e4
36
e8
1d
f9
fd
04
44
1d
0e
ff
f3
fc
07
01
d9
ff
39
e8
3e
10
15
12
e5
f7
eb
17
ed
f7
c0
3f
c6
de
00
10
0e
1d
dc
07
1c
ff
fb
ef
0c
dc
1a
01
26
28
21
e1
d5
19
a6
1c
06
23
f6
fc
f6
18
f4
11
1f
14
e7
06
f7
0b
21
09
e3
df
df
05
dc
b9
17
00
10
1d
c3
30
2d
0f
22
e0
e5
11
ed
d4
c8
1b
f0
e2
18
e3
ef
3c
ea
e7
f2
cc
1b
12
e3
ff
17
fd
d7
f4
f9
f7
01
03
2c
ba
1d
19
18
df
0e
05
f7
f3
04
25
20
16
f6
f5
3c
e9
f5
46
05
11
f6
1a
de
ce
da
ea
e3
e5
d1
ea
15
ed
16
01
ed
32
06
e0
e7
f8
05
20
fe
22
ae
16
e2
0b
f6
f2
f1
27
ff
e9
19
1d
cf
e1
18
03
f6
37
e2
d9
07
b1
d1
02
c2
f6
01
12
21
1f
0c
fc
45
e8
f0
d6
0e
d4
ea
fa
09
ff
d3
04
f5
fa
fa
f9
e8
f5
fb
d5
d5
1b
e7
dc
fe
f6
eb
dc
04
24
ee
d3
0e
c0
f0
f0
eb
38
06
19
d2
f8
f6
fa
05
e6
ea
2b
fe
02
20
14
f6
fd
08
2a
fa
f4
25
f4
18
dd
1e
d6
d4
1d
0a
ec
01
0a
1b
98
ea
10
d7
f2
0b
fb
ef
0e
de
37
e9
27
e0
0a
02
e5
2b
e2
19
11
e2
e0
0a
ea
dd
d1
f8
27
1a
ff
05
d7
0f
2d
e7
fe
04
f2
28
c7
0c
0f
35
00
0f
00
f1
ff
dd
08
f8
d2
1c
e0
eb
de
b0
e8
d8
2a
22
3d
08
fb
28
01
df
ec
e9
1d
1a
e1
18
e8
d8
f8
e4
09
d7
db
0a
fd
19
f5
4e
ef
e0
d1
fc
1f
2f
f8
e7
fa
fe
e9
cd
ea
d7
12
43
13
0d
e7
c4
ec
e5
1e
ed
08
1e
e2
11
e3
14
db
de
d1
e4
d8
f7
06
08
fe
eb
e7
ff
df
1f
e5
3d
07
00
14
1a
01
08
c5
f3
18
37
ea
04
38
18
2a
f0
0e
21
fe
f5
01
0a
0b
13
4f
e7
22
fc
de
0f
f0
09
d3
05
09
de
df
fa
d1
28
c2
ff
e5
05
1c
1d
25
18
e0
da
fd
3b
fc
e6
fb
e6
29
1f
f6
09
da
09
fd
1b
0e
f7
ff
11
eb
f9
03
18
16
22
f2
00
e0
d7
f7
dd
d5
32
12
ef
2d
e5
ed
27
01
fd
15
1c
0d
13
e5
f1
ef
ef
21
04
fd
1f
0b
13
1e
0b
1a
1c
0f
f3
0f
f1
d5
ed
db
34
d0
0f
ed
27
0c
ec
15
d4
05
f7
19
df
1c
d4
06
d9
e8
de
0a
15
15
02
16
20
cb
16
35
2f
ec
fc
0a
ed
00
e9
0a
f0
de
eb
e5
f3
0c
ed
06
0c
f9
16
fb
21
f8
ea
f1
e1
df
ca
f6
1a
dd
ea
fc
f1
1d
42
d7
09
df
f9
fb
e2
e0
fe
09
f1
0f
28
fc
fe
c6
08
d4
c9
e1
31
0b
b8
1e
f2
19
f6
df
14
d6
fd
eb
1e
f1
fa
11
1f
df
ff
04
f2
0a
15
d8
0b
17
24
f4
23
ed
0f
20
14
1f
f4
bf
d7
1b
e2
2f
ce
fb
f1
04
d2
33
09
eb
27
29
0b
f3
08
0e
d2
f8
25
ff
10
e1
f1
30
04
e0
e6
04
1c
dd
e9
12
e1
1e
cb
27
00
e2
06
14
e4
fa
0f
f1
16
28
fa
fc
bc
07
f3
ec
10
e9
f0
e4
06
08
00
e7
06
fd
16
01
d6
fe
21
ff
0c
03
1d
f7
11
f4
01
c6
14
f9
f4
06
f8
07
05
f1
f5
f7
40
fb
28
05
e6
0a
14
17
e9
00
0c
2e
be
db
f6
0a
f1
0c
15
f2
21
02
da
f5
cd
0b
16
e7
fe
07
11
c6
ef
f6
00
2b
09
32
ff
1b
e5
0e
2d
31
dd
fd
15
02
0e
00
ed
01
45
fc
fc
19
33
e4
d6
0b
0f
dd
1e
08
b5
fc
02
41
10
0a
eb
fa
01
0b
d7
07
02
13
ea
f0
0d
f4
fa
eb
fb
f7
12
16
39
e6
32
df
0e
1b
08
10
28
f9
14
1c
22
ec
0b
fc
06
15
0b
dd
fa
f7
f2
dc
1d
06
2e
d3
f0
fd
f3
fb
37
08
dc
11
1f
19
e1
ce
0b
0c
30
1d
ce
22
0f
ee
e9
01
19
0f
26
08
19
20
fb
c3
21
0f
09
34
05
da
dd
12
48
28
31
ec
31
05
d9
18
ee
ee
08
15
1f
03
10
2e
39
d6
07
0d
2d
ea
2a
42
e0
11
f4
02
f1
f2
2a
17
e2
f2
f8
11
2a
0d
e0
1b
01
03
0a
d8
37
1f
27
21
ca
01
fb
ee
06
3b
05
10
23
cc
2a
2c
2d
08
0f
ef
1f
f5
30
0a
07
f4
da
cc
0c
02
08
fe
02
f0
d0
e3
06
ea
e7
14
01
e6
0e
20
f9
e5
f4
e1
04
e9
fb
15
0c
f8
19
1c
07
fc
10
f7
e5
12
1b
fa
c6
23
02
04
0f
13
1c
f7
13
24
fc
e5
0c
fc
fb
23
1c
16
e4
07
03
fe
01
10
06
f7
f4
17
ef
f9
ec
da
ef
f3
25
31
0a
00
28
05
12
ec
f0
ee
d7
f8
04
f1
29
17
bf
22
d1
ff
0c
00
e4
09
06
fc
fe
0e
cd
1c
18
06
0e
19
f9
d8
fd
dd
13
19
0e
fa
1d
0e
22
f8
f9
fe
19
11
0c
e0
e5
f5
fb
2d
f1
00
30
f0
e3
fb
08
f8
f9
00
cc
09
44
fa
fc
02
12
e3
f0
1f
cc
fb
0f
e3
d8
01
e9
e8
0c
ea
f8
e6
01
f3
1c
0b
20
f7
4b
fe
e4
07
ff
e0
de
1a
01
06
fd
f9
ff
ea
d2
19
f6
e1
19
ea
3c
0a
d6
22
c9
fd
03
f0
1d
12
e0
f8
3b
19
ed
da
dc
dc
09
ff
e8
1e
2f
fe
1b
e8
e6
30
be
11
df
34
ed
eb
e4
10
04
0a
e8
f4
fb
27
30
13
24
d6
cc
10
1c
00
0d
04
ff
31
f4
cc
f0
d2
ce
08
f3
b9
23
21
e0
03
2b
16
12
00
1a
df
f5
ec
3c
06
44
12
fc
bf
35
11
ee
ee
01
f6
13
d1
df
2a
06
14
d1
0c
fb
e9
eb
20
0a
0b
03
42
e1
04
0d
0c
e6
09
03
c4
21
eb
ea
08
1a
ca
fc
1d
e9
03
0a
03
ff
f3
1b
27
1e
f8
14
1a
e4
14
fe
fb
18
24
04
f9
e7
f7
31
16
05
36
f7
f9
f2
1a
4f
1c
f3
10
15
d5
05
bb
13
ee
10
08
09
df
1c
36
dc
f9
fb
fd
d9
da
02
f2
f7
db
e3
f6
02
f5
26
f5
10
0d
30
01
ee
dd
0e
fb
47
ef
e3
f9
15
e7
bc
df
0d
e6
f5
e9
12
a7
00
00
0c
0e
0d
e7
04
1a
17
00
fd
10
0c
27
17
35
d2
01
45
23
0a
ee
f6
0a
f6
26
ec
1f
fc
20
38
0b
15
f7
0a
01
fe
10
25
fd
c2
24
0a
18
2b
e5
3a
e0
f1
01
09
3e
12
d1
08
c8
03
47
0b
e4
16
f5
ca
f7
e8
15
e3
cd
14
29
04
d6
dd
f4
06
0e
09
f8
19
20
0f
ea
18
16
fa
f1
16
0c
11
19
00
fb
1d
ee
12
00
f9
d4
12
11
17
06
d7
12
15
d5
eb
35
e7
1c
21
02
13
ed
1e
3b
f2
ff
f7
e3
ee
25
37
e8
09
ee
f0
19
0d
19
02
ef
f3
0a
12
25
17
15
dc
f0
db
eb
01
e8
e7
07
0f
2b
c4
37
12
ec
0a
18
f0
08
eb
f6
cf
1b
08
e2
e3
fc
fd
36
cc
10
09
17
1d
f9
09
f2
00
0f
eb
e9
ec
05
f1
19
f7
e3
ef
f9
03
04
0a
f8
01
06
02
06
1a
d9
f6
fe
25
ee
c1
25
fa
d7
ce
e6
2d
dc
06
27
d9
fb
e8
0a
f5
16
df
ed
13
52
fa
d9
df
cc
f5
f3
f3
ed
f2
09
9f
f0
d4
0e
d6
f2
0f
fd
ec
fe
ee
f4
1f
f2
fe
fe
fa
fd
47
22
e4
0a
28
d0
08
fa
f2
fb
f9
0b
fc
18
19
eb
11
e5
1d
05
db
d8
dc
23
dc
f7
f6
16
cc
fb
06
f9
dc
f8
0b
f2
fe
e9
2b
ed
34
ef
34
35
fa
25
11
0b
fa
0a
d6
f0
32
e3
dc
e9
f3
15
e4
31
d8
ea
11
fa
0d
15
11
e8
fb
18
ec
e2
13
11
08
22
d6
e3
08
04
12
cf
0c
0b
08
12
14
f2
0b
02
07
ff
c9
3b
2f
37
00
f3
18
10
0e
e4
0b
ec
2a
f4
4a
de
02
e0
12
d2
f1
f1
d7
eb
0e
1a
25
db
fa
f5
1c
0d
02
ef
27
23
01
0f
fb
e1
fb
17
f1
d4
13
f7
f8
fb
d2
ef
18
fb
21
00
c0
eb
06
02
0f
f6
f8
10
13
05
fd
1d
fb
06
06
15
fd
f8
e7
e0
f5
10
b0
28
08
ee
d0
fc
f5
03
0d
e4
e7
e2
f6
1c
01
19
00
13
21
dc
c6
d1
fc
f6
d0
fd
09
f0
0b
1f
3a
fa
da
25
1f
10
96
20
2d
e4
1c
31
0a
02
fe
f9
02
22
e3
05
01
14
0b
f1
19
fc
e5
15
14
04
23
3e
11
17
15
f5
fd
ce
12
fa
3f
25
e9
fe
f8
5e
e4
ef
ec
e0
ec
ef
fc
e9
ee
19
23
16
db
f2
be
e4
08
03
ed
12
cc
03
fe
21
e6
e8
06
10
f2
ea
04
01
46
d6
1e
1c
da
03
fe
cc
14
06
f2
15
15
04
ce
3b
1b
f1
05
56
f9
29
09
02
f7
2d
e7
10
e3
f1
fb
1d
fe
05
fb
d8
08
22
0a
2c
8e
d3
07
f0
e2
fe
e0
fb
fb
17
30
03
02
e9
f0
ec
fc
fd
0a
04
e5
fd
1a
02
06
f2
16
d4
fe
fb
ed
23
ee
e0
1c
14
0a
21
cf
27
28
09
f0
ed
f1
de
1d
ee
ff
fe
0c
d7
ff
cd
e6
fc
17
0d
bf
33
17
fa
f7
04
fc
c0
fc
01
ed
de
d2
0a
d4
e7
fb
fe
1e
e0
2d
21
1c
e6
f7
00
ce
13
f0
f8
1a
fb
01
e8
e6
15
25
fe
11
fe
f1
f1
15
f0
dd
0a
d5
d2
0a
04
02
f8
0e
1b
13
f8
12
d8
f9
fc
21
06
e3
12
03
21
d2
fe
01
14
0b
ec
11
cd
e9
1c
d9
36
d4
1d
ff
ed
df
c8
f7
c8
f6
16
fc
46
f1
04
e2
26
e0
e4
de
24
13
f5
f3
f9
d7
f2
cb
ed
dd
df
4a
ef
d5
c8
13
d4
30
ac
fe
f3
22
11
da
09
24
f9
ea
ee
f1
16
2e
06
1d
e4
e8
fa
f1
0d
11
f0
02
fc
1b
0a
16
27
0c
f2
db
e2
19
15
fd
ff
fe
ea
f4
0d
18
24
e1
fc
f6
ed
0e
02
fd
26
db
0f
f4
07
e4
05
0f
0c
10
e3
fa
0d
f2
2c
22
06
d4
08
05
0e
f5
1c
15
2b
0a
e1
0d
09
fe
06
e3
29
d1
2e
11
e2
f5
2a
f7
fe
fd
f4
28
14
fc
17
fd
06
0b
fc
24
df
fe
01
11
05
11
34
13
2d
f1
f4
fb
0a
ea
17
f5
fd
0e
f4
16
14
0a
d6
f5
15
41
ec
0b
43
fd
ea
cf
fe
fd
f4
e6
0d
11
2e
24
15
f3
f3
1d
20
11
07
e0
ea
0a
e2
fc
19
23
38
09
0e
f4
29
ec
be
e9
f0
08
f0
c4
02
17
f1
fa
24
10
ff
1d
f4
02
10
e8
0f
e6
f0
f0
04
ec
fa
f8
13
bc
04
0a
02
10
02
d4
ee
ff
e3
f3
22
11
e3
f9
01
ee
e3
eb
22
0b
14
b8
17
d4
0d
12
19
24
2f
f5
d8
1f
ea
2d
e4
ec
22
f9
27
fd
2b
17
03
e6
dd
15
28
fe
2e
f3
d8
f1
e6
eb
19
f5
22
11
f4
0c
fc
eb
fa
02
29
0f
35
17
18
11
2a
16
0b
0a
44
fe
0a
0b
13
10
2e
08
1c
20
cf
df
15
f6
fa
05
25
0c
0d
17
0a
f2
fd
ff
ee
ba
f9
04
18
f3
0a
0c
cf
07
16
41
1b
f8
fc
ee
33
e4
13
19
12
2f
0e
0b
1c
fa
d5
0a
d7
e9
f1
f2
02
11
2c
c6
02
f8
ee
19
15
11
f5
f3
00
3a
e5
17
98
ff
25
05
15
f9
de
1c
14
f1
12
cb
23
e5
05
14
e2
ef
d9
ea
18
e2
0d
ea
d7
04
eb
07
e1
05
1d
f6
e4
08
12
d4
d0
2a
db
3c
0e
12
fb
c3
1f
ed
b8
f8
f5
c4
d5
15
1d
ed
41
fe
fd
f3
ea
04
fd
06
e3
0a
14
12
61
f4
f6
de
e3
f5
2f
24
1f
31
29
da
de
ed
27
d4
21
f5
06
07
f9
e6
ef
21
f8
04
f0
b5
fe
19
04
f1
2c
d9
e7
e1
dd
da
00
e0
dd
f6
06
09
18
e5
c1
ea
d3
08
02
f4
ff
19
05
2a
d9
0d
da
01
e6
16
cb
11
d3
08
28
05
f8
ed
15
c0
dc
27
e4
e2
eb
11
ff
fe
29
e3
e0
06
eb
10
e3
f2
f0
e8
fa
19
16
0a
fb
00
e6
00
ea
06
02
16
2a
16
11
0b
10
eb
eb
1e
0e
03
17
02
2d
10
0b
d4
fa
f1
17
fe
eb
d5
fc
0a
12
02
fd
c9
fb
df
03
fa
db
d7
f5
1d
0d
fb
da
03
f8
ff
ec
13
fa
0e
f8
f5
f9
1c
e9
fd
11
02
f3
fb
f1
fa
e9
e9
fc
03
47
f9
fd
ca
e5
f9
05
f4
16
f3
da
01
f6
0b
24
c8
2d
39
19
c9
3d
0b
e8
f6
fd
26
c3
ff
30
29
e1
e7
ea
e9
0d
fd
f7
45
08
10
1d
f8
ff
34
3e
f7
f4
b6
06
e6
ea
e0
31
3f
fc
05
f0
03
07
d0
00
2d
26
20
d6
15
df
fb
fe
06
e5
e4
e6
22
01
e9
11
05
05
dc
05
06
16
20
e7
f0
c3
0e
dc
1f
ee
29
04
d3
09
09
b8
ef
ed
f8
2e
0a
f3
1e
26
f3
df
db
fa
fd
01
24
07
e7
24
f1
da
fd
0f
fa
11
fa
04
c2
c2
2f
1b
fb
12
f5
e2
f7
ed
0f
fc
f3
57
17
dd
29
f5
f5
d0
fa
ff
eb
13
fc
fb
f9
07
dc
e8
ff
12
e5
09
fc
19
14
0e
23
29
00
f3
f7
12
0c
32
05
c1
1e
fd
ef
1c
ec
16
b9
ea
0a
ec
08
1d
fd
ec
e6
12
1a
ee
23
09
26
41
1a
ed
e7
eb
1f
0b
f3
0f
f2
de
f4
4f
f4
3b
ff
07
17
d0
00
26
fe
02
33
01
fb
1c
01
1a
ea
fe
d9
f2
fd
0b
0a
0a
19
f5
ed
2e
02
1a
01
c6
d8
d5
37
02
db
12
f2
d7
f9
15
fa
11
1a
d1
dd
11
04
10
09
14
fc
fa
d6
d6
0c
fe
f4
2e
c0
f0
e0
0f
09
e9
1f
25
3a
27
f2
fb
15
13
d5
3f
fd
01
17
fe
16
23
15
0f
11
05
14
dd
23
31
02
07
fe
2b
f6
f3
3d
28
ef
b4
10
0e
f9
c9
1c
08
30
e4
e8
f6
fe
18
09
d9
1e
0f
49
13
08
f4
0f
1b
f4
e3
f2
f9
ea
d6
d5
16
db
27
18
00
16
0e
f0
04
39
e2
0e
e2
f0
dd
fc
07
da
d2
13
fb
04
fe
f0
f6
0c
d6
c2
12
18
07
08
f6
25
25
08
e2
fc
f2
17
d7
ee
19
cc
f8
e7
d4
f3
0c
30
ce
ff
05
02
d4
00
e2
18
e6
de
05
02
08
e5
03
d0
2c
10
f3
fa
04
b8
fb
34
c5
07
d1
0b
d4
25
f5
15
30
43
31
f6
da
20
3d
eb
ff
f2
f2
ee
da
f2
da
c8
f3
05
18
0e
0c
f6
1b
29
ed
0e
0d
2e
01
08
fd
ee
06
0f
3a
f0
30
fe
0a
05
14
ff
df
13
fd
3b
f2
09
1f
fc
18
f2
0e
12
18
08
f5
da
ea
1a
df
e4
02
ed
06
f9
eb
1c
e6
d2
08
1c
34
2d
5c
08
d6
f0
ed
e8
ef
e6
00
27
db
df
f6
eb
2f
f3
e9
f3
46
d6
06
fb
09
f0
15
fe
cd
1f
19
2a
e6
e4
de
00
ee
0b
08
df
41
12
fc
da
15
fd
1d
2f
0a
1e
fa
0a
23
f5
38
fc
0f
de
0c
fb
e8
1c
fb
0a
dc
13
d4
f9
03
f5
e4
ec
13
02
04
00
bd
13
1d
16
dd
35
e0
18
29
10
03
fb
25
08
ef
f8
0d
f9
f3
f6
0d
df
29
1d
10
01
ed
f4
0a
25
ec
05
f4
09
26
f3
0b
1e
1d
19
f3
f5
09
08
cc
e7
ec
d3
e8
05
1e
f7
10
2e
25
ff
07
fc
f9
3c
d0
f8
f1
1a
0c
f4
01
f2
01
1b
02
d6
ea
15
06
f9
df
2a
e2
df
04
f5
00
44
1c
09
0c
e5
d8
09
0b
12
f1
d2
2e
0f
fc
03
18
f7
17
00
18
13
ea
f9
db
f7
05
f4
13
ee
05
c1
03
28
f0
f0
26
d6
1f
e6
e8
10
db
33
1f
e8
eb
09
f0
fc
13
2d
ef
d2
00
ea
fb
fa
21
fb
32
d6
e3
eb
06
fc
1b
dc
fa
f8
25
f6
06
0e
e7
f2
13
15
2e
14
cd
04
e4
04
07
27
ec
2d
0f
f1
e2
de
ec
20
f3
03
c7
15
e0
d3
ff
ea
00
3b
e2
f8
0f
e6
e7
20
c6
2b
0d
e6
10
46
17
04
0f
de
ec
3b
09
18
d6
00
13
fc
f6
df
19
2d
11
ea
f9
10
16
e3
0d
be
dd
08
02
1d
04
3c
29
04
db
b7
e7
f3
f5
0f
01
08
03
cf
17
05
fd
fd
09
1e
07
ff
13
f5
ee
25
fc
05
ec
e1
fe
45
f6
01
fe
fb
f6
09
f6
06
05
ee
f0
e4
eb
05
1a
eb
00
fb
f2
f3
06
0e
f0
10
f7
05
40
01
18
11
17
0e
da
e9
76
0d
ef
02
eb
0a
ef
f2
02
d2
19
fa
e2
12
d4
e2
0b
d7
d7
24
06
16
cd
04
01
1f
e7
f3
bb
1a
ec
c2
19
32
f2
36
e9
f4
d8
e4
27
e7
42
eb
0a
e2
06
2e
ec
dd
4b
03
07
1f
e7
d3
1f
e8
eb
fc
07
16
f1
04
e6
ff
17
13
ef
1d
27
0b
f3
0f
ef
db
01
05
0c
e9
c7
fa
e5
00
15
d8
5d
13
dd
02
f4
36
f8
28
1d
00
f7
35
b9
17
1e
0a
21
0c
e9
11
fe
fb
14
dd
da
13
26
f0
fb
0d
11
0d
da
ce
e3
06
bc
e7
09
11
19
18
fa
19
c2
09
01
f5
fd
09
00
19
e9
11
fe
de
10
f8
ce
0c
19
18
b8
fe
cd
fb
26
ee
03
31
de
14
f9
1f
0d
12
0b
f7
0c
04
30
0f
e2
e6
f7
f1
e9
fa
ec
f9
1f
28
1d
ca
d8
e2
0b
f5
1a
0d
e1
fc
12
f5
fc
e1
dd
db
31
02
05
e9
2e
34
f5
db
10
e6
df
12
f0
c3
2f
14
f2
0b
1f
0a
fb
f7
2e
f2
e0
0e
b5
df
ed
eb
e3
dc
f6
16
24
0a
16
dc
dc
f9
39
20
f1
22
22
fa
13
e8
14
f0
f1
ed
0e
d1
05
2c
13
04
f8
16
1c
04
ef
1e
29
11
15
f3
d9
02
0c
17
eb
05
1a
05
ff
f2
f7
01
0c
02
07
fc
42
dd
17
ec
15
24
1b
05
00
fd
fe
e0
bf
f3
e0
03
14
dd
09
f4
14
02
07
e7
e3
fa
07
f2
1a
00
f3
2f
fd
2f
06
1a
0d
09
da
37
19
f5
37
09
e5
ec
eb
ee
f8
28
ff
08
e2
10
fb
08
18
e4
ee
11
ea
e7
0c
e9
1b
0c
25
02
fa
ef
f4
12
1b
09
d9
0d
ec
f0
04
f2
eb
e9
fd
e1
11
16
da
e1
e2
03
e5
09
ec
1c
e5
e7
f3
df
25
ea
1a
0f
04
ca
03
f9
1a
fd
f5
23
b8
d2
03
16
f9
ef
51
fe
09
e5
e8
10
17
21
d6
02
f1
ef
0d
0b
d8
0d
0c
0f
1a
e6
fe
f6
18
f6
ff
02
d2
0d
11
f0
0f
1b
06
e2
dc
d8
14
09
29
21
00
18
0e
f3
1c
05
e2
12
f7
fb
f7
f7
ff
0f
f3
ef
04
09
1c
c0
24
f4
e1
fb
21
f4
0a
32
f3
06
cb
fa
0c
23
f1
15
1b
fb
12
03
da
e9
1f
ee
14
bf
1e
f9
12
d7
3a
11
29
05
05
29
00
13
27
15
0b
00
05
e0
03
20
3d
38
e4
0f
06
ea
fd
d5
17
08
ea
f7
08
e8
08
0a
02
fd
db
1e
3d
14
0d
24
05
e9
21
06
24
e5
18
4a
e1
cf
08
fb
11
0e
0a
e9
d7
ff
e0
00
e9
00
fd
c3
20
12
ef
02
f0
1e
e1
fa
06
02
09
12
e2
35
d5
14
1d
fa
c8
36
f8
1f
ca
e9
d8
01
30
2f
15
ff
d1
af
ee
e2
13
0c
f1
08
05
07
21
f4
05
14
07
17
e1
db
d9
1c
e5
fe
ca
d5
16
e5
f9
03
f2
39
13
17
da
fb
db
09
fa
0d
db
db
e8
29
1c
0d
19
09
2c
0a
57
4c
fa
dd
09
27
13
f9
00
1a
15
01
1d
3b
ed
0a
ef
13
1c
ea
ef
33
17
d7
02
ce
0e
e8
0b
06
0f
38
de
f8
0d
cb
c6
04
d6
21
e0
08
db
21
00
1b
fa
e8
d5
1f
e1
ed
f5
fb
f2
0a
fa
26
10
33
f1
de
f4
e2
10
fc
e4
d8
d9
e8
d6
f5
03
f0
4f
f7
11
0a
04
02
f6
1f
32
f7
f1
35
c2
d9
01
c5
21
01
17
f2
27
fb
13
13
1f
11
02
e2
13
dd
e6
28
0e
29
ef
0a
00
d7
35
f9
02
00
29
2a
fd
e3
03
0c
ee
ff
d6
13
fd
ef
f0
ff
0d
13
21
28
08
d9
f3
fc
09
ff
44
e0
d2
17
0d
fb
e9
0c
f2
fa
f9
00
15
f9
e3
09
04
2a
d1
09
03
38
10
f2
e3
20
38
10
fb
fd
4e
17
f9
28
f7
1c
fe
10
24
f0
17
10
dc
04
21
dd
eb
f1
e6
db
07
e2
02
1a
2d
08
eb
37
07
fb
c8
e6
17
c5
13
fd
f8
1d
eb
fe
e0
05
14
f0
c6
05
0b
0c
10
18
dd
0b
d5
f6
27
16
eb
f4
25
fe
e2
ee
f2
2a
0d
e8
1e
f5
f9
1b
06
fb
da
04
e1
d4
27
00
fc
d1
bc
d8
2c
fb
0b
17
21
03
22
d2
05
ef
ed
0b
dc
08
ed
e4
1a
f5
b6
e3
f9
11
fd
04
ea
0e
df
12
04
06
f1
ed
d7
00
f6
ec
1b
02
35
e6
f8
03
e4
ff
0c
06
09
eb
fd
2c
26
34
db
cf
f1
ea
ec
27
f2
08
1f
e9
36
f0
15
0c
ef
f3
08
f0
38
0b
fd
ef
0a
f0
03
f6
f5
f0
00
f0
12
05
0c
0c
f8
2a
f2
1b
f5
cf
15
00
22
15
ed
3c
f1
2a
27
e5
0c
fa
26
13
2e
ff
03
30
f0
1a
ff
20
f0
df
0d
bf
d4
fe
05
d3
fd
1a
25
e4
04
f2
ee
16
1a
fd
d1
da
04
00
dd
e6
04
0e
12
10
ca
0e
ed
ee
10
0a
02
1f
2a
f4
f8
df
21
f9
1d
3c
03
ec
f2
f2
1a
49
e5
fe
e6
09
f3
00
05
c3
12
0e
0a
1b
14
f1
bf
ee
de
05
d3
f5
f6
1b
09
ff
e1
f4
ea
0d
12
fe
1e
e4
d2
ff
f0
f2
1b
36
11
db
dd
f8
15
ec
09
21
ed
c7
f0
fa
21
fb
ec
07
e1
dc
2c
01
25
07
05
ec
e0
fe
fc
02
25
0e
24
28
f1
1f
28
1f
23
ed
11
1f
0d
04
1b
0c
e5
1f
df
ed
0c
0f
fc
ed
20
06
14
1b
3a
d8
f0
f2
e9
06
cf
c5
df
ea
1d
27
07
f1
dc
23
ff
ff
dc
fa
f6
07
43
12
2f
36
08
1a
3f
2b
e5
04
cc
26
19
e6
11
f7
06
14
20
14
ef
e6
14
1e
02
03
f5
ff
37
e8
f4
cf
ea
d7
27
20
0c
10
f0
e7
d7
0a
18
fb
d9
f4
15
16
d1
1f
ce
f6
14
fc
15
e9
eb
17
eb
16
1f
12
f9
f2
27
1a
03
51
e1
0f
e7
ee
00
e6
2d
ee
0d
dd
0a
11
0e
1b
c8
d2
0d
f2
04
fa
03
f3
02
46
2f
07
36
cf
26
00
e4
19
20
fb
f2
fb
dd
f7
f6
0e
d2
3a
f3
08
0e
0e
0b
d7
0c
e8
05
ea
cf
00
f2
02
fa
16
10
de
3e
27
1b
0a
36
55
f7
02
e1
2d
2c
05
ff
ee
0f
fc
05
f7
f2
1f
18
03
fd
f1
fa
f0
32
c1
e3
19
0f
e3
21
08
c2
ef
e2
f6
20
e7
f4
0a
0a
ed
f6
ef
ff
f7
2d
ec
2d
f1
e9
2a
ef
15
12
0b
e3
df
18
06
d0
09
d6
2c
0e
11
fb
e0
16
0c
f3
22
15
08
06
04
ef
d8
39
1c
fc
0e
fb
f1
c2
19
22
01
f6
1e
31
f8
e2
18
20
05
d9
0a
36
05
33
31
b6
1e
ff
ea
3a
f9
e4
08
fb
f6
06
17
fb
0f
f1
d2
07
ed
fc
eb
e6
ef
e7
14
0d
10
f4
06
de
eb
19
f1
e1
cc
d9
ee
1a
ec
0d
fb
ea
02
26
04
02
f7
0a
10
f8
f3
f7
28
f5
c8
20
c4
fa
cb
cf
15
ee
fd
0f
06
27
09
ff
16
ef
dc
22
01
04
15
e8
e3
ea
d0
f4
df
03
1e
c9
f7
de
f6
0c
e8
dd
48
18
dd
3d
15
0b
ec
e7
04
24
f5
f0
0f
d0
0a
0b
0d
34
fb
17
fa
04
08
1e
15
14
24
27
03
11
38
07
09
e2
01
07
fd
f1
04
d1
f3
2a
e9
33
19
f9
d9
f5
fe
df
fe
0a
d9
07
fd
0e
25
00
0b
07
f1
0c
0f
f5
04
15
f7
16
ed
e5
fd
e7
0f
ed
11
f4
15
1c
0b
07
07
14
01
03
e1
e3
f1
b8
f0
e1
da
f6
ee
f7
0f
05
ce
0b
f6
37
0d
25
d3
03
04
e6
fd
fc
2d
ed
db
2b
09
d9
bc
02
34
13
d6
cd
f4
06
d2
e1
f3
f4
d4
ff
f7
eb
01
fc
ee
ba
0b
ff
02
d3
2e
22
07
02
0f
05
14
f4
f9
35
19
ad
ff
d5
28
18
11
f1
14
04
fd
04
16
e8
e8
13
1e
f3
ed
22
e6
0a
c0
05
dc
22
ed
ed
de
fc
fc
f0
16
eb
05
0e
09
c5
f4
11
16
00
20
16
15
fe
2c
e1
18
ce
eb
1b
1f
fd
23
dd
f8
06
29
12
fb
e3
e8
cf
27
08
10
e1
10
fb
f4
04
05
18
14
fd
b2
f3
e6
d0
06
0b
f3
f2
f2
00
db
09
dc
01
fa
17
fb
e3
06
f2
fb
f4
d5
00
14
21
04
b6
00
ea
05
0c
fc
2a
f6
f3
f3
e6
07
f3
e7
16
33
11
1d
f4
1d
19
e4
29
ee
d0
df
0e
dc
04
fc
15
f9
33
00
e1
08
33
fd
35
f6
d7
2a
e3
10
cc
28
01
d5
f9
48
05
18
37
15
02
d0
28
e1
ff
1a
18
f2
28
f4
ee
01
eb
f8
02
08
3b
f3
2f
c6
ff
1e
fa
ef
f4
0a
df
1d
17
29
18
00
ec
14
1c
d1
11
15
e1
0b
01
39
2d
c3
f8
d5
ee
2a
ef
07
eb
ec
dc
fa
be
f7
f1
de
fa
16
ec
d0
10
b8
ec
0e
ce
e8
df
f8
1f
01
db
1b
be
00
ec
ef
d8
17
d9
17
06
23
fe
ea
db
1d
e7
1e
08
f4
eb
ff
fb
0c
08
e3
14
08
01
f8
f4
38
f7
01
c0
e9
c9
2d
2d
ef
02
f8
09
d7
fd
ff
eb
15
0a
e6
2b
14
11
58
15
0b
ff
f6
bb
dc
12
15
0e
e6
ef
f8
0f
09
1c
fb
eb
be
07
0a
f8
16
fa
fa
15
0d
2c
01
1a
ef
11
2b
c8
15
ce
d8
3c
e6
0c
f6
44
06
e8
02
15
09
f1
f5
10
10
10
ee
e7
f3
0f
ec
fe
f4
f0
24
06
ba
2e
f2
17
0a
e8
ee
e5
1d
f8
ef
29
09
fa
09
f5
ee
01
d5
39
e0
03
27
0c
09
fc
f2
20
03
eb
1a
0a
cc
33
da
03
ee
0d
f2
1e
cc
04
e4
17
1f
15
fd
07
00
df
2c
08
bb
00
1a
f9
c6
ec
bd
fe
03
0d
07
1a
ff
0c
0d
d7
f9
f8
fa
1e
04
1c
0f
08
cc
26
11
27
f4
ea
00
03
09
fe
fb
0e
eb
ea
04
f9
fd
f3
15
0a
f6
28
23
39
28
e4
0b
ee
01
f9
e4
f4
22
e5
eb
f7
1d
22
19
f3
d0
ee
f2
3b
0d
f8
e9
10
01
49
17
00
06
20
14
f1
ca
e9
1a
29
db
f7
1d
f9
04
05
25
1a
0c
04
15
ff
f4
ff
e9
00
c5
f3
e5
08
e2
d3
17
10
f0
f1
f4
15
10
21
0e
25
45
04
13
f9
f5
f5
da
ec
2b
55
fe
22
d4
c7
f5
fc
dd
fd
dd
13
03
f6
03
d2
06
03
19
14
c7
ea
d4
e3
0d
fc
de
fb
e9
fe
fa
f2
ee
cb
23
e0
24
ed
ed
05
d4
d4
07
eb
28
e5
fc
15
16
28
04
1e
0f
05
2d
fe
e1
15
08
08
de
f9
07
47
ec
c9
0d
0b
0e
2b
d7
0c
fc
f1
22
ee
19
ee
f2
e6
0d
08
f1
ed
f7
15
db
11
fa
ea
2b
02
d7
c4
df
28
40
17
f0
ee
01
f4
fe
fb
e8
df
eb
17
0b
fa
fe
20
de
f5
f4
17
17
04
01
cc
2e
dd
f5
06
ec
f9
16
e6
fd
fe
e1
1e
35
d9
f1
11
14
e1
f6
ea
33
f5
c2
0c
05
ec
07
21
f5
dd
1c
14
10
29
ee
c7
f3
11
fb
fb
dd
fa
3a
e0
18
08
03
de
fc
11
fb
17
11
e5
a3
07
03
04
f5
fd
f6
d6
f9
eb
f7
04
dd
2a
c6
16
ba
2f
d1
f4
e9
35
f1
14
e3
ed
f1
fa
09
c9
e6
0d
10
09
c9
ec
f7
1e
df
da
2d
f4
05
fb
ef
e6
3c
22
26
17
f5
f4
f2
32
1c
ce
44
06
14
dc
e7
f5
07
ec
ff
11
f5
f4
fe
09
10
f1
22
15
e2
2e
28
f6
fe
1d
0a
f9
0d
ee
f6
f2
29
08
0e
06
e0
05
ff
0a
cb
f2
f6
fc
2e
e1
0b
0e
f3
ef
0a
f9
de
00
0b
0b
0b
1e
d4
f0
ff
06
41
ed
e1
fc
08
18
3f
f8
d9
1a
0b
36
d0
d6
0b
2e
e1
17
11
11
f7
1d
05
f0
1e
29
e7
2a
f6
f7
25
d9
dc
f0
cd
32
01
0c
de
f5
09
f4
d3
3e
e8
1a
e8
e7
1d
d3
f0
0f
ff
01
02
f0
f8
1d
18
b4
15
14
16
14
f2
35
f1
1e
07
02
de
3a
ed
f3
03
f6
fb
c8
ee
fd
37
2c
fb
26
00
fb
e0
0f
fe
e8
e2
d6
e9
05
01
d9
e1
16
d9
05
25
2c
20
07
ee
e3
e6
03
09
ef
24
d6
29
dd
eb
e7
fa
15
ff
dc
dc
30
04
13
ed
fe
ff
e6
14
fd
2a
08
1e
07
32
f3
17
f3
12
f1
f9
e9
0b
11
2d
1e
02
10
ee
00
fd
04
fc
cf
e9
f7
00
0b
e3
0e
e6
f7
e9
1c
f3
09
00
07
fc
09
25
e1
f9
f5
24
23
de
17
af
01
30
f7
de
24
f9
1d
0d
e5
13
02
ff
ff
07
e3
f7
28
f3
1e
d8
0a
cd
06
06
0a
ff
f3
eb
e8
f9
14
09
13
01
06
df
f1
14
0a
c5
de
1d
0e
14
1c
12
f6
0f
d4
d6
20
e2
c5
11
17
cc
e0
19
14
03
40
11
eb
1a
1d
1a
0c
07
07
eb
de
d5
01
ff
b8
07
e5
d9
17
0a
e0
12
ed
f8
f1
e6
49
f6
20
f2
f5
d5
df
23
09
e8
0b
f0
f0
d5
f2
17
e7
da
1c
f4
4a
d3
36
02
f2
26
00
07
fb
0e
17
e5
4c
24
24
3c
ea
f5
f0
02
fa
e2
f1
02
c3
01
07
e6
ff
33
3a
f4
db
fe
e5
1f
e6
1a
35
e9
0c
30
db
ed
33
05
f8
14
fc
0d
29
e7
d8
f0
2d
2c
0e
0e
17
41
c6
e4
2e
05
00
ec
f2
1c
02
14
09
1e
fa
21
fc
da
09
e2
de
1c
1b
fd
d9
da
e9
0c
11
f5
57
3e
0d
00
f9
2f
02
d5
dd
02
08
15
1d
f3
f0
ea
d6
ec
fc
07
e3
0d
fb
29
f1
13
e3
05
1a
ef
e7
df
ed
0b
f6
0d
3a
1b
d9
31
10
0c
e3
d5
26
2c
36
dc
2c
02
36
db
c8
ee
0e
fa
e1
02
05
eb
04
2d
da
08
17
08
f1
e0
06
e6
f4
06
02
d9
21
f3
ed
dc
e7
1d
f2
15
27
f2
da
db
e0
05
f1
25
e4
11
eb
e2
11
1b
11
fa
f0
11
da
f2
f4
13
ec
ed
10
03
eb
d6
e3
1b
0a
0e
f4
df
f3
d8
f8
0c
0e
08
dd
04
e8
ff
e6
22
1e
2b
16
06
1e
f4
d4
fd
1b
fa
f6
d9
1b
17
2a
f0
00
02
18
c2
03
c1
13
ff
fc
d2
0e
36
ee
da
dc
1a
2f
f5
da
fe
1b
31
e1
34
18
e8
16
f2
4c
21
ff
18
e8
ff
ea
e9
b4
24
3c
04
ec
e1
2d
01
e4
0f
08
19
ef
e7
07
2e
10
c9
12
11
af
04
f1
ea
13
26
df
f9
15
03
df
ee
0b
ec
e5
e7
13
f5
fc
fe
1c
d9
0d
22
e8
e7
e4
f1
01
d6
f3
23
16
09
13
17
19
15
21
14
0d
ca
ec
06
03
1c
11
ff
fc
01
f2
08
0c
fd
18
e1
10
f6
e2
0a
f3
ea
03
f9
0e
3a
dd
e6
fc
f3
0a
f8
f6
e3
14
11
01
1b
e9
fe
0e
d4
f9
2a
1b
0a
00
d7
1e
34
24
ed
01
09
f7
0a
10
0e
b2
0e
f0
c1
e2
14
fe
d2
e5
ee
d7
f1
29
2e
0f
18
06
cb
fc
e5
26
33
e9
12
04
30
d9
09
c8
e4
d8
fe
05
16
16
0b
06
1a
fd
19
f1
f1
0d
0c
0a
ea
09
f8
d3
f3
1e
f9
f8
23
f0
d8
20
f7
2b
0b
08
e6
04
fe
03
2b
10
f6
e4
d0
f6
2e
0f
1d
0d
2e
0e
ca
0c
0a
fc
07
3a
fd
21
d9
ea
ff
14
2d
1a
be
e7
00
0c
ca
07
26
d9
f6
ef
02
0b
31
f3
28
ff
0c
f8
f2
ea
05
c9
eb
da
01
20
f7
ff
04
25
f4
05
f8
1b
35
ed
fd
dc
d7
17
fa
e1
0c
09
ec
fb
e6
06
d0
1b
d4
fe
0e
0a
17
c4
1f
14
1e
cf
07
01
f8
28
d4
06
12
02
fe
11
06
27
c8
fd
15
f1
f3
f0
36
f4
07
13
ed
03
1e
21
0f
46
e6
0a
e6
fd
fb
dd
1a
df
13
21
fb
03
0b
1a
11
f8
ea
1e
e8
c7
23
f1
ca
df
fa
0e
de
13
f6
05
2c
ee
d9
1a
f0
e4
d9
37
ea
1c
04
19
f1
e5
eb
00
16
03
24
2c
e9
c9
1a
f9
2b
2a
2d
08
b8
0a
e4
09
1b
e1
20
1b
06
0c
00
fb
dc
e2
ea
f7
08
e9
01
1b
ec
ed
12
19
02
eb
0b
17
32
20
0c
0c
e8
01
cc
14
00
08
2a
d7
08
18
e3
2c
f9
00
14
1e
23
23
04
f9
e1
14
f6
0c
fe
f0
1b
1f
ed
e5
e6
17
f9
00
f9
ce
1d
f5
01
d1
27
0c
d1
27
f4
ed
fc
fc
dd
f4
05
fb
1b
07
16
13
0b
ce
f7
d3
f7
f7
dd
05
11
f0
05
21
e4
b5
12
01
0c
11
f0
16
db
0b
eb
fc
f0
2f
f1
0c
23
23
e9
f3
f0
0d
1d
11
42
e7
0c
f2
2a
f7
e5
11
03
f4
1b
02
14
0b
1b
13
e3
e7
07
dc
d7
f2
0d
e4
fc
fb
e4
ec
02
06
df
eb
b1
d1
e6
02
12
06
ff
f4
25
1e
1d
18
28
12
e0
08
16
c6
f6
eb
da
1f
35
ec
f6
e4
1f
f5
f8
07
0e
dd
18
fc
12
02
18
16
f0
f9
08
40
28
08
d5
0f
01
cc
15
cf
0b
1b
f9
e7
18
cc
fc
17
ec
fe
23
e0
fd
2b
fa
ee
19
0a
16
09
0a
ec
e7
f4
c8
f2
fc
f1
10
14
01
08
30
0a
e7
eb
f2
cc
2e
f1
1c
f7
2b
2c
15
ea
0c
f3
de
e0
07
ef
1a
33
0c
01
cd
d9
1e
ea
12
01
05
de
fc
ff
0a
04
2c
d7
02
2c
df
ed
fb
f7
0b
eb
da
d9
28
14
0a
e6
03
f5
2b
fa
1f
17
28
08
0f
e3
f0
0d
12
ce
2f
29
12
00
11
05
18
f1
e2
fd
db
0f
f1
cf
e5
38
fe
1b
03
e1
03
fb
e3
1c
f1
1a
eb
04
ed
ef
f5
e5
fc
0d
e6
f2
3f
25
0d
19
18
c3
f3
17
fc
b2
18
fd
15
ee
17
fe
f2
e1
e4
e6
f0
e5
e9
f6
0f
35
ef
22
db
12
04
ff
f7
ec
ff
fe
18
02
ee
1c
f5
d3
ed
da
ee
03
4a
fc
1f
e4
00
0d
de
de
f2
f0
04
22
e1
fa
fa
eb
06
2a
11
05
fb
10
ee
43
da
d1
32
0a
f8
d1
dd
fa
0c
f6
fb
3b
f6
13
0c
f7
06
f4
40
05
f6
07
1d
ed
e3
13
18
df
52
02
3e
f7
0c
20
28
fb
08
20
fd
02
f6
e8
f8
00
f9
18
11
fb
ff
f6
fa
0d
f9
15
e8
1f
ef
fb
18
11
2b
f7
15
e1
27
00
16
11
1d
f3
1b
e3
1b
19
0a
14
2c
c8
f4
05
f1
e9
21
17
e8
0e
e6
2c
09
e8
fc
14
e5
d9
15
e8
05
de
24
0c
07
df
13
cc
0d
df
fa
0b
14
06
ee
22
04
ef
02
0c
eb
e0
19
da
fd
e5
e4
07
20
1e
eb
0f
ed
14
f2
10
27
f0
ef
33
fd
19
fb
f3
2c
e1
26
f8
1b
3d
e5
16
02
cb
f3
0c
05
f7
0a
2a
24
08
19
0e
02
02
0b
19
1a
d7
fd
08
2d
15
39
08
c3
2a
e3
da
fa
de
f7
06
0e
ef
fb
29
00
11
d2
f3
dd
d1
04
d5
08
00
10
e9
0e
0e
12
0a
fe
de
fc
fa
f4
e7
ec
07
05
f2
c7
02
0f
1f
0c
eb
ea
10
37
09
f3
f7
f6
18
11
f5
1a
21
d9
f8
f5
b5
e0
f0
d6
f4
17
f2
e0
1f
f2
04
09
ca
eb
db
e5
39
17
cc
16
ee
18
d1
cb
02
fa
ee
fb
00
27
24
27
05
09
d8
fb
f8
da
d4
fd
06
e6
dc
fa
1c
10
ce
fe
cf
0d
de
0d
f6
1b
06
56
d9
2e
cf
16
f9
28
ec
09
19
cf
e2
fc
0b
0c
eb
17
e6
f3
10
13
12
10
bf
4e
03
f3
39
17
f8
0d
15
3c
e5
11
06
fd
f6
ec
f7
14
10
0c
3c
2e
e7
d0
04
ee
c8
e5
d5
f3
2b
03
1c
20
14
e1
e0
01
47
fb
01
18
f3
0a
e2
c5
ef
f2
08
db
fc
28
11
13
e2
05
42
e9
fe
06
12
03
fc
03
12
0f
0c
f1
d8
ef
07
d2
da
e4
12
04
1e
0f
c0
e8
ef
33
f9
23
22
c7
07
e4
d2
fe
0c
ed
0e
1c
2d
1c
fd
02
d6
0c
0e
2b
f7
e0
0b
18
f0
f3
f1
ec
fe
22
0d
fa
d3
09
fe
39
12
e1
db
13
ff
02
fe
f2
eb
12
c6
f1
ed
de
09
0a
fd
f8
42
07
25
2b
ee
12
d9
f3
24
11
0c
19
f7
2d
0a
10
16
f0
ea
f5
fa
06
fe
01
24
07
f4
25
1f
02
17
0b
c5
2c
10
08
2a
e3
eb
1b
03
17
c8
0e
52
db
e5
f9
1c
fc
ce
c2
0d
e1
34
06
01
16
e5
ee
23
33
28
fc
0f
02
0a
05
1a
ee
ca
02
08
fa
f6
16
d6
ec
11
f3
d2
f0
10
0e
e5
10
f4
db
d9
ec
f4
05
0a
53
0f
11
fd
ce
e7
ff
05
d2
f5
06
f3
fb
bd
e2
f6
f2
42
23
f0
df
26
fa
da
23
07
f7
ec
03
09
01
13
18
0c
f2
02
fc
f4
ee
06
fb
ba
36
fe
de
ef
f6
05
2f
0c
fb
c9
f9
f6
1a
3c
ca
0e
1b
14
0e
0d
cc
fc
de
fe
dc
eb
24
01
01
1d
14
f9
fc
c3
b8
33
2c
f7
0f
d5
d7
20
fb
00
fc
de
02
06
06
0b
e0
0f
07
dd
fd
1a
ff
01
06
1b
2b
f2
12
d0
18
e8
0a
17
e4
01
07
08
ff
e6
05
c6
2b
c9
d9
ed
f8
ec
db
23
b7
07
03
f9
0b
01
00
2f
15
11
ce
ff
12
05
17
df
11
08
e1
fb
ca
24
1c
fb
39
d0
d6
d7
f8
1f
fa
0b
ff
f5
fb
fb
f2
24
ee
11
0b
1a
b5
07
c0
2b
df
02
0e
2f
f8
de
22
ea
0d
d2
17
e6
00
e5
1a
50
e3
15
fa
0b
18
65
d7
00
09
df
ed
d1
e7
22
1b
f9
ca
1d
06
01
23
ec
14
16
0f
06
e1
05
e5
19
ce
e1
eb
e8
03
f5
f9
00
17
0d
1b
0d
07
e7
e1
02
be
ea
20
0a
e3
e3
26
4b
01
10
02
1a
04
28
d1
fe
30
1d
cc
d8
00
0c
12
ea
0d
da
f5
14
06
0c
2b
09
1b
f4
d9
25
e9
14
ff
1f
f8
ec
07
1c
0a
ec
e5
3c
f4
0e
fa
f2
1a
0e
e4
0e
fb
a6
d3
f4
f2
19
9d
f5
04
0a
f9
01
1b
06
f7
07
f1
07
f1
19
0f
12
53
01
fb
30
fe
03
fe
f0
d2
05
f6
28
eb
d7
eb
04
f8
ed
1c
29
12
fa
10
fe
ee
2c
03
0d
e9
ee
fc
f7
31
fb
ff
0a
f5
f9
0d
0f
e3
1b
03
e7
1e
e0
da
c4
05
06
02
cc
19
fe
fa
0e
fc
14
f5
f4
f9
f7
03
1c
ff
ee
ef
e8
d0
ff
d7
f6
09
e1
24
a3
f6
08
fe
e4
0e
c9
f7
00
15
fa
e4
e2
1a
2d
00
23
d9
11
d8
08
f4
0e
fe
08
09
52
eb
02
fe
f5
c7
e7
15
1d
ec
13
18
02
1b
24
fd
f1
0b
02
12
e2
e9
ec
e7
f1
1e
1e
30
fe
26
12
11
dd
f2
f1
d2
1e
fa
ec
0e
0f
11
14
ff
db
f3
23
21
12
fe
fe
f2
fa
11
01
d4
fe
18
ff
01
08
27
11
1a
08
f6
1e
e0
fb
f9
fd
17
e5
eb
49
fe
1b
fe
32
1f
eb
12
18
25
2f
0c
1e
4c
1d
2b
eb
f5
d7
f9
e1
e2
f2
ea
e7
fa
f6
0b
f5
04
1e
fa
f0
f3
f1
ec
fd
18
13
ec
e5
fe
1e
36
fc
2f
10
13
f4
03
03
eb
d6
00
0d
16
1f
2a
0f
f4
fd
f6
da
c6
03
27
ee
0a
03
15
b6
fe
1f
1b
04
e5
05
01
e9
02
26
fa
c1
f2
f8
26
07
df
1c
e8
0a
eb
f1
f9
f8
0e
ff
c4
27
05
d4
fa
08
f5
ea
e8
14
03
0d
00
04
bc
01
40
c8
fa
e4
0d
c2
e5
cd
13
f9
db
03
ea
07
fd
e9
f5
ec
12
01
ea
0b
ed
ec
45
0c
14
26
03
eb
17
12
f0
e2
e9
0c
05
c4
c5
fc
23
27
ea
c9
d8
fd
f4
0d
0a
2b
19
f2
09
00
22
ad
19
1d
d5
db
db
c6
d4
42
0b
e2
e5
ea
f8
18
03
18
30
06
ec
e6
12
f1
ec
01
31
c8
27
22
16
05
23
06
cd
ef
3a
b1
c6
04
02
2e
db
11
1b
0a
05
b8
06
ec
36
d8
0b
15
2f
fb
ff
02
fb
e8
e7
ed
0e
0e
ec
04
11
d4
0c
ef
ef
f8
ef
eb
05
07
2b
ff
e8
0d
06
16
f1
fc
dc
e2
11
f8
f9
c8
0d
e1
08
09
02
05
e7
e8
19
f8
c7
0c
0c
0d
03
00
0f
07
38
ca
ed
19
df
f5
fa
06
ee
28
1c
13
01
f7
d6
da
e9
fb
f9
13
33
f9
2a
47
ef
0a
0b
da
ef
06
f7
cd
ea
ea
e1
02
e2
08
0b
f7
03
f9
26
ff
37
e9
15
e8
ce
dc
e1
18
ed
1b
2e
24
0d
35
e8
1e
15
e6
ff
f9
fc
eb
fd
30
16
fa
f0
17
e9
2e
0c
f5
0d
d6
1c
2f
f9
03
e9
fe
ed
ca
13
0a
07
e0
21
1a
b9
25
eb
04
10
23
ca
10
05
cf
f6
10
0c
f2
0f
15
c4
f6
f2
2c
dc
1e
f7
f4
eb
0a
13
14
16
e3
fc
da
10
da
02
2a
cd
e5
f5
16
f0
2a
f2
10
05
d3
1d
fe
28
bf
26
fa
ff
f6
08
01
f2
d4
0c
3d
1b
ed
2c
b2
02
fc
ef
ea
00
f1
dc
32
d7
1d
00
4d
11
03
31
36
e1
fc
dc
21
05
e2
ec
12
00
19
22
28
0c
0c
0f
e1
cb
05
f4
ce
ef
11
0c
be
d0
f6
fc
1b
34
f3
be
1b
f0
03
0c
f6
e5
cf
d2
d3
df
dc
2c
cd
00
11
e3
0c
22
01
f5
f7
0d
fc
d7
07
1a
0c
13
05
28
db
d5
17
1e
0b
ef
09
05
2e
1d
0b
0d
f2
f9
0a
2e
2b
e6
03
f2
04
06
fd
17
f9
e1
f7
de
10
23
44
0f
fa
14
dc
e4
f7
02
01
0b
0b
07
e7
fd
e7
09
23
16
fe
06
ee
e3
14
21
f6
30
02
ba
c8
00
28
d0
e7
06
b0
ff
f8
0c
04
05
1c
02
e6
2c
be
f1
f2
05
d6
bd
f3
29
08
ca
2a
1c
f6
e9
fe
10
09
f6
15
eb
ff
0b
0d
0e
d0
01
02
1b
ea
d8
e5
12
da
f0
03
0d
d8
fa
05
0e
f4
d7
fb
f1
c7
f5
de
fe
03
27
0f
d1
30
36
37
ec
33
0c
d5
22
ec
04
e2
f3
09
dd
c5
c5
fd
f5
d5
00
27
e1
f0
e0
0f
e8
e4
e1
eb
07
00
ef
14
ee
13
0a
14
ed
e5
f0
1b
03
df
ef
07
13
e7
d4
0e
14
17
e7
f9
ff
24
a7
df
37
e2
de
04
10
f7
06
f3
ef
14
20
0b
e0
0b
ed
00
f0
b5
3d
28
de
1e
f9
ec
e2
f7
12
1f
e0
ec
e9
13
c5
df
25
cc
fa
fa
f3
fa
15
01
39
1a
05
d7
29
e2
10
07
ca
0c
0e
0c
14
f7
28
e2
01
00
de
f3
f4
11
06
f4
e7
ec
37
13
1e
07
00
0a
e7
f3
f4
ee
01
dc
f9
49
06
0c
ea
f5
cb
10
c6
12
df
02
fb
af
11
cf
15
e1
de
de
f7
f4
fc
e9
02
03
e3
0b
1f
e0
e8
10
e3
dc
17
12
eb
1a
e3
18
ea
2e
ee
0d
0f
11
06
f0
3a
fe
00
0c
11
0b
e4
3c
da
e8
d0
f1
43
d8
f3
14
e5
eb
fd
e0
1b
ee
e3
0f
17
04
ff
04
0d
fd
05
fb
04
2b
07
f4
16
27
d7
f9
e5
bb
f1
3b
2f
02
fc
07
ea
02
0c
dc
f8
f2
08
ef
ee
0a
27
f3
11
d7
16
03
e7
09
cf
f7
08
34
04
26
0b
cf
fd
e9
e5
29
10
f2
06
20
0b
09
ef
dd
f0
1d
ef
cd
c4
e4
e3
00
0d
02
01
0e
cf
e1
0d
27
cb
04
1c
27
e0
17
14
0d
0f
ef
f5
1a
e2
24
36
0c
df
3e
de
f6
f7
04
05
9d
fd
ea
e0
ff
ee
ff
09
dd
ed
cf
2a
2b
0c
0e
09
fe
04
d2
23
e1
09
f3
11
d6
58
e2
d8
00
24
fb
08
08
09
11
c0
3d
00
eb
07
03
0f
dc
1c
05
05
ec
d1
df
e9
e3
e4
15
f8
08
e7
29
27
f1
f0
f2
d6
0d
09
b5
e9
ed
0c
e8
ea
f9
f1
e7
09
1f
23
0f
dc
1b
21
f5
e7
f3
dd
ee
fc
1c
d3
19
f1
23
33
f8
e0
01
f5
f4
23
17
e5
39
f1
1a
f4
05
e3
0d
08
e3
0f
e9
04
0c
1e
29
00
be
ec
cc
00
09
33
d7
09
ed
fd
21
03
3d
1c
fb
18
31
f6
ef
c6
2a
12
de
f9
cd
fe
10
08
d4
18
34
d7
e1
04
f2
d7
04
e2
f5
f8
16
fe
0a
01
eb
0f
fe
d4
e4
f8
21
db
e0
f1
10
d7
ed
d6
fa
bd
f3
e4
dd
18
1c
d2
21
fc
18
f1
28
f2
ef
e1
f9
c1
12
14
1c
dd
fc
f4
3d
d5
e1
12
fc
f9
23
0f
04
da
d6
0c
0a
dd
fb
04
d6
f6
eb
10
20
06
be
f7
29
ed
1b
08
19
11
d4
fd
d7
ec
15
28
d5
e9
f3
f3
03
e6
04
02
dc
fa
e3
0d
fe
09
eb
dd
0d
e6
17
0d
ea
e8
47
14
d5
0e
f4
04
1e
0c
dc
ff
f7
12
1c
f8
26
0f
eb
d2
f4
e9
f4
10
e5
21
00
ec
ed
06
20
c8
f0
02
11
f4
e5
e0
fe
00
13
22
f1
fc
d5
ec
fe
cb
f9
1e
e0
d9
ec
0e
e4
05
35
ff
ff
01
42
dc
eb
d9
eb
e6
e0
0e
32
fc
e1
b6
25
24
fb
f1
0f
36
fb
c4
d1
d0
e6
e4
f3
e7
25
b3
dd
07
05
fe
13
2a
ef
db
0b
11
f0
06
1e
fb
fe
e1
e6
02
f0
12
0f
00
fd
af
f4
d8
05
e5
e5
cb
07
01
e6
32
e0
06
ed
05
f7
13
12
33
08
fd
ea
03
f3
e7
13
27
bc
f8
1c
22
26
e0
f1
ca
26
fa
f9
0c
f9
f0
f1
0a
ff
0d
e5
ab
e7
f2
f9
04
07
1b
23
f1
0f
07
0d
f1
22
04
f4
11
01
05
ed
0f
03
f4
09
00
0f
1e
0a
c5
01
17
c4
c1
fc
ee
09
e3
cc
38
01
fd
fc
1a
2a
e3
e0
f1
0a
e3
d8
e4
0c
e3
fc
13
fd
fa
00
39
e7
cc
15
03
f6
eb
16
f0
02
e1
06
12
04
08
e5
0b
ef
0c
e9
ee
df
d8
36
ef
f1
eb
d7
34
d0
d3
2b
03
03
27
0d
0f
39
0b
f8
e3
05
f6
2e
dd
35
df
02
d3
10
fb
16
d8
e8
d4
fe
e1
d9
07
18
29
f8
17
0b
28
22
f8
34
ee
f7
e9
10
f6
00
04
da
f4
eb
f3
28
ec
eb
e5
03
08
08
ed
55
d0
10
1d
db
cc
f3
c6
fa
e8
de
e7
f2
1b
0a
07
c0
f2
24
08
39
f0
fa
26
16
01
08
08
f7
de
e7
e9
0e
e1
14
ee
0c
fb
f2
f7
dd
fd
d2
d6
0c
fb
0e
23
1d
e9
ef
1a
00
fa
d1
13
e6
ec
09
30
f6
fa
fd
10
06
1b
cc
23
fd
d7
3a
39
bf
fd
da
eb
cc
cc
1e
f8
ea
f4
10
d9
eb
0a
00
0c
04
2b
eb
2e
2c
1a
e1
e0
f6
0b
f2
e1
28
f4
21
e6
0a
bd
c1
01
ed
06
0e
f5
19
05
e8
e7
e4
f1
15
fd
0b
14
12
14
e6
e0
f8
0c
38
25
ef
0a
26
39
f9
fb
de
06
e1
3b
f0
fd
01
d1
31
e3
11
01
e7
fa
13
f0
31
17
04
02
d6
26
24
08
ce
fb
03
b6
16
19
d6
ef
e4
f6
d1
de
22
ff
e2
1d
10
0d
d0
ed
fa
ef
ff
f9
da
de
f2
2e
38
19
0a
f5
f8
0f
d3
0f
fc
e3
08
08
ea
ff
ef
eb
1d
0c
04
19
e2
0b
e1
fe
f0
2e
c2
f4
26
0d
0f
00
00
0a
43
f2
e8
ee
e2
dc
0a
09
ff
e8
10
37
1a
e0
e1
e7
32
1a
2a
21
19
1e
18
10
fd
e9
f8
03
cc
fa
d1
20
2a
15
1a
fa
46
fb
e0
39
00
e8
e1
f7
d8
2d
0d
11
22
e1
06
f5
de
f3
19
b4
f6
dc
2b
c6
fc
07
02
f2
f0
04
fd
0d
0d
fb
f6
fe
ef
0c
f9
08
15
01
c9
f0
44
41
c7
10
e9
2c
c4
f1
2c
fb
3f
cf
eb
f2
18
fa
c8
01
bc
00
01
12
da
ef
0a
1b
f1
16
03
15
e9
11
16
eb
04
d5
11
f9
fc
eb
e3
05
fa
f5
cc
2b
25
08
ec
d1
f4
fb
03
d8
f0
e5
fc
e5
0f
13
2a
f7
fa
eb
16
e3
13
04
e2
f9
21
31
18
18
ef
2b
f1
36
ef
e1
ff
03
e8
13
06
03
ed
0e
05
f9
1e
08
e1
eb
30
f9
da
ce
d3
0b
f8
dc
ff
fe
27
08
fb
0b
f5
2c
f9
3a
d0
e5
05
1d
ee
10
ea
f4
e7
fd
18
2e
e8
22
0a
ee
0f
e6
08
0e
1f
f8
14
0f
20
26
bd
2b
f2
df
05
f4
db
4e
f8
26
d4
23
f0
35
fb
e8
18
01
fd
fd
26
09
14
ea
d5
fd
ee
f0
e2
f6
07
1d
10
fa
18
13
31
fe
eb
41
28
4a
2c
ec
f5
13
06
f8
d3
f0
ee
16
01
fb
fd
c5
ef
e8
ef
0c
f3
25
e3
db
2c
2a
e5
e7
d8
00
0e
0b
14
43
0e
ea
e9
12
09
f6
0c
15
f8
31
1d
0e
20
ef
0d
f0
e7
0e
1a
19
c9
f7
f5
1b
e3
18
24
03
e7
e4
eb
00
0f
f6
1c
fd
f1
f2
08
35
f7
f5
00
fe
43
fe
23
1f
0c
f7
18
f8
0e
f2
f3
36
11
31
1e
fc
1c
02
28
0f
f1
00
15
e2
f1
ff
0f
34
16
fc
15
33
ef
0a
0c
25
1a
de
d7
22
d3
ff
39
e0
03
df
13
06
0c
1c
2e
28
1f
f2
ea
f1
f5
13
1b
1d
08
e3
f1
03
eb
3b
03
ca
fa
16
03
05
4d
de
f9
d9
d6
01
20
ff
f8
28
d9
05
01
18
11
e6
02
12
00
00
23
0d
b2
2c
17
e0
0b
34
12
04
f2
33
f5
0b
f7
00
f8
fa
1a
fa
f3
d9
27
03
04
fe
f1
f7
fe
05
2d
26
fb
de
1f
fa
f9
11
0c
07
11
16
c2
0c
fd
0b
1d
cc
30
0c
f7
fa
f3
08
f2
ed
0f
14
f1
13
2d
df
24
0b
17
2e
ea
d6
f6
0c
fa
3b
e2
07
2c
1f
10
09
e9
f7
ee
16
cd
27
2a
d3
fb
f1
ee
f1
1a
2a
ff
d7
08
fa
eb
1c
dc
12
d8
ee
bf
f3
ff
c2
d7
1a
ec
04
ff
10
ff
ec
ea
07
ea
fd
24
dc
0f
d1
f3
f6
f3
0a
db
0e
06
f4
d5
ef
c8
ea
e9
14
07
00
2a
dc
f5
14
f5
cb
12
0c
f1
29
dc
fc
e6
de
18
f0
25
08
fe
15
36
1a
1c
fa
f4
c9
03
fe
28
f3
f9
fc
31
fa
f4
ff
00
ce
f3
22
39
16
2c
f6
2a
da
fa
fd
19
f4
f3
0c
d5
15
0c
e9
da
18
43
33
e2
cc
fc
14
f3
fb
14
cb
e8
fc
e3
e4
0f
dc
28
ec
e4
0b
d7
14
c6
15
00
d9
e8
eb
23
2b
37
03
1e
06
12
e0
08
0e
c9
f3
ff
fe
e8
33
bb
09
18
08
fc
df
f9
08
09
26
d5
fc
0e
0b
28
f3
16
f6
ea
15
12
4e
2f
e3
ff
24
05
ec
e0
0c
13
f7
e8
dc
ed
e6
1f
26
14
1c
af
1b
11
1c
f3
10
21
e7
03
fe
0e
cb
01
27
db
0a
d1
0c
f7
f3
c5
fa
27
0e
ee
3e
0a
09
ed
ff
01
cb
db
f8
f0
05
f1
ec
11
0f
e1
0c
07
0f
04
1c
c8
06
eb
e1
dc
07
e8
06
fb
08
f7
e9
e0
cd
08
f7
07
ff
2f
da
06
0b
22
e0
b1
1a
e6
ee
f9
ff
19
f7
f9
f5
15
e0
eb
00
eb
02
ee
f1
20
08
09
f7
0b
1e
f3
f9
35
04
fe
36
a7
0d
bc
fe
f8
d5
0d
12
ed
03
eb
05
fc
de
f7
12
38
10
03
05
ed
25
d6
2a
da
e1
f8
07
06
0e
e9
e7
f8
e8
37
2e
11
e1
02
17
d9
05
1e
16
f0
19
f7
f5
0e
35
0d
d4
01
0e
21
a9
21
ee
ed
04
e8
22
20
0c
e0
f2
04
fe
1e
2c
06
e9
39
11
2c
bd
fe
e7
1d
f9
b2
0e
ed
15
ed
11
2f
be
1c
f9
1e
1c
ec
f7
31
ef
22
04
15
eb
04
01
f3
2f
0a
04
ed
e0
e5
e3
d3
d3
0f
21
ef
13
2d
d1
55
19
ed
f7
e1
ee
0f
16
e9
e8
fe
4a
14
11
f6
e5
fc
e0
0d
1a
e3
05
0d
f2
