d3
f8
1f
0e
c4
f6
b8
b6
00
ed
f3
d5
04
f6
bd
15
f7
11
f2
2a
f9
f9
53
0c
05
1c
bf
00
0a
28
26
03
9b
0b
2d
0d
f6
d0
fe
15
f6
e1
d9
ee
04
f1
f5
f0
32
d7
08
cf
1c
ff
f5
e3
1a
ed
01
ec
29
39
f0
3d
1f
ea
f6
10
47
fe
c2
03
e3
fb
06
fd
0e
0d
f2
06
b6
16
08
10
e1
17
f5
ea
02
0f
2d
f6
26
e6
14
0c
e5
25
e2
d2
e2
33
14
c3
e5
ca
ff
2b
d2
f5
3a
17
b5
02
20
30
e7
e0
b5
c1
e7
d9
18
c7
3a
11
0f
ae
06
fb
d0
fb
08
2b
35
3c
fc
0e
03
1a
1a
17
5a
11
38
f1
ac
f5
f2
e3
0a
f7
17
f6
e9
fd
01
17
1b
a9
0c
1e
0d
f4
da
bd
f3
dc
1a
e2
d5
2c
e7
09
e5
18
e9
e2
15
ec
fb
d7
fa
05
0e
14
0d
e9
04
f5
1c
d5
12
dd
e0
f9
17
23
e9
c9
e5
48
36
fd
2b
c4
08
2a
23
12
0c
f3
cf
ed
03
3b
f0
2b
ff
c9
e5
cd
f0
fd
72
3f
43
cf
05
51
fa
00
f6
23
d8
c5
ea
32
4e
e1
e8
fc
01
1e
af
08
26
1e
43
3f
cf
08
f5
38
45
d5
0b
fa
0e
0e
36
dc
06
20
f4
15
1c
f9
07
08
fc
09
e3
f2
d5
ed
01
3e
ee
d1
ee
18
32
f5
39
60
cc
f3
eb
c6
09
ea
e3
da
f9
e5
15
10
37
2b
bd
f6
f4
ff
05
fc
41
51
f7
c9
15
cc
28
f5
de
20
2c
fa
03
12
f9
00
e6
5c
d4
08
f3
e4
0d
f2
f5
20
a6
f2
f8
e8
07
e4
e3
ee
e8
36
19
dc
49
fc
e9
1f
28
f8
f6
09
f0
25
07
32
1e
32
02
d8
f5
f5
e0
55
67
f5
f9
0d
2d
36
f8
0b
d6
15
2b
f3
c4
1e
16
2b
c9
18
e3
37
d9
c6
28
e8
e0
f4
f3
16
e8
ff
05
4b
e9
09
0b
0a
ce
eb
e0
02
02
29
e6
b5
15
dc
1f
27
04
1e
20
f0
1a
19
24
ec
17
eb
2d
f8
f8
f2
06
10
13
e9
37
4f
cf
df
db
e5
f3
dd
43
13
ee
d9
f0
bc
08
16
1b
18
38
1b
00
fd
dc
d8
14
fb
f6
03
12
db
63
29
2a
df
1b
dd
ff
bb
e4
de
09
ff
2a
02
fe
42
d0
db
20
03
c7
e9
2d
0b
d3
f8
44
cd
e1
d1
f5
d3
e4
cd
fc
e6
db
fc
df
f2
20
bc
f9
39
de
ec
31
ee
a5
33
e5
1f
d6
f5
31
fc
2f
e5
f6
06
15
e7
08
ee
c7
04
09
f9
df
05
0a
e6
10
1d
05
20
f9
20
fe
08
05
de
e6
cc
f3
ca
fd
0a
07
16
24
e0
fb
3e
fe
bc
ce
a7
f3
0d
18
26
bf
40
fa
2c
b8
27
fc
f1
f9
18
dd
14
f0
3d
d2
ad
02
31
1d
08
f5
f7
12
b6
f2
13
ed
dd
d7
fc
52
ea
03
0c
f0
10
02
ff
3d
fe
2d
14
07
f7
aa
d9
2d
2e
41
ee
04
14
d5
24
05
17
ed
f5
0a
2b
f2
f7
da
fd
ef
e9
13
13
1b
fd
e8
14
10
fa
17
11
e9
0e
ee
1b
0a
e4
fb
1c
d0
ff
c2
0c
f7
e6
ce
37
0b
ca
fe
26
17
d0
d7
c8
32
fd
02
cc
dd
10
d2
f8
29
04
f0
02
15
ea
e1
b1
27
e0
0f
f4
08
d3
b4
25
d5
02
51
e1
3d
f5
18
11
04
2b
e9
ea
2b
bd
e7
1c
1a
f9
02
2b
f9
19
f5
eb
0e
2f
b6
3c
31
ed
f8
e2
ed
e8
16
16
1a
17
e8
eb
0f
e3
74
08
0a
d7
07
c8
0f
f1
fd
e1
f0
38
fe
07
2f
f5
0d
ec
f4
28
27
ec
d3
0f
11
d9
ed
1a
d1
02
e7
c9
d7
24
d8
d4
d4
d5
e9
48
29
15
db
e6
eb
0c
ed
f4
06
0b
eb
4c
22
17
39
08
ef
d1
2f
e4
4b
d6
cb
06
25
1a
3d
f6
15
5d
cf
e2
e8
eb
e9
1e
fb
0a
e4
33
fa
18
e1
0e
e7
26
0c
1c
1c
2a
f8
15
dd
1c
31
21
14
22
37
ec
0e
19
e2
18
eb
4f
23
13
e7
0c
30
02
f6
10
08
11
fb
e2
d3
d5
fa
fc
4c
05
1f
f2
1a
da
ec
f5
eb
b8
cb
1a
28
e2
d3
fe
b9
15
d9
0b
1f
de
d0
e7
d8
0e
0f
f2
fd
08
05
ea
21
35
ed
1d
3d
dc
2c
d6
0f
4c
ef
d3
e3
f9
0d
3c
e1
11
fd
23
15
03
0f
f4
0e
32
fe
e9
25
05
fc
c2
06
2f
2c
1e
fa
0c
07
0a
00
f5
0d
f4
e6
07
0b
e6
b9
19
5d
39
df
19
0b
21
dd
e0
03
2c
df
ec
ef
23
f5
c6
f4
11
18
08
21
f6
b7
21
34
c3
aa
2c
5a
39
f3
48
ff
d6
d1
fa
d6
ee
e5
17
f4
f8
11
f7
fb
1d
fa
1c
29
06
ff
08
0e
f2
e1
ed
f2
fe
26
2d
00
1e
d2
06
08
05
02
e2
2a
ca
05
fa
e7
fb
32
b9
11
2c
1f
13
00
03
f4
ea
4b
22
ec
0b
0d
e7
04
f8
00
d9
d5
06
02
0e
12
07
07
23
db
2a
10
e2
fe
fa
09
eb
ed
de
12
05
17
0d
f2
37
d4
35
e3
eb
24
18
39
41
00
e8
bc
59
3f
f9
0e
fc
06
01
04
00
10
fb
dc
e5
24
1e
13
0b
39
0f
08
3d
09
f3
da
06
cd
f7
50
05
e6
fd
fe
1a
1b
28
24
c9
ed
fd
1a
4a
e9
f9
02
fc
4e
02
f9
fe
01
07
3a
fd
d4
22
1e
0e
2c
df
1c
a4
13
1f
1b
05
27
02
fa
00
3b
15
0b
02
04
21
f5
f7
77
3c
f4
0f
24
f7
fa
1a
f2
22
e2
2e
27
0b
fd
20
fb
0d
0f
f8
ff
cc
44
cc
0b
19
f8
e7
f3
db
19
f0
f0
2c
17
f7
f0
06
e9
f4
11
d6
fd
f9
24
bb
eb
c6
f6
30
16
27
23
1d
1c
69
f1
ef
ad
13
f5
22
b8
e8
a0
24
20
f8
f3
29
d3
14
12
38
f8
e7
e2
f8
bb
07
30
ec
ef
f4
04
de
23
ec
36
0c
e6
1b
04
2f
d5
16
34
41
df
13
07
20
09
df
25
db
b8
dc
e2
14
02
d5
03
f8
0b
24
fa
ed
14
27
17
1f
20
1c
e8
f9
d2
13
11
1a
d0
11
e2
03
2b
e8
06
02
8e
da
13
07
01
d9
44
fc
cd
2a
0a
f2
22
f2
30
c6
ea
23
08
3a
0c
09
30
1e
e2
35
1b
fc
15
ee
2f
14
28
da
09
08
f5
12
d3
3e
fc
0d
13
e6
d5
12
f5
d7
ef
14
ed
15
1d
21
05
21
11
00
f6
ed
e8
f5
1e
15
12
24
14
ef
da
e8
27
04
c2
0e
f4
e9
f7
5e
e3
f6
15
17
d7
1f
a3
1b
05
0a
fe
00
f5
0b
11
1c
00
c0
cc
f8
32
ec
10
d0
28
cd
28
e3
05
f3
0e
04
c0
16
52
e1
28
05
cd
da
d1
ec
39
f6
12
dc
fc
00
f9
12
fe
f1
18
ca
f0
36
26
27
e2
d5
d6
e2
d8
11
fc
f1
e8
de
10
f4
3d
01
06
f2
0c
c4
db
f8
23
00
18
ee
31
f2
14
10
0a
d3
16
f2
b3
05
1b
11
35
e2
27
0b
dd
ed
0e
40
f9
e8
04
04
f8
41
2c
e1
d6
bc
02
cc
09
0b
ec
23
f1
f2
cb
47
18
40
2d
01
e4
87
09
24
17
1c
ae
08
f5
0c
ce
08
d2
1a
0a
df
37
bf
e7
1d
ff
1c
21
d1
fe
36
38
2e
ec
09
38
31
ff
cd
fe
f5
28
14
31
22
14
f3
d7
df
e3
f7
04
1d
06
d4
97
19
32
01
f8
d5
48
1c
36
09
cc
4d
04
fa
23
e6
d3
ee
22
dc
09
e3
bb
1c
e3
da
ff
1f
f2
d4
bd
3b
db
27
0c
0d
0d
41
14
d1
d6
ff
ef
12
1e
11
c4
de
17
f2
d0
10
c0
e7
0a
f1
c0
37
e0
06
4c
da
d1
0f
bc
f7
f5
ef
ce
ca
c9
1e
18
23
19
0d
ec
aa
dd
cd
01
df
0e
01
53
d3
e8
2c
d3
f1
04
1d
f6
e1
d3
09
fb
05
0a
32
0a
a8
1c
40
21
d2
26
c6
12
f2
fb
c1
e7
e1
c5
40
fb
bf
6e
d8
0b
1f
22
ee
e2
19
46
15
f0
e2
01
f5
06
e6
ff
2c
0b
07
18
d7
e7
12
27
f3
16
35
f8
1a
2a
37
cc
25
08
e5
d9
1c
eb
19
f3
0a
f7
e1
1d
ff
d7
f9
10
2a
d3
d5
c5
1a
22
4a
1a
d4
0a
af
05
c8
fd
da
af
eb
45
09
ed
d8
40
d2
ec
ad
45
27
3a
e1
3c
0a
d4
3f
e8
fb
e2
2d
e7
fc
30
df
03
fa
ef
fc
19
fa
35
d2
d5
2c
f7
99
db
e5
3b
14
f4
1c
2b
df
0b
0f
e1
18
20
0b
39
b5
0f
29
e5
ee
08
04
23
e9
01
2f
e9
fb
e0
16
45
16
1e
17
f0
ff
3c
f9
eb
24
d7
f4
ff
d5
f7
04
07
ed
fc
0a
dd
08
ef
03
e6
cd
fa
ad
2d
03
18
0e
fd
10
f9
31
02
fb
d9
16
d8
da
f7
0d
f3
f3
cb
0a
19
ee
2a
ef
29
fd
d8
da
d9
e9
2f
c7
23
d3
27
ed
ee
2d
36
0d
d8
26
d3
19
fd
f2
e2
c9
f8
27
df
0f
f9
1c
d4
1f
d5
0e
f8
ce
e7
f1
ef
ff
bd
f8
0a
13
c8
3b
e2
20
d6
09
c7
00
00
0b
f4
cc
38
fc
ee
e9
08
e8
b8
13
d9
0f
e1
03
13
ec
2b
0b
19
11
cf
d2
da
f6
bb
05
01
cc
dc
d8
fe
f7
0d
13
2b
02
b7
43
e8
1b
2f
33
02
24
fb
e1
c3
d3
17
29
ba
f9
bd
0e
0d
2d
3a
30
f9
fe
3f
2e
e3
ed
11
dd
f3
30
d6
1e
e0
e8
1d
dc
13
d3
39
1f
fc
06
c9
0c
1b
17
d1
13
e8
d0
25
08
2a
f3
18
f8
0b
19
fb
2d
f4
06
d7
c4
15
07
07
e9
06
e6
c7
c9
ef
03
24
fe
eb
ec
fb
dd
0c
e8
d1
0a
0c
51
da
d6
20
12
e9
e1
0e
14
f0
b3
df
0c
de
2f
06
f5
13
1d
01
e6
39
2b
0a
44
f4
56
1d
16
e6
01
53
02
1e
de
f4
a4
c3
ed
f2
e1
e0
e5
36
f6
cb
ed
e7
cc
24
cc
26
0a
0f
bb
3c
15
0a
03
de
99
18
01
2f
23
3b
d7
18
fa
11
cc
30
fd
21
f5
23
e0
4e
26
ea
04
d8
3c
ec
bc
f7
2d
e8
c5
c8
04
25
f0
fc
0c
de
f1
e8
da
d9
1e
04
3d
27
e9
dc
0d
e3
07
43
10
0f
d4
5d
0f
c1
fb
e3
e3
0f
bd
28
23
ec
ac
f9
13
01
01
f0
f8
2a
c9
67
12
dd
57
05
07
e8
02
16
11
1e
f7
f9
cb
18
fd
02
ed
3e
0a
22
17
0b
dd
0b
09
ff
09
01
23
05
da
d4
07
ef
d1
f1
ef
e9
04
cc
ee
f3
1d
fe
e2
0f
cd
d3
e0
e8
50
21
f6
e9
0b
11
39
07
02
4b
a5
ff
16
0b
3c
20
fc
e3
10
1d
08
fa
f5
e1
19
24
f9
d4
f2
0e
11
04
c8
64
c3
0a
d5
08
1e
ef
dc
25
3b
d7
da
23
ed
fb
31
00
39
24
c9
c8
2e
02
f7
1e
cd
10
f4
3e
e2
39
fc
12
07
fe
c7
00
df
d1
12
ed
d2
ce
d5
13
20
ee
d9
13
d7
33
22
f2
e7
fa
16
21
ff
f1
22
1a
df
1e
15
35
f8
1d
f2
f5
d8
00
3e
ba
06
f7
0c
e8
ce
17
0e
f4
06
d6
3c
28
ed
27
18
0c
05
19
29
b0
39
1a
eb
fa
d2
1d
28
fa
ec
08
ef
34
f3
0a
d8
ff
1c
e7
19
fc
f7
db
23
0f
0c
bf
fe
28
fb
2b
0c
b8
fd
04
1c
0a
09
ed
d7
ef
c8
04
0b
ee
c8
f9
f6
1f
dd
f1
e3
1c
30
23
1d
ca
b2
f2
e8
04
f4
10
16
e7
c4
e4
d3
2a
fb
e7
11
f8
3c
f7
31
2c
1e
0c
3f
0a
d4
07
e4
e5
09
ce
f9
2f
f8
04
eb
15
ec
fc
35
cd
1a
ff
f3
ea
07
16
df
cd
c7
db
42
23
c4
ff
10
02
d6
d2
32
d4
1a
20
38
f7
01
19
08
03
2a
28
1b
fe
c7
03
ec
0b
db
28
13
f7
c8
bd
33
a5
09
1b
45
1b
04
fd
33
ed
ca
d9
da
1e
e3
04
f5
b2
31
03
ff
b4
09
e1
12
f7
e0
14
15
f0
35
0c
0a
e8
10
ca
0d
f1
0a
ea
c9
19
0c
2e
0c
df
03
d8
0b
10
f0
ea
39
a5
db
f1
03
fc
08
1d
c2
e3
02
05
e7
bc
35
0a
10
2d
06
0f
0e
05
e8
f2
fb
d7
e5
27
ea
f1
b8
27
04
f5
15
bd
e3
ca
d8
d8
09
24
f0
eb
14
1c
af
ed
22
f7
32
e5
e1
c3
18
3b
01
02
d9
16
bc
d4
0b
54
22
2d
ec
1d
12
32
be
0c
f8
16
f5
10
2d
fa
fe
02
fa
e4
e5
f9
d8
e1
0d
f2
21
e1
ca
15
ff
15
08
f3
d9
ff
01
fa
c9
2a
9a
52
c4
0c
d4
17
c5
fd
14
07
fa
07
e3
fd
1f
f3
ca
fe
b0
1a
12
f2
09
f5
30
d0
53
db
1b
e6
ee
0f
14
f1
35
d3
cc
e4
11
19
68
17
fd
61
ed
ea
d7
0c
e0
ec
e1
23
c6
fc
f8
ec
f3
f3
e8
37
e8
e6
2f
10
ff
3f
1b
09
10
fd
07
ec
f0
37
12
0c
f4
28
12
ec
25
38
e7
0d
d6
18
da
d5
08
d4
eb
18
09
07
f5
d0
ee
f0
b2
f5
10
d1
00
f7
f3
17
07
fd
c9
d0
0d
45
f3
16
f9
1b
04
29
06
e7
28
c1
fb
0c
38
1a
e9
02
06
c6
15
1a
fe
1b
c8
f3
a1
23
0e
f2
26
cc
12
15
11
cf
02
f5
fb
e6
00
24
fd
b8
bf
0d
28
e7
0a
1e
12
fb
cd
05
08
44
09
f6
ea
46
1e
d6
04
10
cf
e4
34
ef
23
12
e3
ec
1a
bf
fe
1b
35
05
1d
f5
d0
10
f1
e1
ef
cd
d7
ef
c7
39
1d
29
ec
ec
37
f6
f8
ff
ef
08
d8
fa
f9
db
bc
1d
f6
fa
ea
0a
e3
26
e4
04
f7
d9
ef
c9
fa
e5
28
e5
2b
be
fb
11
02
ee
c6
17
05
c2
e2
e5
1e
e2
10
ed
00
08
03
18
f0
51
f1
ec
1b
16
fe
f8
10
49
e2
dd
fa
13
fc
02
f0
d3
fa
2f
1d
d4
f9
14
aa
11
eb
e3
12
de
c7
28
b1
20
06
eb
1e
e5
0d
ef
f7
f9
16
05
ec
4d
e0
0d
34
f6
18
df
f9
27
39
e4
f6
ef
3e
00
0f
02
ea
11
21
17
de
c3
0a
3d
33
04
fc
c0
cd
26
1e
ed
ff
0c
5e
0c
07
19
a9
00
11
d7
26
fc
f1
05
0c
09
d8
16
f2
f7
0e
29
e2
1c
29
fb
e9
05
00
0d
05
13
55
16
e0
3c
0d
bd
ef
2c
eb
fa
34
f2
df
e9
3a
ca
ca
3d
39
ae
f8
69
30
20
de
d9
04
fa
3f
db
fb
d5
09
2e
f2
21
ec
01
e6
f5
fe
f5
01
f2
15
cc
c3
f2
e7
ef
a9
1d
fb
25
e6
47
15
e3
1f
1a
2c
02
dd
eb
20
f4
17
21
d3
dd
f1
f9
04
2b
ea
eb
3d
20
f2
fa
14
0b
4b
ff
05
e8
2a
2e
f0
ea
cd
07
ee
24
f2
44
a5
02
47
c2
e0
1e
e8
f5
fd
0d
d9
21
fc
1e
f1
ec
ef
13
b2
cd
28
f9
f4
fb
c4
fa
15
fd
0d
f7
f7
23
e3
2b
a5
2a
f0
e1
1d
ea
09
df
d8
0e
01
ab
dd
01
be
ea
ee
1b
11
05
11
e4
01
04
b4
f1
df
ed
fb
11
36
cc
f7
d1
23
da
37
f9
2f
d1
4a
43
c8
29
23
ef
0c
f1
dd
4c
19
0c
f3
ee
04
0c
29
13
d9
27
56
c3
14
2e
c4
0a
fd
0d
c6
1b
1a
e0
03
b4
ec
05
15
d1
00
e7
ea
e8
0d
14
f6
e4
e7
d8
f5
ca
24
f9
36
23
fe
ea
07
da
da
0b
0c
0b
e6
05
1f
c9
a9
f7
05
c8
fa
f4
d3
bb
e9
e3
19
0e
14
25
40
e3
fb
2b
ef
fe
e2
a7
19
12
3d
f7
fe
03
22
0c
c9
f9
f9
04
f0
00
2a
1a
3b
f7
12
df
02
02
f1
24
0f
da
b6
05
45
3b
07
17
36
0c
d4
f0
04
be
fe
e1
1d
f5
30
09
f7
21
f6
d3
20
e0
db
e9
f2
13
ed
1b
12
f6
e5
24
05
1d
31
d0
f1
c1
fc
1d
fd
13
10
f7
61
e9
2d
02
dc
fd
21
09
03
fd
ff
26
21
02
25
e0
ee
14
12
29
00
e5
12
e3
f7
23
2d
c4
09
12
24
05
fb
02
fa
c1
40
01
f2
22
1c
fd
02
eb
0e
34
15
f2
fa
23
f0
1a
fb
20
c4
ed
39
dd
09
ef
e1
02
1c
1c
15
14
27
38
e8
12
09
2f
01
0e
9a
ed
30
df
2c
fe
fd
cd
14
0a
fa
c7
1a
e1
fe
fd
0f
f5
22
de
0e
ea
3d
19
c3
eb
27
da
0b
ec
5e
ea
f4
11
f2
1b
0b
16
03
d6
28
1e
01
06
e4
0e
e8
25
01
c4
04
c8
16
06
f2
f9
23
05
26
ee
f0
10
c8
f0
d5
fb
bc
05
d3
ed
0f
ea
e1
d8
2f
d1
09
ec
da
eb
f5
06
00
27
01
0e
c1
00
1d
ea
c5
06
e3
b9
36
0d
33
f9
22
d7
01
3b
49
00
13
2c
23
e2
17
00
fc
35
b1
2e
07
05
10
00
d9
dc
29
b5
f6
f4
04
08
37
d4
fd
17
10
0d
17
1c
41
c3
ee
31
50
e5
41
e1
05
2c
f7
41
7f
04
f6
ab
10
0a
2c
e3
3b
f9
1a
ce
e3
ff
07
24
24
06
33
0d
c6
f7
0c
0a
c8
eb
ac
22
cf
ea
e7
0a
1e
20
bf
1f
dc
1e
f8
47
db
59
dd
ce
00
fe
ea
d3
e1
e3
f9
cc
07
13
00
f2
5e
14
b5
fd
10
4f
e3
fd
09
f5
29
22
e9
e7
c2
fd
18
dd
dc
0c
1e
16
15
b2
2c
c9
b2
01
dd
f3
0a
f1
0b
de
2f
0f
0a
db
c8
dd
07
2b
c1
0e
21
35
d6
2f
e2
de
b9
23
1f
e4
11
b4
4c
00
eb
2d
09
cb
21
e5
27
ec
b8
ef
0d
02
09
0a
b1
04
fb
11
05
13
f1
0b
b6
f1
40
e9
ed
08
2a
e6
ef
f6
05
f8
11
12
26
30
50
22
38
0b
1e
e9
fe
10
bb
c0
ac
5b
ff
2a
f1
f2
fc
eb
2d
eb
34
cf
19
14
fb
27
ef
eb
f5
2e
d8
3f
1a
18
20
01
07
f3
fa
26
27
f6
04
f3
e8
c8
f8
ec
e6
1b
cd
cb
18
c3
e2
4c
17
f5
18
c6
23
e9
dd
0d
fb
1d
27
ea
09
11
24
fc
e8
fe
0a
28
ef
11
f0
1d
2c
1f
ff
13
db
f1
da
44
c3
0b
e7
2d
06
d3
db
f5
27
1f
ef
ec
e6
2a
e4
1c
29
6a
10
1f
cc
36
07
3b
d5
de
fb
19
0a
07
d0
cd
27
24
f8
a9
1e
f4
ed
66
29
f4
f7
e3
df
03
10
d7
16
1d
d3
f9
10
05
f1
e0
2b
05
e3
11
1a
cf
16
46
1a
1d
b8
0e
fe
02
e0
f1
6a
d4
25
fb
10
db
f0
16
ee
4a
0c
e9
2a
53
f0
03
f2
ae
f6
fc
06
df
e9
1b
06
10
de
18
2d
0f
d9
ec
cd
00
00
21
e0
2c
c7
fb
36
fb
1b
03
d0
01
f0
f0
06
d7
bd
1b
f6
9d
21
df
28
23
50
17
f3
1f
07
18
c6
19
21
18
04
24
f1
09
0e
0d
07
08
f6
f9
dd
e7
f2
fb
f4
13
21
04
df
c6
14
e4
d9
0c
4a
00
5f
dc
05
fc
f3
18
24
f0
f1
26
03
f0
f9
0b
08
ef
bf
37
d4
27
09
ea
d6
f2
fb
de
c9
30
cd
fc
b3
11
f7
28
b5
0b
e0
ff
52
39
c4
ee
bb
b3
21
18
f6
00
16
e7
1b
da
fd
3e
fc
67
20
ed
f3
40
13
f3
3f
f0
d7
f0
1c
eb
f6
db
15
4f
ee
d1
34
10
f3
e5
f9
f4
e2
fc
71
e5
f5
d1
fd
e1
11
18
28
af
f6
ef
e2
2f
13
3a
af
c3
1b
f3
11
06
26
31
05
22
08
f6
39
fa
d8
f8
cb
3c
f7
28
0c
01
fb
cc
17
15
da
3f
35
00
1b
1f
fd
2f
f5
1d
ed
b6
e3
19
16
fa
1f
35
e0
1e
fa
e9
26
f0
c3
2f
29
d8
d7
e2
22
03
0f
ff
f7
ec
f2
03
f0
b9
f6
c2
da
d0
36
e8
e2
fe
09
c2
ea
e2
15
25
3e
c6
18
21
1a
e0
06
0f
10
f8
24
1f
1f
15
de
40
bc
09
33
33
40
1e
dd
27
12
43
23
eb
1f
fe
f7
c6
40
31
0a
09
f8
fb
10
0c
cb
10
dd
27
f2
fc
f6
bb
e4
ba
d9
0e
3b
d9
e1
5b
f3
fc
cc
ef
00
c5
0e
f1
dc
d7
12
1b
20
d8
30
35
e4
f7
f3
1f
11
dc
eb
24
d2
00
bc
56
ec
d9
17
06
1d
9a
fc
d9
27
31
0c
07
c5
0f
0a
28
43
bf
2c
e8
ef
04
f3
22
10
ea
3b
fe
0a
e4
29
f8
ef
f1
1b
21
e0
05
26
01
f2
41
4c
d2
39
4a
36
ec
08
01
fa
06
11
de
fe
fa
e5
18
10
11
e9
0d
e1
11
24
bb
ef
2a
dc
e0
26
21
c7
f4
05
23
d8
f6
31
18
2f
d3
dc
10
f6
07
e4
0d
c8
fc
fd
ce
1c
14
f6
0d
11
37
e7
ff
13
0e
1a
fa
d5
0b
c2
19
02
25
ff
1d
f5
10
f5
05
cd
07
f9
30
f9
eb
fd
1b
14
03
0f
e9
16
fc
0b
0f
05
03
20
20
e3
dc
10
fb
e6
d8
de
de
41
01
21
45
e9
da
dd
cc
05
61
0b
b6
31
fc
fd
e9
27
fe
18
1d
cf
dd
0c
19
29
12
09
ee
13
d2
16
ea
f0
fa
1f
2b
f9
f2
ee
0c
cf
f9
17
20
f1
e3
0d
e3
bf
3e
05
3b
48
f3
fe
b7
f4
f9
31
34
f9
30
fe
dc
18
16
d9
de
00
1f
e9
f7
d5
16
fb
ea
f4
f5
d6
16
2a
19
42
1d
1e
49
1a
14
dd
31
ad
ce
08
1d
30
de
e5
12
1c
0d
b9
f6
d9
09
fd
16
fb
e6
09
16
2e
f6
04
ff
0f
16
e2
00
02
bb
ae
f6
62
d9
fa
dd
f2
1c
11
dc
16
eb
f8
db
43
39
19
19
d9
d3
2d
03
eb
fa
36
00
e5
2f
2e
e4
f9
f6
32
2d
1a
0f
13
0e
13
15
ed
36
12
09
fc
35
12
09
08
0a
07
28
09
1e
fe
0e
03
fd
ff
e9
f2
fa
04
fa
f0
20
42
e2
f1
54
c5
14
d6
e2
9f
21
f3
e4
06
da
20
f3
f4
05
ef
09
e9
d4
2b
0f
04
1b
13
e3
25
19
28
eb
1c
e5
c5
d8
de
f1
32
08
ea
ec
05
f5
d9
25
f7
3b
00
fb
d1
e0
f6
d9
ff
ed
3b
06
d5
ed
00
d2
1b
1d
20
d0
1b
fb
00
44
f3
08
0e
11
cd
28
f8
f1
f2
f6
d6
15
fb
d2
29
e8
50
fe
1a
e1
e2
10
1d
0c
b2
a0
e5
0c
11
d9
0e
0f
f4
f9
e8
f6
db
eb
11
ef
09
63
2c
2a
f0
f1
58
29
14
08
02
0f
07
fc
01
df
f7
29
d6
de
cb
05
1e
0f
2e
30
4b
dd
f1
0e
eb
ed
1c
2e
ff
23
1f
fb
27
d8
2a
c3
d7
10
dd
fe
df
f1
31
b5
bd
f3
f7
f3
04
1c
30
17
11
ef
21
ef
1b
e5
f2
d0
1c
30
c6
29
23
40
e3
e2
13
e4
eb
fb
a5
f0
16
3f
dd
06
24
17
4d
e9
08
28
1f
dc
de
20
a9
e7
41
2b
18
c8
e4
cc
f8
0c
47
e8
fc
ea
17
f7
fc
2f
e3
fc
04
0c
f9
ee
09
09
37
ed
f1
f5
1f
32
04
22
e8
33
c0
ff
09
f0
fc
f6
d6
db
ca
dd
0f
12
f9
cd
2e
e7
c0
c5
e9
16
f8
fc
39
3e
f0
ee
02
f5
d9
09
53
09
d8
ec
1e
f7
ef
e2
e6
e1
05
cf
14
d6
17
f6
f9
f2
ef
17
39
e0
e8
02
01
2c
eb
e9
fd
de
c2
f5
d2
f2
ed
ff
c4
d2
09
0f
ef
f3
05
da
f1
b2
e4
15
d7
ed
ea
16
f4
d7
cf
04
ed
15
26
2d
0e
10
f6
12
06
0b
2b
f6
d1
e4
fa
1c
27
3e
d7
f0
d8
e3
e1
20
f1
27
f2
20
2b
f3
54
4d
ea
0b
a3
d0
26
0b
f9
d9
31
e9
23
29
28
04
05
06
12
03
ed
16
06
0e
f9
ea
ec
0c
e0
11
e3
f2
01
1c
1c
f2
c7
01
38
cb
07
59
20
1a
cf
12
bd
13
e3
d2
c9
4d
28
35
e9
35
0d
f7
f8
1e
f0
03
17
1f
25
db
26
ec
da
fa
26
ee
e2
f0
16
2f
12
34
cb
e2
ca
ea
e2
e5
e7
25
f1
f3
12
0f
02
de
b5
31
03
ee
23
fc
ed
c0
e5
4a
20
f1
f4
0c
0d
19
d8
fb
f5
9e
d2
07
08
e0
bb
f8
30
15
e2
fd
ff
bd
bb
de
f3
ec
39
01
05
d9
14
0c
dd
0f
01
23
04
60
55
13
d4
fd
f7
0a
ea
08
15
13
06
f2
0b
0b
fe
e4
00
2f
2a
d8
fe
eb
04
f6
1c
f2
bc
e0
0c
f1
27
a1
fb
0e
04
ff
05
04
1a
f9
18
d6
fc
64
14
29
bb
24
a2
d9
2c
19
02
c7
10
da
e2
f6
f9
1e
ec
1b
09
14
00
34
ef
bf
e3
08
0d
40
d2
e1
33
de
3d
33
1a
ee
f1
dc
15
f3
0e
08
ca
ff
e9
08
f3
f7
03
57
f8
00
29
e2
d2
08
ed
0b
0a
00
02
0e
ff
e6
15
e1
0f
fa
da
ff
f4
1c
d9
33
ed
e0
0c
08
df
31
c7
23
f1
2a
3b
dc
0f
ee
0f
f5
bf
3e
11
e6
3e
f3
0b
fa
e9
f7
27
fe
29
f9
2c
36
1f
14
15
26
f8
d4
fc
bd
df
dc
6e
e5
e7
df
e8
cc
fd
ad
38
f8
2e
16
e5
fe
f4
2c
12
35
ec
e6
06
03
fc
0e
ee
a2
18
fa
f4
34
05
13
c8
fa
c4
0f
14
f8
da
e7
02
fa
eb
12
3d
19
0a
e6
20
f9
c9
12
ea
dc
fa
fe
0c
22
2c
f5
31
2c
ec
1e
b8
e6
c3
17
09
08
d2
48
bd
f2
53
f3
36
07
f3
1d
50
24
00
ff
38
f8
fe
ee
df
2c
e1
dd
09
d6
0c
18
ec
f0
d7
fa
cf
f1
ab
d0
f5
01
f0
ce
54
0a
90
e1
24
e4
22
46
fe
19
e3
5b
13
fe
fc
0d
d0
0b
01
18
f2
f5
00
12
eb
e6
f1
23
08
11
07
eb
00
11
08
ca
f4
13
ff
f5
da
ff
ef
1c
d5
c9
19
eb
d6
e4
0e
28
e7
0e
ef
35
da
20
cd
1f
fb
17
f5
f6
fc
ea
0f
48
ee
2d
e5
12
0d
f3
d1
14
f0
0f
b7
f9
22
f2
00
0e
2c
cd
f9
f5
38
d0
f5
07
e3
08
f3
28
f0
f1
0e
16
d5
14
34
fe
1f
18
d0
fa
01
f1
e1
34
17
dd
b2
bc
d9
fa
ff
0d
ca
2a
06
f8
ff
50
f7
db
f9
e5
ff
fe
fd
e3
d8
f1
0f
eb
d3
cc
f9
2b
fa
0f
32
ef
57
ef
c3
e8
34
18
fd
f1
f6
04
3d
49
fe
09
ef
0c
f9
06
e6
31
e2
27
f4
09
d2
f5
f0
44
03
25
05
e1
1a
f0
43
04
d9
c7
11
ec
17
fd
1e
d4
1e
1e
d8
00
16
07
c2
f0
0e
08
08
da
e3
28
fc
fe
ee
4e
b1
e6
00
f8
df
f8
10
06
20
03
2a
da
07
12
e6
0a
bc
09
f8
1d
f4
c7
dd
cd
22
f6
44
f4
f7
11
07
f6
15
25
ce
00
f1
0d
f3
c2
d9
5e
f2
1b
02
e9
38
e5
cf
09
1d
2a
ea
f5
f7
e1
20
fb
6e
f2
d7
03
2d
1e
c5
03
31
e1
26
f5
f3
ee
d8
09
ef
e3
29
e4
0b
ee
0e
ec
12
f4
13
31
e0
5f
32
fd
2d
1d
0a
da
0b
f4
16
23
f4
c9
19
f1
f8
c9
13
05
11
22
f6
43
f8
f9
0a
06
f3
fe
27
13
cd
13
07
15
f3
f4
41
09
1a
1c
2e
04
ed
da
26
f2
f0
da
fc
d7
2c
d6
0f
ed
2c
33
d5
2a
0b
f9
bf
f8
04
d3
ef
05
19
0a
f4
f9
24
1a
f0
03
07
f9
d9
ed
e1
e2
44
20
fe
ff
fa
a5
0c
24
06
0e
0d
1b
e6
fc
3f
e4
f1
ed
e3
2d
36
f3
ed
dc
fe
dc
d8
0a
f1
e9
ca
da
f3
c9
3d
a2
29
24
08
fc
12
03
0a
1d
4d
f6
0d
f3
03
2a
08
3c
d6
c9
05
05
0a
ef
e9
35
bb
3d
eb
22
12
f5
1f
4b
e1
d6
e4
0f
f6
01
12
05
e6
ee
29
ff
21
12
3c
00
48
b9
25
0e
ec
bf
2a
af
09
e6
05
33
f1
12
da
20
ba
33
f5
f2
0a
2b
40
d0
c8
20
ec
d6
12
2e
0b
0f
3f
13
c3
26
16
01
e2
1c
db
39
25
0d
e7
0e
18
2d
e5
32
33
cc
fd
e6
05
d8
51
09
04
ea
b7
02
07
2e
07
0b
b5
20
ea
ff
e5
1a
f7
f0
08
ed
d1
e4
3e
08
ec
e4
4a
0b
1f
e9
20
dd
f6
d0
e8
2c
05
09
07
f8
ae
2d
fb
ee
22
e5
f8
fc
02
ce
ff
4b
f2
15
15
e0
0f
f5
ec
1d
da
38
e4
06
e4
ea
d5
3d
f6
13
fc
0e
45
fe
eb
25
1e
05
fb
14
d3
26
13
1c
ed
ed
33
12
d4
0e
00
d9
ed
de
fc
1f
bb
11
cc
fb
fc
ef
c5
1b
fd
10
26
e6
0b
dc
d5
4b
d7
09
f6
1a
21
f9
f3
36
dc
1b
18
11
e7
19
03
15
05
01
03
ed
53
0d
fe
25
b6
ce
0f
ea
f4
06
b4
32
f6
e5
5a
13
ee
06
f8
c1
2c
0d
18
2b
c7
37
e8
cb
f8
21
5d
08
08
4e
f4
eb
22
e4
08
15
01
1e
e6
eb
1b
54
06
16
32
ee
0b
2c
fe
12
1a
b9
c2
c3
15
19
f4
25
e0
cc
18
fd
24
ee
03
e7
ea
31
c4
ee
bb
f7
2a
ce
0c
da
04
df
3f
05
03
30
14
90
14
01
c9
eb
f6
e1
25
e7
08
c6
f1
db
ee
ea
17
00
f9
dc
40
25
eb
17
25
14
ed
3e
1b
f3
fc
f7
0c
0b
08
05
b5
21
ec
cc
e7
e7
d1
13
c4
de
ed
da
06
fc
00
12
19
ef
c7
f4
06
da
d0
24
fc
08
1f
e8
25
0f
11
f9
01
25
0a
01
fd
08
fc
d5
e2
f7
f9
07
ec
eb
db
0c
e3
cf
ef
2b
c8
28
d0
40
fe
f4
15
d9
01
0c
54
09
df
d1
3a
07
04
35
e8
b5
db
f8
0d
ee
4a
1c
34
12
fa
28
c1
09
26
d5
d8
32
06
02
e1
e4
ed
e7
fe
fa
cb
08
ae
e6
cc
1e
e7
0a
0d
0a
09
0e
da
10
ec
0b
f7
ee
1f
fb
25
eb
03
06
d5
00
09
e6
d6
17
e9
0c
02
19
08
eb
29
e7
c3
0f
d8
01
df
0a
02
b3
27
e7
03
da
b4
10
02
04
c0
10
15
d9
f7
14
1a
fd
f2
c6
fe
fe
0d
39
49
1b
e4
16
d5
dd
a9
ed
2f
05
e1
12
fc
3b
21
dd
ec
fa
33
10
d8
d0
c1
02
b7
1e
c5
d6
d9
47
14
cb
19
1f
46
22
27
d1
03
e9
e8
1a
f0
0f
1b
40
1c
02
03
0f
eb
de
2e
e3
23
47
c2
fd
f1
fc
e8
d4
34
e3
0c
1f
f9
09
00
d0
f0
f8
12
c1
e3
2a
09
24
1d
28
15
ff
1c
30
eb
19
ea
eb
12
e8
e9
ff
d0
c2
b2
b7
2b
f7
25
fe
1e
e2
1b
d5
d5
d2
22
0e
ff
0c
eb
eb
1a
07
bf
f3
fa
f2
23
e3
07
0a
0a
f0
e9
35
df
f1
d0
c8
17
27
e3
ee
c5
fe
c8
0a
ba
dc
01
da
d9
35
fd
fe
0a
fe
2a
d6
f0
e6
15
da
fa
d5
1b
e4
26
45
ea
0a
48
3a
27
09
14
1c
18
15
fd
0a
45
fc
be
2e
39
10
ee
1a
04
1e
11
2b
21
d2
17
49
0b
d3
17
de
e8
e6
04
26
f5
db
23
07
fe
c3
41
3b
b9
0a
41
05
1b
1a
02
01
20
3a
fc
4a
de
eb
e3
fc
e4
0e
e5
ff
dc
03
e5
18
d0
ce
d6
36
01
17
c8
f6
1b
0b
f5
c1
09
ec
1a
f7
dc
eb
d5
49
09
e2
1d
d1
17
0e
f9
db
3a
31
03
fb
f8
1d
cf
0e
03
cc
f6
f8
4a
06
0f
0e
11
d9
24
e6
15
23
d0
ff
ca
fd
ef
f7
e3
1b
e0
4d
19
0e
2e
d7
d9
ff
13
29
25
f1
f9
ee
2e
f9
1f
40
da
fd
52
c4
11
c8
bc
2d
18
53
1a
fc
e8
1e
11
ef
02
20
12
d6
3b
fd
ee
d5
36
11
0a
e5
11
f0
30
0a
f2
de
2f
f4
47
fb
2c
2a
28
06
f6
eb
3b
d4
f4
3a
fd
cd
fa
06
2a
34
ed
e7
31
02
fd
ec
1d
dd
07
15
eb
27
12
2d
16
07
e7
01
02
eb
19
e2
dc
16
ed
16
fb
f9
52
0e
ee
e3
5a
ea
6e
e4
2c
14
20
1e
10
11
02
06
2a
37
2e
c4
e6
3b
d9
06
da
0d
ff
19
fd
e8
08
dd
15
e0
ab
28
f2
41
51
0c
ee
00
20
01
f7
9a
26
be
f5
fc
fb
12
e4
1c
f6
11
27
04
e6
44
1e
fb
4f
07
cb
22
ee
07
e3
05
0b
04
0d
07
e3
f2
1b
07
f0
f0
ef
fd
19
3a
0c
06
da
f5
1e
0d
2a
f3
e6
13
db
2d
da
07
da
1d
e6
16
d7
0a
e2
20
da
00
dd
fd
c0
ee
c0
f0
2a
eb
0c
fd
3d
07
bf
32
13
0b
25
16
2a
02
f1
1e
d6
06
ea
0b
16
f4
e1
2b
34
e9
37
12
ce
dc
1a
c7
d9
28
1f
13
09
f3
fb
0c
0e
d8
f9
e9
a7
ef
05
cf
e9
1b
05
27
d6
1d
e8
42
d5
f2
32
05
13
1d
e2
f2
01
08
06
c9
fd
c2
11
c8
07
09
1e
0e
ea
14
b0
05
d4
fe
cc
08
01
fc
df
fe
1a
14
fb
16
d4
cf
d3
c7
0c
bf
cc
22
1f
00
0e
f1
0b
05
f6
0d
fb
f4
a0
d2
f6
0c
f3
fe
2f
03
b2
ea
32
e2
1d
0a
20
cf
ef
1b
20
02
5e
3f
e8
ca
04
47
62
3d
3e
26
e5
f6
02
4c
c8
35
18
30
1c
d6
fa
e9
02
23
03
fa
10
c4
20
f9
ef
0e
00
2d
ea
f0
f8
0a
29
f3
02
35
f2
f5
2f
2f
04
20
e3
f8
0f
e9
b8
b7
19
f7
09
c2
01
05
39
15
21
e4
18
04
05
19
2e
db
f2
fd
11
0b
f6
1f
d7
f1
2e
11
0e
c3
d6
24
02
ef
e6
0e
23
f5
1f
03
0b
2f
15
b0
16
2d
ba
f1
fd
13
fb
0a
bf
fb
e9
2a
fc
01
16
01
0b
cc
15
28
12
e2
13
1f
ea
ec
e6
e2
14
fc
14
34
10
f7
06
ce
1d
fc
10
dd
f4
15
fb
e7
11
24
0f
c0
26
09
23
e1
c0
2b
0c
bb
17
f8
6a
fe
28
01
1e
ec
cd
23
ce
f3
db
20
fa
fb
fb
ea
2e
10
fb
ef
43
b1
1d
da
93
cc
fb
2b
0a
03
27
f8
cd
37
d1
30
ed
e5
10
07
ff
e8
01
09
d2
23
4c
10
01
17
33
ec
00
1e
15
29
c7
0e
01
04
3f
16
18
ed
04
05
08
21
35
fa
00
05
11
24
51
e4
d1
ed
c4
c1
0d
13
10
23
1b
f9
d6
fe
d3
31
37
27
0a
ed
42
c7
04
21
28
f2
ea
2f
c2
e8
e2
16
eb
16
29
1a
08
cc
27
0d
33
f9
33
41
bd
c0
fc
03
f7
1d
34
fa
52
0f
99
11
f7
e0
e5
e4
28
f2
39
cd
eb
12
0b
f4
e4
2b
10
2f
17
ee
fd
db
f3
d2
29
54
41
29
3d
0c
fa
17
49
c7
fc
fb
c5
d8
ed
19
1b
41
ef
de
fa
b8
d6
19
22
2c
1d
fe
f2
19
ff
0e
f3
f6
0a
13
28
15
2e
17
e7
f3
bf
fe
24
f0
10
e3
37
e3
18
1a
07
08
f5
23
e8
05
48
e5
2c
d1
07
2c
e4
18
d0
4f
08
03
0b
14
38
15
dc
3b
e6
37
11
ef
0d
07
0c
c4
25
07
40
31
22
d3
2e
02
25
0c
dc
ea
fb
c9
04
18
ea
d6
e6
f1
1a
41
0d
f5
45
e9
0c
e1
5d
f0
85
29
f5
f6
f4
0c
09
cf
eb
e2
12
2c
24
00
03
0d
fc
07
e8
fc
f2
fa
ed
f9
12
e9
c9
b9
05
c1
35
11
e5
e3
3c
eb
df
bf
02
06
1d
e7
1b
f7
ea
e3
03
10
fc
0c
19
d4
d7
e7
c1
eb
e1
02
fc
19
db
1a
38
e5
02
35
0f
f8
ed
e8
f0
ed
d2
ea
01
04
fc
ce
d8
1d
fc
34
c0
ff
06
2d
1a
b7
1e
02
f3
ef
04
01
b8
98
1f
07
04
f2
22
f8
fa
cc
e3
fc
e6
f7
fa
2c
d6
20
10
00
e2
15
08
f4
1f
d4
19
ec
2c
17
4e
ff
22
04
fd
22
11
a5
e4
f1
d0
df
0c
25
e9
f8
0b
1b
2d
ff
f4
d8
f1
da
fc
1f
ed
f6
ce
38
05
0d
36
df
17
20
f4
0a
1f
fb
04
0e
24
e8
1b
17
ec
26
f5
30
01
e6
f7
15
17
e8
06
03
0e
da
f0
0a
5e
42
e9
2b
9d
ab
53
d2
12
20
0d
09
2e
f5
ec
d7
e8
21
02
05
09
11
d9
d8
fd
f1
20
fc
cb
df
e5
fc
fe
e2
f8
00
18
f0
07
0f
14
f1
ed
3e
ee
be
1a
28
0f
3c
ed
f5
ee
17
f0
e5
1b
22
f2
d2
01
00
45
00
03
46
f6
fc
ea
dc
01
fa
c7
0f
eb
fd
f6
ef
1b
ca
31
0b
e7
e1
16
2a
26
1d
14
fc
00
2e
f9
10
00
e4
ec
07
0b
f5
0d
10
07
21
43
08
f7
0e
e4
cd
23
1f
22
45
40
da
ec
01
e5
2f
ff
3f
09
da
e2
16
cb
e5
f2
13
fa
24
d2
fd
5d
e2
28
24
c9
ec
03
16
e2
1a
03
f6
e7
06
21
04
0b
34
d6
3a
f2
8f
ed
df
dd
c4
c5
f9
4e
2f
fd
10
f6
13
ea
ee
be
09
4a
ea
e4
f9
f2
1e
b8
d6
d0
13
31
07
ed
e7
cd
f0
09
e6
0c
e1
09
de
d4
0f
d2
d6
eb
03
e5
cf
e8
0a
36
dd
33
2a
fb
fe
11
cb
1a
f1
c8
25
18
fc
e5
20
03
f7
01
f2
51
18
db
ec
d7
d5
ea
00
0e
0b
04
0b
29
3a
2d
d9
42
ec
0d
03
f9
18
15
04
1c
fb
50
21
0d
2e
27
c6
1e
0b
35
20
1e
06
0d
cf
e7
c7
cd
f6
d5
ff
11
fa
1c
ed
3f
14
d1
0d
f8
31
13
24
d0
c7
fe
03
f4
16
32
e5
da
20
23
01
48
31
13
f4
cc
11
f4
39
28
fc
16
de
fc
42
30
e0
e1
df
07
1a
11
0c
04
2d
17
06
eb
df
f7
f6
3d
e9
e6
12
40
f6
33
46
04
07
3e
17
2c
d8
c8
0d
33
bb
e7
19
14
2c
fb
15
cb
e0
f4
24
02
fd
22
e8
00
f3
09
41
ef
e8
0d
e7
09
b8
f7
f7
1c
f3
11
1a
f6
0b
12
f7
1f
02
15
07
01
04
c0
d5
08
f9
f6
18
f1
e5
20
27
e1
29
29
03
ec
03
11
4e
31
c0
d6
e1
f3
f6
34
03
cf
fe
d0
d3
15
f7
e2
da
13
07
0c
f1
ea
0f
ea
3a
02
e1
f3
e1
da
ed
2a
de
46
d3
fb
dc
0e
35
cc
dd
3e
10
3c
22
30
07
03
29
e8
41
04
2d
fa
ed
cd
ef
13
02
f4
cf
01
c6
24
e1
d5
df
1d
1c
08
d7
ff
c3
37
09
22
ed
38
01
cd
ef
fb
db
23
f4
0e
0b
00
32
33
f7
00
e3
14
13
e7
d7
ec
1c
05
ea
31
b2
fb
d9
fe
36
0f
df
ea
14
ea
2b
fc
d4
21
af
dd
c6
fa
25
35
34
39
ef
e5
25
27
fc
11
f1
30
4f
09
10
fd
db
08
0f
e3
01
de
f6
fa
f2
36
fc
0f
1a
a3
0c
f3
2b
08
fe
ee
29
fb
1e
db
c3
14
07
00
38
1c
12
f6
0c
dc
12
03
31
f9
13
f7
ea
01
f6
4b
fb
e2
f4
11
15
dc
df
19
21
fc
e4
c4
2b
c7
e2
10
04
26
01
26
05
47
df
23
e9
1c
e4
1e
f6
07
ef
02
fd
26
f9
10
08
37
fe
2b
21
15
fa
ed
34
f7
ff
d8
01
02
1c
9d
ff
0f
09
17
03
fb
f4
1a
bb
db
d5
0d
2b
fb
bf
06
b3
00
01
06
09
35
ec
26
c0
00
21
cd
fb
02
13
0a
0f
2a
44
fd
00
1a
d0
e2
e3
fc
cc
de
dc
fe
0e
ff
d9
0f
ce
ed
fa
30
f2
1a
d3
c7
12
13
f7
c8
25
cf
1e
17
09
0f
fa
e7
d6
e8
f8
0a
f1
4a
2a
db
e3
12
e2
03
fd
fe
be
fc
35
fe
f9
19
0b
05
02
f4
fd
bd
e8
02
09
12
08
00
d8
e0
ec
0e