39
29
32
fe
d9
fe
3f
11
17
49
d0
dc
f6
20
09
f6
bd
cd
07
e3
25
f2
18
1d
38
4b
e4
09
15
12
07
0f
00
36
e5
fd
de
f7
02
41
e0
25
e4
c9
f9
23
f2
18
de
ea
0f
d0
d4
1d
e4
d5
f1
d5
da
ff
ee
5f
0f
ee
46
0f
03
0b
06
e0
08
fa
0f
ce
26
ef
eb
08
fe
fa
05
00
1b
fb
da
07
0c
fb
f2
f4
09
f1
f6
e9
1d
5f
ea
17
2d
f9
22
a9
e3
b1
f7
05
3b
f5
d0
01
cb
1a
01
e5
e6
02
0f
26
f5
05
32
19
20
de
2e
01
ca
f5
cf
e2
d5
d5
23
d8
ef
c8
2c
c4
ff
04
0d
00
e1
ca
31
2d
fd
37
e4
eb
1b
eb
f1
fc
09
c0
f6
05
01
2d
0a
d3
24
c1
15
04
4b
06
2d
fe
2b
2f
f8
c2
06
e7
1d
2a
ea
30
f6
e4
fc
b3
d6
b9
ef
15
e9
0c
24
f1
14
eb
cd
2d
c5
07
fe
d5
dc
f8
7e
ea
de
43
0b
f3
f0
fb
11
00
16
0d
06
f4
f3
10
df
f5
d1
ec
df
dc
e9
e2
cd
4c
14
f1
f1
c6
db
08
1b
ed
fe
ab
c3
1d
00
f2
54
3f
0c
f3
c8
3c
23
57
12
fb
28
ea
0f
e6
f1
29
f7
cd
fd
00
d7
03
2e
01
bf
2b
e2
df
dd
03
11
ef
20
37
f5
e0
ff
ca
e2
4c
e6
f0
f7
1b
f1
d5
e6
0b
04
09
f8
e0
f8
03
fb
04
48
e4
05
02
b3
ce
39
b7
06
0a
4a
23
1d
e8
0c
00
30
e9
00
41
ca
ff
0a
30
29
c0
35
de
f8
17
f9
19
00
23
2a
0b
da
38
0a
b7
fc
19
05
4d
09
db
d0
fd
15
53
23
1f
f3
d1
f4
1b
c7
0b
d8
d0
19
1c
ed
ca
17
e1
ed
c1
1c
09
f7
ec
f5
1f
12
e9
cc
fc
f6
e7
05
c3
02
05
25
f8
d8
f7
d5
e1
eb
f7
f6
0e
09
22
eb
15
17
fb
0d
f8
d5
0b
0d
c8
29
d0
e7
c7
14
2d
33
72
07
32
ec
fc
e2
2c
0a
cc
11
d5
32
fd
0b
15
ec
25
0d
e7
f9
d9
df
dd
0a
2f
25
fd
2c
f3
11
d0
df
48
00
d2
32
ce
13
f5
ea
fc
ed
08
fe
ff
12
fe
2b
0a
0b
b6
1b
07
28
b9
fc
fd
b7
fc
02
55
d7
b9
de
e4
d7
09
f4
f8
e9
03
f7
cb
06
da
f7
15
f7
0e
fe
05
fd
f6
32
fe
1c
19
db
ee
ed
19
08
dd
f8
aa
f0
1e
17
03
e8
dc
18
3a
0c
27
57
c8
4e
f2
d8
d2
f3
13
11
18
4e
f3
4c
f4
fc
ec
09
39
e2
1f
fe
1b
16
0c
c3
b6
29
28
14
eb
08
ef
fd
0a
db
07
e9
c7
f0
fa
15
f7
31
1c
2a
4c
14
fb
e2
ea
3a
e2
f8
e3
26
2b
20
f8
63
fe
11
bb
ee
00
de
15
ce
34
0c
e2
09
4f
f0
d9
e7
bd
01
23
fd
16
32
09
f3
0c
22
11
1c
02
1c
49
33
b2
f4
4f
06
cd
fd
d3
dd
ef
03
31
f7
14
d1
f0
e1
08
f4
08
e3
19
c1
04
ee
dc
1b
39
33
38
d3
34
0a
04
51
15
da
dd
e4
f4
fb
f8
00
0b
0a
17
04
42
fc
f5
3c
0f
fc
01
f1
20
ec
d4
fa
1a
c2
13
19
e1
f1
06
11
f1
dd
ef
e7
d1
12
20
d3
0c
fc
23
01
d6
31
e3
03
e3
0a
15
f0
1a
38
fd
05
0e
00
f5
10
03
5a
11
fa
41
f7
0a
1c
f4
ef
f1
f0
e6
19
f8
04
d6
ec
0d
ec
ff
22
ec
d7
10
01
e4
17
e4
00
10
e1
f2
cd
fb
ce
1a
e4
01
28
f1
f7
0a
3c
ed
0a
ff
03
de
c2
a3
33
08
fe
0d
08
05
f6
27
f6
e9
04
bb
31
ef
e4
f7
e7
14
0d
12
d5
d4
e6
d9
ec
48
d1
d1
2d
d3
0d
1f
e3
00
f8
03
08
f5
0d
34
25
1f
ec
54
d8
2b
25
ee
db
e1
3d
07
fe
23
14
ca
05
c7
f3
fb
0f
14
3b
09
08
e5
06
04
f7
10
ff
1f
28
4e
00
16
32
1b
04
f1
19
15
29
ee
ee
f4
ec
16
f7
ed
36
20
12
03
cd
0c
0b
09
c9
0a
fb
27
15
09
e1
f5
c5
16
13
08
e3
2d
3a
f1
fe
03
31
38
37
03
f1
c4
1c
b5
be
0b
fd
fa
f7
16
d0
2b
f5
e7
eb
04
04
f5
26
49
ed
32
d4
03
a2
df
16
f1
f5
03
08
08
01
e5
02
c5
ae
f0
e1
af
ed
16
f6
49
cd
10
b2
23
0c
05
40
fb
e1
00
fb
f3
e3
0e
b5
db
0c
19
04
03
08
18
cd
17
f6
10
f4
e8
03
27
bf
0d
25
e4
e6
ff
08
54
ef
f3
ec
db
0e
d4
fa
fd
07
de
11
06
cd
fc
fd
29
09
15
ec
dc
23
d1
de
04
23
cf
fb
0b
ff
00
12
c9
0a
0f
05
0e
13
f9
11
d5
14
38
34
f9
eb
f4
28
f6
11
22
e0
1c
37
1f
00
f6
2c
08
00
fc
19
04
f5
13
16
18
f6
fb
11
26
fa
d2
20
1a
37
01
1d
0e
2a
07
ab
06
e8
1f
19
30
e2
0e
2f
fb
fb
1e
f6
e5
14
15
fe
0c
07
00
eb
a5
40
12
f9
e3
12
17
14
ff
e4
07
23
0a
f3
2c
d6
f5
cc
34
0e
21
e0
0a
35
b8
f2
a9
f3
e0
3d
12
0d
05
ed
16
f0
11
ea
25
30
01
08
1e
57
14
e4
da
fd
e6
49
20
eb
f4
03
03
f1
eb
03
ce
db
ed
fd
f3
09
13
ea
e9
eb
27
f3
ee
2b
2c
e2
38
03
0e
fe
fe
f9
cc
67
e2
27
d2
21
f2
09
3a
fa
0b
26
08
c6
ef
25
01
de
0d
2d
38
0a
e2
1c
02
36
d9
d3
1f
f0
f8
2f
d0
54
1b
bb
1d
f6
f0
02
d2
11
dd
e0
ce
30
1c
eb
00
f0
01
f8
f6
e2
f2
12
01
ec
e0
1b
d4
f7
14
33
2d
09
e4
0a
30
f5
ed
fb
e7
20
10
40
d1
f9
ec
0b
fb
10
07
11
e5
f4
02
de
08
17
f7
06
e8
0d
bf
29
20
07
08
45
f6
f5
4a
c1
05
28
f3
f0
de
26
fa
bf
1d
15
ef
02
16
f8
fd
de
21
03
2b
ef
2d
f5
ba
e9
10
2f
34
fe
20
ed
0f
0b
05
14
ed
f5
e7
1b
ea
eb
10
d5
a9
0e
12
cb
fd
08
e3
d5
39
31
1c
22
3d
df
eb
03
de
ea
04
d4
eb
d9
4b
de
e6
05
0a
08
15
da
0c
11
cf
20
2f
0a
09
36
1c
ed
f2
26
e0
f6
10
02
d2
bf
02
c3
f2
ed
04
f2
2a
0d
21
f6
32
25
de
dd
fe
f4
bb
10
44
01
e5
e7
02
df
46
14
ee
11
c9
c8
2a
2c
42
08
ec
f9
f6
22
bc
df
0d
d8
12
1b
f2
da
ed
0a
fb
c0
fa
e2
ba
31
14
f3
df
0b
1b
21
13
14
2d
cf
10
ec
13
31
fc
f9
1d
08
19
0d
e7
05
22
d2
f4
4e
f8
f9
14
02
25
c1
f2
29
e8
ee
cc
f6
01
2a
0b
f8
23
20
07
e2
ea
18
f6
e9
0a
30
eb
11
2d
32
03
46
c5
03
ee
df
d3
ff
0c
26
bd
33
fd
21
0a
cc
24
be
ee
de
dc
0b
b1
05
d9
0a
44
d8
f4
c0
23
14
cd
f4
1d
b7
f3
29
fe
f2
4e
eb
0b
0a
c9
1b
2d
e1
30
0f
f0
cd
1f
d5
12
f0
00
f3
11
1a
e2
22
96
f3
fc
33
0a
e3
fc
da
e2
c9
06
d0
1f
e3
16
e2
b9
1b
e3
c8
c2
e8
0a
f1
1f
0f
de
42
09
f0
e8
00
e6
cb
f4
2b
f6
c0
37
1c
fb
eb
17
01
30
18
c6
f9
c4
ad
ff
04
20
ec
16
f5
21
fa
e3
43
03
f0
f2
e0
06
4e
0d
b5
d5
21
41
18
03
df
d5
19
ca
9e
10
d3
ec
02
ee
0d
ff
08
e8
de
08
e0
0b
cc
e6
3a
da
04
52
03
e4
28
e9
f2
1e
24
00
15
00
1f
9e
0a
fb
c5
db
00
e1
29
e5
e3
d2
34
00
01
eb
cb
15
fb
fb
0f
dd
11
f2
fc
41
df
f1
ef
fa
d0
40
09
ce
ff
f9
1d
0c
2b
0d
f8
cb
2b
d6
eb
07
ed
02
33
35
51
27
da
ee
f3
01
db
e3
13
eb
e2
d9
eb
df
f8
dc
fb
ef
0a
16
ed
ed
19
aa
e1
1f
20
0b
14
55
18
f9
39
4b
d7
07
0e
35
05
18
46
4d
0f
0d
10
03
fa
e3
df
2d
04
06
ea
c0
23
ff
bd
1d
08
cb
0c
05
dc
eb
0a
3d
f3
19
14
e3
d7
14
14
0b
01
14
f8
12
f6
1d
25
50
f5
62
06
e8
28
ef
e4
e6
f9
f5
9e
db
ff
d1
2c
0c
0a
24
ea
10
0b
dc
14
e7
ea
2e
24
4f
fc
b9
f9
2c
08
1d
d0
37
ef
23
23
0d
14
f5
df
1d
0c
11
23
e6
d9
fa
d8
2b
29
3d
df
1c
f3
26
b8
02
d8
41
40
16
d4
ef
25
e1
09
e7
fd
fb
cd
e5
da
e6
f1
36
d8
2e
f1
bb
81
d7
cc
e1
13
eb
eb
ed
e4
11
21
e8
05
22
03
f1
e7
19
08
dd
0a
00
1f
0f
ec
19
01
34
fc
1a
fa
10
f5
46
ea
b9
15
bf
e4
24
e0
11
01
3a
c1
e4
d1
1a
fa
f7
0b
ec
06
06
11
e9
2b
2b
e6
26
f2
25
f0
ce
34
d9
0b
0d
34
1b
0d
01
d8
1b
1c
19
e9
ef
0c
dc
0b
0e
cd
cd
eb
e0
e9
f3
1b
eb
cf
c8
45
12
1e
f3
e0
09
c1
f1
dc
fb
22
db
f4
ac
e2
01
01
3a
03
ee
c8
fb
f6
e6
1f
1b
e2
15
3f
f6
f1
11
d9
ca
ed
25
05
e4
fb
29
f4
f6
16
09
30
11
13
10
fe
e6
28
dc
34
12
07
2f
d5
ec
e1
ee
f4
0a
0a
f2
f0
17
c0
e5
db
fe
fa
b9
ec
29
04
d8
f5
5e
fb
0c
0b
fd
12
02
24
f8
f2
0e
db
fe
c8
d0
e5
ef
2f
40
42
fa
fe
24
fc
dd
ed
e6
20
25
1a
0d
06
f3
e3
25
07
20
0b
14
23
01
f4
fc
c4
fe
d5
f4
01
d1
1c
f3
f6
f6
37
f1
30
2e