2b
52
0e
1c
e7
f4
e3
d9
45
be
d2
f6
55
d8
37
05
f5
e1
09
10
f0
d3
26
38
e8
f0
06
07
01
16
01
fd
03
04
18
db
fa
d0
f1
d0
33
fd
f0
d8
f7
28
01
03
ad
e6
c5
f9
cc
f0
03
2b
f5
db
eb
3c
39
da
df
30
09
12
ed
de
07
0d
e9
09
db
ea
16
f6
e8
b9
a4
09
d6
18
15
d7
09
c8
0f
fb
4c
22
fd
03
01
ce
b1
2b
08
f9
26
19
06
1b
03
c4
cc
2e
f6
ed
19
14
ef
0d
15
25
2c
c8
f7
fd
e8
f2
1d
11
cc
fc
00
fb
f7
18
e9
c5
1f
02
f3
30
18
2e
e0
fa
e5
da
14
16
c6
57
31
43
e8
fb
f7
24
4c
c4
23
33
d2
d0
cf
e9
1c
fb
11
11
e7
32
15
08
02
09
cb
f4
d9
e0
f6
34
0f
df
02
1b
dc
19
fa
02
3f
30
3d
0e
f4
e9
f3
21
f4
1b
0c
3c
02
2a
35
de
0d
fd
df
04
fa
17
27
2d
f9
f3
23
11
0c
e5
79
4e
f8
3d
d8
f5
b6
fc
05
c2
ec
32
c4
0a
1b
11
2c
4c
17
da
cc
e6
df
0e
03
eb
14
16
11
0f
dd
b7
ef
f6
25
f5
13
cc
ef
d7
e4
ce
f4
12
df
23
1c
fc
ac
f6
da
54
fa
f7
da
f0
d2
0b
0d
12
04
05
ff
3a
4c
0a
ea
16
1f
fb
d0
c2
f0
60
ed
26
09
c8
fb
50
0b
05
0e
b1
0c
24
f3
fc
ee
d3
36
b7
ee
fa
f9
26
e4
05
33
f0
03
10
fc
14
27
fd
ff
e2
f3
ee
fa
1b
de
e9
f1
06
49
09
e3
1d
03
d9
a1
0a
15
d4
18
b1
e1
26
dc
1c
e9
c7
f9
4e
fa
1a
e3
e6
ec
21
f1
ca
47
bf
31
d7
cc
2c
20
23
de
11
4b
c1
22
f1
3e
0b
16
1b
0c
32
05
df
15
dd
d7
dd
06
f3
39
e8
25
06
dc
15
e5
0e
1e
d9
ee
32
ef
1b
08
2d
01
ff
f1
ec
e0
19
df
e8
03
fe
d3
2f
1e
f1
ea
fb
0e
cf
09
df
0d
2d
17
2f
d2
b1
20
e4
22
e5
20
ce
c7
07
c1
1e
f5
0b
25
43
15
02
d2
b2
4a
04
15
ef
0f
16
d4
e8
ea
f8
1c
d4
fd
2d
04
1b
11
00
d4
d3
ce
fc
0a
23
13
da
14
e5
3f
f2
1e
0b
e1
0c
12
e7
f1
ff
dc
ed
fa
f1
ec
1d
cd
ce
fe
36
f5
d0
fb
01
d9
09
38
f5
e1
ff
14
13
f7
2f
03
ae
f4
3e
c1
f2
f0
2d
05
c3
07
26
db
0c
21
4c
05
e4
b0
20
d4
1d
00
d9
21
e4
2a
e2
e3
11
fb
25
14
08
dc
0b
2f
e8
f9
f9
c2
14
01
e9
fc
15
fa
c1
11
02
ed
1c
e4
0f
34
01
2b
19
0c
10
0d
37
07
d8
fa
e2
f1
15
b8
ee
ce
d4
ed
12
41
1f
d9
25
00
04
0b
c4
f9
e8
e4
09
f7
30
08
17
2e
ca
0a
1a
eb
fb
17
01
1c
fc
fe
1c
ca
07
07
fd
ed
d6
d3
e5
f4
ed
15
43
10
ef
e7
00
26
18
28
f6
fc
fb
b2
15
0e
24
ff
cd
08
00
06
4a
f8
04
e4
04
ce
cb
01
f3
03
40
f3
ee
0d
ea
2e
3b
00
da
0e
f8
f4
3d
1d
b8
f0
f7
d8
e8
ea
e8
4e
18
46
2d
bf
f3
3f
1c
ef
d9
02
03
5c
d9
0c
20
07
1e
38
e7
2b
cc
0a
1c
f0
fa
eb
15
20
f0
d1
2e
1f
26
3e
0a
16
43
da
13
bf
c0
ee
dc
20
ea
ef
4a
ec
ca
08
e8
ed
e2
f1
14
01
24
19
06
04
f1
f7
ee
f9
d9
ff
f0
f0
34
14
0c
d1
39
05
c7
33
01
12
e1
ff
c9
17
dc
1a
05
06
f3
11
f5
f0
c9
0d
f1
99
0c
07
fc
a7
af
1a
17
ce
f3
fa
1c
e9
f1
08
d2
e0
25
04
bc
01
e5
f0
c1
ba
22
b7
19
1b
1b
00
f9
04
0d
fd
e5
eb
eb
20
09
f8
b1
0b
ff
3c
3c
e7
c6
e6
ff
fe
e5
f7
ee
c0
e9
1c
fa
d5
c1
07
f8
fb
ed
01
0f
0f
19
03
23
31
f9
df
e7
05
ea
ec
24
4b
f9
1c
15
d2
e2
fb
f7
be
38
35
28
11
ec
cf
f9
0d
d6
e3
f5
c9
ea
f7
b0
c7
0b
f7
0c
23
04
dc
e8
03
ea
40
b6
e2
a9
0e
b9
e9
0a
42
f4
d4
da
b6
ee
b9
0a
3b
f8
e9
ee
ec
d4
23
08
fa
f0
f6
06
34
f9
22
12
1b
07
23
1c
ea
13
2e
00
20
9e
a8
49
ef
05
39
0c
e3
f1
eb
bc
2f
2f
e0
d7
14
26
3b
da
00
f3
19
d2
01
f7
de
ad
fe
de
12
01
cb
29
23
bc
16
f2
ea
f0
46
e7
24
49
06
40
ca
1a
0f
e7
1e
1a
0b
35
4d
19
0b
24
16
f2
24
3d
1b
e6
d5
f6
1d
29
4c
0a
0b
fc
ae
f5
02
fd
e2
da
4e
15
d5
1a
f1
d6
e5
08
48
fd
31
31
c3
0f
16
09
f2
34
08
2f
ee
b4
13
d2
0f
ff
15
36
e0
e3
c1
fc
bb
ed
ed
fc
23
1c
27
30
36
d3
11
01
ee
f9
d5
3e
a4
19
25
13
26
f6
fd
34
07
ee
04
b6
08
08
c6
1e
f3
15
c6
f6
32
bf
bf
f8
2f
ea
00
10
dc
d6
06
ff
0c
3c
dd
be
db
1d
18
f4
15
73
f7
e7
f3
e4
04
fc
08
34
06
1c
da
40
e0
11
fd
3f
0c
05
a9
ff
18
07
cf
e0
b2
27
da
38
f7
0c
fb
f9
eb
e1
de
f3
1a
ea
2e
d7
b8
00
1c
d0
da
cf
cd
e1
d5
04
d6
16
d5
b9
f0
0d
e6
0f
17
30
1f
2a
50
49
e3
f4
fa
37
10
cb
52
dd
16
15
28
de
d7
f4
f7
d7
15
1a
dd
5e
3d
fc
e8
0a
20
19
ed
17
f8
dc
07
12
f9
e8
bc
b6
3b
20
d5
fa
f5
d3
ea
ee
ee
f5
fb
f1
0e
eb
ed
ea
d9
28
f3
06
12
d2
fb
fc
27
11
cd
02
3b
dd
22
20
fd
26
83
f5
0a
bf
ff
d6
cc
f4
24
e4
e6
db
27
c7
f7
41
b1
f8
f1
29
ed
e3
c7
17
da
e7
05
f9
ff
23
e0
e8
f1
ea
f4
1b
f1
06
cc
d8
02
27
e4
1f
00
23
d5
f4
be
42
d5
e7
02
03
28
fe
bb
26
1c
0e
fa
40
07
e1
43
e9
f4
08
d2
c9
11
fb
18
12
03
0f
9e
ca
ea
e3
0a
1c
0c
f3
db
d0
47
04
ea
c4
eb
eb
f0
13
1c
f1
1d
56
5b
f8
c7
f5
14
0f
f0
01
f9
2a
07
26
20
2e
0c
08
fd
d8
f4
c4
09
25
ee
37
ab
1e
25
fa
35
05
43
a9
e5
31
0f
2e
f6
02
cd
e5
2b
25
07
e2
f0
43
34
05
1d
bc
0a
43
28
b9
db
bb
0b
ed
19
0d
eb
35
3b
2c
3c
1b
10
31
15
f7
11
c8
32
3a
ef
c7
0d
14
d8
12
f0
1c
e7
0a
01
32
25
29
24
f2
29
ca
f0
0c
f8
22
e8
af
f5
31
c1
e2
ce
09
e1
ff
de
36
37
03
0c
c6
bb
0b
1a
c9
f1
28
13
f1
1b
f1
9a
f4
ef
0f
f7
d5
f2
11
e1
08
fb
f7
47
18
1f
19
23
fc
e6
dd
e2
17
b5
01
0a
0e
ad
15
cf
f1
2e
bf
e1
1f
ee
14
d5
d1
4b
08
2b
1e
dd
1a
12
16
2d
46
33
f9
d8
d9
ce
fd
0f
0c
db
f6
ff
ff
e4
fb
0a
cf
f5
e9
f6
ec
0a
d7
13
20
3b
f6
0f
d7
00
49
16
fc
09
ea
e5
cd
ca
02
e9
fc
0b
fc
13
ea
dd
02
00
0b
f5
31
3c
16
20
f6
08
d7
04
1f
0b
01
cf
20
04
1e
b6
c2
f0
10
ed
d8
32
e7
35
1e
18
03
eb
1f
bf
0f
0e
52
09
ed
07
06
db
1e
f1
cd
15
20
0b
12
3f
e6
11
e1
22
16
f4
48
f3
db
ea
25
d0
12
0d
ee
eb
ce
fb
0e
08
03
c1
11
f9
e1
ed
ff
15
c8
a0
00
04
02
d7
0d
e8
ea
1e
e8
2b
fe
f5
2a
0a
07
06
17
ff
15
fa
dc
de
12
23
1d
d4
dc
2a
52
f3
cb
28
f8
27
c1
4d
40
e4
1f
df
09
1b
29
de
d8
42
10
14
fd
ed
f9
fb
fe
08
e3
e4
11
2a
31
2f
be
0e
22
0a
0d
f1
06
28
17
e6
f5
cf
00
d0
15
ea
ff
c2
19
08
1d
0d
0f
28
d8
8f
fe
09
21
0f
d1
f5
15
ef
18
2c
1f
1c
23
18
fd
e5
e9
05
ff
9d
09
31
fc
0f
b9
df
b9
31
ef
13
0e
16
c4
51
fe
07
bb
42
13
19
01
0b
ca
fe
c5
f0
d0
2c
3d
41
e0
e4
00
34
16
2a
ea
c1
0a
30
08
4b
d4
f5
eb
2e
fc
d2
ee
3e
f1
31
fe
e6
1b
43
c6
e9
fb
df
0f
0b
b0
ee
f7
ee
1f
ed
e1
f3
cb
35
24
53
e9
c0
21
23
fa
2d
cc
17
2c
2f
00
fe
54
e8
fa
de
28
0c
0a
ed
21
19
e8
fc
04
07
bd
28
09
e4
26
52
24
0c
f5
2a
25
c8
ec
bc
1b
11
f1
12
f3
13
14
dc
fe
63
28
03
07
f3
f2
05
e3
df
d2
f7
49
14
23
e2
04
ef
3c
df
22
0e
22
0b
f9
05
fa
eb
d2
d2
08
f7
1d
0a
fc
24
a5
fd
2a
30
05
d2
1d
e0
ff
ec
0e
15
eb
38
2b
c3
c6
31
e0
05
ec
f6
f4
10
ed
c3
2d
38
f6
42
ff
28
c2
df
f0
e2
c6
0b
12
1a
fd
0e
f4
b2
f4
2c
fa
07
d3
c0
2c
1b
28
dc
cc
07
1b
10
e5
ed
17
36
ec
2d
c0
e1
df
27
3b
e9
23
0d
f7
16
03
16
e9
c3
ff
f5
e8
0e
1a
e5
14
29
03
cd
eb
54
e7
e6
fb
41
54
4c
f0
27
f7
08
e7
f3
f0
bb
07
fd
da
24
d8
ad
20
e0
ea
1b
e8
11
05
01
f6
e1
16
16
ef
b5
e2
27
b4
f9
04
fe
13
bc
30
06
c6
c2
e3
b5
e0
0c
08
4c
16
24
f2
fc
11
ca
21
ec
f1
2e
f9
fe
32
ee
c8
07
e4
24
11
f2
d5
1e
16
c9
0a
1f
e3
f0
05
ed
13
e5
27
0b
f7
de
98
d8
e2
1e
fe
03
57
e8
16
e4
29
07
d5
0d
0b
c6
33
2e
61
fa
d3
9e
06
ef
d6
b1
30
23
2d
16
07
1d
22
e6
16
e3
dd
c0
17
e8
11
27
2e
36
e3
f6
ed
18
f8
37
fc
11
fc
03
14
04
0c
e3
07
06
dd
fb
05
fa
f5
4e
f8
e7
15
f2
ba
a5
4c
11
ea
1b
f2
f8
0c
e9
09
b2
2a
2f
fc
10
23
8e
19
0c
13
c2
fd
e7
f8
e1
0c
08
11
03
13
0a
39
f7
0e
15
10
19
f1
08
0b
f4
15
07
da
d8
f8
15
12
fa
f8
cc
49
02
03
0b
f8
1e
18
0c
29
e9
0f
f0
f0
43
13
d7
e8
2f
dc
e0
ef
c2
0a
df
de
26
d9
12
da
ea
f8
11
fd
19
af
34
f7
dc
05
cd
d3
0e
f7
1e
fb
1e
f3
33
f7
1e
e5
03
2b
d9
f6
e7
b1
dc
b8
c4
f2
1a
40
23
bb
c2
2b
39
f2
d7
ab
ed
e3
38
de
de
e0
fb
e8
32
0b
06
08
47
f6
01
fa
08
14
bd
d8
ff
f6
ea
e8
ec
ed
d9
e7
11
25
d8
e1
02
ed
f3
ee
f8
33
df
e0
fb
0d
17
da
c2
1c
1c
1e
2e
0b
f2
f1
00
16
e7
20
f4
f7
f1
e7
fa
d1
da
ed
02
34
26
d7
0e
fb
07
ee
f5
1d
fc
de
f7
ba
fd
e3
27
fa
e8
08
01
1b
c5
ea
0e
f5
36
e9
49
d5
01
bd
bb
1d
e8
25
00
01
23
ca
e6
0d
e4
f3
ea
16
dd
1a
bc
19
ff
fb
1d
05
16
aa
b4
e8
d7
08
10
0f
38
f9
04
15
06
ff
17
b4
0a
b8
fc
f1
ec
1a
f6
29
b0
56
c0
f0
0b
42
e7
d9
05
e1
f5
5b
c4
e8
ef
fc
c6
e8
2a
dc
1f
23
f9
23
fb
00
e7
ec
16
e2
d3
e7
9d
01
fe
f2
26
f0
11
cd
1c
0a
06
1c
e0
de
30
b6
ce
05
ff
c8
e8
f1
f1
37
16
cd
d8
e8
03
ed
c3
dd
01
14
24
f1
73
ec
0e
0e
23
12
2f
da
cc
05
22
f8
01
02
3b
0d
61
d1
ea
29
fd
ff
cb
07
2b
fd
14
f1
07
fd
4c
1f
4c
e9
03
db
b5
30
68
05
3b
4e
d9
05
49
dd
0b
ed
da
0d
4a
01
f0
cc
fd
23
c7
ec
1d
1f
57
b1
f3
c3
f6
a2
19
c4
c8
cf
ec
fd
54
f8
0f
31
23
c3
f0
e3
2c
c2
15
e0
3b
da
f5
56
d8
f8
18
30
33
de
17
d8
e3
f3
49
e0
0d
bf
d3
00
ec
1b
0a
fd
f1
14
04
45
d4
e1
c8
1b
e3
2e
28
31
0f
f9
e7
0c
13
31
fd
e4
0e
02
fd
eb
26
d2
1a
22
e7
05
47
01
f3
0f
e8
3b
1b
f6
e2
f0
ff
e4
fe
1c
b0
ef
2e
29
ec
17
e2
d2
15
f6
ee
65
f2
ee
13
0d
fc
d0
1c
00
d3
fe
fe
cb
14
d6
02
df
07
20
0f
12
e7
12
f5
42
17
22
3a
dd
fc
f8
14
f1
16
f4
12
0a
aa
ea
ed
29
d6
05
0b
35
d4
28
e2
03
0c
21
f7
fc
e0
eb
f0
e4
f2
f6
22
2f
f5
ce
40
01
10
14
01
ee
1c
1f
09
09
c7
ec
20
da
06
f6
e9
2b
21
fd
f8
0b
03
e9
27
1f
e5
e2
42
15
17
26
1c
d6
0f
d6
ee
da
f4
0b
1d
ea
45
ef
2a
25
bd
17
c8
3e
0d
5d
c8
d9
b4
28
0b
50
24
04
03
07
1d
c4
05
23
de
e5
1d
08
21
02
dd
19
ff
42
58
fc
30
03
ea
09
eb
ed
f0
2e
f9
ec
fc
17
0d
a8
fc
e8
c0
d7
f4
15
13
fa
eb
e6
1a
e5
26
fe
ff
dc
fc
2e
2a
c1
cc
e5
1f
d8
17
f6
f6
29
1a
28
fc
f4
16
1b
ce
cb
14
b3
e2
f4
e9
e0
18
37
0f
2e
ef
e2
1f
f4
0c
cf
f5
0e
ea
f7
fc
07
0d
f4
d5
e1
ce
4b
10
0f
06
b5
1d
ef
4c
33
f1
28
f9
e7
13
f4
33
f9
ec
0d
13
df
81
2f
de
ec
1f
0b
11
0b
2a
1a
17
ed
f2
04
1c
d8
f4
09
fa
b4
14
1f
20
c5
21
19
f2
0d
06
e4
2b
cc
1c
ee
d5
00
20
10
07
19
e3
24
eb
fc
01
ea
cd
3f
06
f9
fe
c8
0e
07
2d
23
20
de
27
1e
fb
c9
e4
ff
f4
2b
ec
f4
0f
c4
f8
f2
dd
36
15
bf
0a
df
18
e3
05
08
e3
0d
49
fa
bd
f3
fe
cb
20
57
20
f6
d5
29
dd
c0
ff
07
e9
d2
fd
16
53
10
e6
d5
0c
08
00
fb
e1
fb
12
1c
0e
0e
fc
3e
14
0d
c5
c9
f7
20
de
e3
fc
13
ec
1c
f3
e7
e9
35
e7
39
fb
cc
38
27
15
d3
2d
f9
12
21
24
2a
f3
ea
e3
ef
3b
ce
ec
3b
f1
44
20
fc
e5
00
1c
c8
22
f5
de
86
1a
3a
02
d1
af
e5
f0
09
ee
f0
16
fe
1e
23
40
f0
08
26
18
f3
06
1d
ea
d7
e4
dd
fa
fd
29
3a
0f
f7
04
14
d7
1a
03
e5
0a
0b
f5
c9
f7
fc
02
0e
3e
0d
0e
2b
c9
e7
12
e4
d4
ec
20
12
d8
f9
1e
e2
20
21
51
0f
19
1a
10
08
e0
e7
f0
28
28
28
6d
13
f2
f5
d7
15
b6
eb
1b
1f
b9
f8
0a
3c
c1
e0
d4
ce
14
74
3d
fa
1f
18
e2
e2
f0
ef
1c
2d
eb
07
e7
af
32
d8
0d
fd
f3
f4
cc
32
e0
08
2c
08
0e
26
24
24
da
57
14
fa
18
ea
0f
e9
c9
2c
f7
09
e9
44
25
10
20
15
eb
f0
0e
f0
1a
38
e3
17
18
d2
11
19
ed
ce
17
e6
00
f8
da
e7
e1
13
13
d7
03
ca
d0
37
09
cf
1a
58
f8
2f
c3
e4
e7
e5
ee
0f
d5
17
2b
17
d5
df
e2
05
ca
f2
ee
0d
fa
0d
08
12
e5
e7
f9
de
23
fa
ea
0e
01
ba
f3
e7
c1
e6
1e
0d
1a
0f
03
2d
26
00
f8
fa
cf
1f
25
17
1c
01
b7
c6
e6
12
ff
f6
eb
f4
ef
03
4c
01
22
c0
07
f2
ff
04
19
09
0d
3c
ec
fa
00
02
e0
1d
30
00
bb
36
d9
e2
d2
fd
0b
21
e4
21
f9
06
17
e6
1c
3c
ac
20
b7
9b
1f
f6
fc
f4
08
0e
02
c5
b5
ff
da
c1
ee
ce
c7
fd
fc
f2
2f
e9
0c
1c
26
fe
c8
0b
5c
04
fe
16
ef
d9
00
d5
e9
b9
ed
fd
10
f9
d7
26
2b
e9
da
d2
fd
34
f7
0f
22
c5
15
27
0e
fb
27
db
2e
07
03
e4
dc
d3
e4
29
d5
9b
2b
fc
0a
d1
0e
e2
21
37
22
01
ed
f8
f3
09
f3
e9
f1
a0
f2
e6
dd
eb
0c
de
f7
37
d1
3e
41
1c
00
e4
14
16
3e
2f
f1
2e
e9
e7
f0
01
c8
ea
f6
ec
d0
be
04
26
1d
1d
f2
1a
fd
14
d8
25
db
23
e9
f1
ea
ef
f5
e5
1a
eb
e1
13
c6
02
26
06
f3
2d
06
df
17
25
2c
04
e8
21
1d
f3
d3
c3
1f
fe
bd
df
04
e8
01
f3
46
8c
27
ff
14
2a
33
14
07
3a
5e
0d
07
04
d0
3f
01
1e
a3
dc
e7
bc
ea
ba
d6
f8
31
e4
f1
20
e0
bf
ee
ea
e7
c4
fd
1c
f0
03
0e
f4
e9
0a
02
0e
42
2b
0b
9e
f0
19
f5
19
e4
ea
fe
f4
da
e6
23
ca
03
d4
0d
da
28
2e
d9
d4
eb
54
08
ec
0c
0c
14
de
f0
ef
32
e0
eb
20
43
e1
19
01
1c
08
eb
ff
15
d4
c0
d1
c0
07
d2
20
e8
e4
d6
ee
fe
0a
0b
1a
26
04
08
16
12
e3
f6
f0
2c
d2
0d
d5
f4
f6
07
21
19
e8
41
30
0a
eb
74
13
e3
b9
12
ea
03
bb
f1
02
1b
f5
07
2f
fe
cf
05
73
d9
22
0c
35
26
e8
c3
fe
15
12
a0
ef
ce
d8
13
02
34
ff
31
37
3b
1b
e7
de
1c
27
38
e2
01
dc
11
29
ea
f0
30
d3
32
f5
e8
f9
33
1e
0a
f8
0f
01
e0
08
e0
f0
fe
bc
d4
e1
fb
12
e8
09
c2
1f
c2
26
e5
3d
e4
ff
dc
16
e0
38
0f
1c
fc
e9
08
0a
0a
1d
16
3e
f2
00
ed
ed
0d
39
57
f6
09
0e
07
0e
18
1c
57
48
05
e8
f9
e6
f2
30
c8
fd
1d
47
fa
ba
0f
0b
0c
0b
1b
26
1f
0e
dc
2f
d8
f2
e3
28
fe
ed
2d
19
d8
e6
b1
07
0b
11
f5
be
cf
b9
ee
db
24
f6
48
e7
0d
5a
0c
2e
f6
02
df
fd
2c
f7
2b
24
da
08
f0
3a
0b
d5
01
12
df
df
34
ef
19
bf
b1
15
3a
03
d0
21
f1
11
0d
f5
de
41
be
24
f6
d1
f6
19
03
c5
1c
f6
e7
e9
1f
ee
c8
0d
ec
de
07
f8
e9
1f
09
ce
df
0b
26
dc
0b
e7
ee
f7
15
f5
e5
0a
0e
f0
11
1e
0c
f0
ea
d8
e4
0d
16
20
f0
fc
00
0c
5d
f7
c4
ff
c9
1a
fe
58
2a
1b
20
00
29
d3
09
eb
0b
df
09
e8
01
da
28
22
3d
af
ed
b9
22
17
0f
0d
2c
f9
f3
26
3d
03
72
e5
06
dd
fb
e4
fd
00
ff
f6
52
11
4a
d8
4f
0a
ef
fd
d8
11
16
f3
ee
06
18
4c
13
29
26
fb
13
e9
ee
19
09
e6
1e
03
e2
f5
b8
d2
f9
1a
15
ee
da
00
e5
21
47
f7
05
ea
0c
24
f9
29
44
1c
16
16
00
f1
e5
fc
2f
de
0d
e0
51
da
fb
18
b8
fd
e6
e9
e8
13
29
23
11
d2
21
1b
35
e3
32
ce
b1
e4
b1
f9
43
e6
fe
0e
49
e1
fe
1e
f4
09
13
d0
a4
f0
24
10
19
de
de
e2
81
10
cc
17
24
0a
10
26
c8
e5
e3
0d
f8
f9
f3
01
06
f6
c5
e4
ff
e5
12
b5
c4
2b
ef
e1
14
ef
45
cb
e6
dd
06
d9
00
05
f7
e3
e0
2f
e3
bd
08
01
e5
e1
13
fd
1d
eb
f6
dd
ed
e3
09
0c
1b
34
2f
cf
f5
13
0d
dd
cb
e1
07
af
eb
fe
fd
e5
23
e3
17
f9
29
ec
0f
38
17
2b
a8
02
f3
df
f9
06
e8
ea