ee0f5feeffdad5f1d5e41dd4d00feade18f223f9c9e425e04102f7defde53600
f5ca012ede20193205f5260f02e6e5011acb01d0f53b05f7b1e3a922f92d17ea
f1240ce915efb9d6b3fce4f630ea2a1de706c2f82f2bfe2d064b0415c124d30a
e60fea28fb1257233cc8f30c3f54f2001dc3abfeed1b08dbc6f1f1144ccde2e9
ffca4100e930000ce81d234a0a06b739ceb30205e44804fb03f8e0f809040be6
f8250502c305e7f6fccce9121ff5ecf7091cc1ede117caed1c19d0d80bc71bf4
ce32d20048dfd011f32cfd252f0adddfd9f9e70d25ec150bfd32d511cc0a2ce2
dce803171ef0aaf8dd0819edeedb191cfe32f6fd05fe0ef715f7da06cbf703e9
fe63f8202b26e3f8e23aeae2fb144c2a1c31f715faf0c7e907db0afdef08eb14
040a34d33833391bdcee04c119e308f408e1f0d114f73103efddd3fdcd064ff4
115a0310f5000e05fd381af0150ae303e331d60123fc0cd32012d1e7efddf111
f7e4ef31bb04e9f627f605080dfe0833a3c2de03ff0aed3c0af7f12801e41ace
f1041b3216004e281fff10f70406e508093b140ffbf3c705ca1423fe073de1db
03d432ed4926f50404ebe7f52bd016f7fafd0bbeb51cc4f10337383103fef13a
d40edbecf3ef5408ffe6e4250dbf2703e8f410f617cd18080304190cdbb50ee3
2611fbf6181613f50419fc00082cf6001f371ce02211f628f4ebf9343814d511
050d123de0f3a9f2b8350ae0210e34ccf5d62cf30a2307e4ff141712e3f91240
0125efc608260bfa3a09f221d227e267ccf9fefe0e0338e22c2beef327ebe9ea
fb0becf9d1401020e7fbedf5300ae4092d3314f7d41be0ec0112f2e2f6f801f0
10ebea1be7f5ed14050b0fed20fe342f10e9baf52def2b0321defdf81602ef15
feddde2532f6210d2af204edf2c302bfd20210f6e026f2ed1c36090a2f20cf11
f4d22205e70d19081df9fc3113ec10cf2d1413211b0bdff31431bae2fac0fb0a
cd1423c0f4d8440ad905b10bdcdeeebe24cc0a21fd33bd260cffd3dfee03c546
f4cbe600e8f00942de0f1ff10ae8c2c8e31bb9e216e31fd006c9e2dafce30a33
e4035204da3ae6cc0be008dee808ff0dee02ecd3109eca19d5df03184121d5b5
01f3eeda2751353302ed07ebd62bcbf80d2b0c1df9ffce0940d0faeff1df41fc
e31419f33d0aebdc050ccb081dbdff23c0ea06042ddfe3fa03100d0f4d461805
2bd8fad9e623110c1ddff5140d2323ef37d01d082cf9b9fc4f242eeae714dc0b
46f510fa1afc340119ec0f1f000add0819e7f1032205e82111e4edebeb13e1cc
09e0f31e1245c8cfeb1bf3e9e0ebcdcd0e0bdc0cefe9191c1bd8010d1b340d0b
fedbe5c017f0f20a0af4eee1ecd52f071234dc28e6fe101311300916f6f429fb
2e30f137f6f6f31cd101f4d5fec4fcf40123140b200725e3f3060d1a2520e6ed