35013c1409f9aef75a2f
684cd0ae11f40afee99e
c9eb39b33e03c215efe7
0d10a8b0fe670307f0e6
ef212016f0ec97c22cf8
1af804233aff3802741b
e3fe0534d3e4db8c0fbf
38bde71f0f06ea081919
f3f87cdd1ee8ffa9f481
f119fadb41a5f1e2f9ed
f703e21a07ff27e13ff2
c248ce0c1516fa20e614
1d922ac42ebf3302fa42
221d535dd5052306dbec
12db6cdbefc9c63505d8
d641e51f5b32cb1bc84a
f3b6642c6e12180cf719
bb024ccdc0ba212d3ef9
12fb3911b8c757c5eb27
53dae60cd808eee3ca0f
d5cb29219af1279f2449
a93bd503e5287bdcf6f8
0148aa0b1ad10cc01855
eb32edf6e148f1cdeaf3
ee2f4638fa11bd0eb69e
01c2dbeb18f7247211ff
c74eef22c3ce053904e5
d44a6ff0aabd2ebbf2d0
03391dfab9021942083a
f1c80bf418d5ee0006da
adf212eef46b1c540740
15a7354544e0e01910f3
