0f07121509e44b381d18f225e307cdbdf60920f6dcd04917113ffed9fe322939
5f1de9f6f109f4f2fb0c07dafb1b0005fafe08ebef26ce0ffa08e0060b030f46
2d0105f6c009fcf1eb1bebe437fd2d31cae1000d04ffc42cc8efd823d5d5e2cf
dcdfecd1f5df10f3f4060d160011fbf0f30b43deea7ef8dcd5fe07c52dcdeb14
d5f11bf7f0e64ce2caffe0f53720ef1103dddfe22bbf012e03d700fdcdf729f1
d1f31f235315fdd0db094d0519fcb70a38da0b2a230019f917f8de35c029300a
fcec320772332d14c7e7d029c80d0bd5f80dfb1715eb22090ef6f7ebe1d5f7d8
f8f409d7e4deb9d75502fcb7fdfcb928071bb60b0a2bfe12fffe08edfceaf513
2829b6c30c161bfe1fe23909ecfcf44cf34e181113f3d2d8f24ec857270c3a18
b233491c021c11220cf3093216fd2301bde7d9f04f09e20c34ce15de00eebb11
06f1e11913c21afad4ec20f101fc0f3cf5fc4204170a0b00f8fbf4e4ddda1551
fbcdf2e11000e417e40110d7ec22ffec0decd604f819e6f0f1eff41c0af741fa
ee252bd854ec1f25340df50803f800e31f0dd32dd1d148ecd9e6d4d5120d14e7
2de3081316c5f5e1091527fb0ac9090b0ccd03122036edf716ecf4eeee291519
f3fb00e1fb40050c23b210cd49f616edafe1f0aec502e501080803f5f116dfa2
f9130e050f0ac91200ff0bfbcf2304ded123dcec150929fdfccd0611de07fdfa
a5eb00070cfe1514e5f61efbfb2f0ee230191fe806ab072a0e1d01371a20d2fa
1309f3fdeddbce03ebf10303f4eb2049e6fddae414571e08013025ea11f016ed
00eb1c30cee0dd11d202f0f61dbb1b54d02ff8f01fd3d936021ce20a382d0dde
1dbffa26def0f32805c14af5f64508072029bf0de806f71708de02f4e5110710
0cda15080a05e6de4bd9ebd404eade03ebdf3d221c3139d5e308fdcb120ea9d5
eddaf21b12d80ddfbc22f6f9ec08422c2ac8c911ee1446df02e7e5014410bbf4
03322d11eb300ae9f618eae2072023f80b2a01f6cceee829f2c1250214f9f84e
fcf39622e21a11f300f012d51fcdf00f30e12d1bc90a0beb4ef2fe29f3b71df4
0d4e06e0f2f00343e3fa21f516ec2004ffadc4f9c618300117ebfb1c37c0f62b
f211dd0ffbfb15cbeb010034d2e3e529e100dbc5fb0a9e1f001500241ef2e928
350e07d74b39f91855140b201fe1aa19eded160aeffbdcf8dfebd9e2eb13e3db
10ea240a0c2cd1ffdb9ef5f9e6e4ef28e80662f550251df612f814010b1414d7
d781bbf12ed836f1e6dae5cdfbfde709e125efd4164041d802b826f31cdf3d29
d934cef025f226e62b2be9110606ec0bf7fa1ad1e4c13a0111e024e4bf15b9ea
e40525edcad911f1f63f15e21b1fe6f6fbc8ee033a0101e2acf4db22fbdcf1c1
ddfc24fefa42402fefe5d0c8fedb0ef2f8240212fd0b0cfb5ef5d80429ecb9fa